{
  "version": "1.0",
  "truncation": null,
  "padding": null,
  "added_tokens": [
    {
      "id": 0,
      "content": "[pad]",
      "single_word": false,
      "lstrip": false,
      "rstrip": false,
      "normalized": false,
      "special": true
    },
    {
      "id": 1,
      "content": "[sos]",
      "single_word": false,
      "lstrip": false,
      "rstrip": false,
      "normalized": false,
      "special": true
    },
    {
      "id": 2,
      "content": "[eos]",
      "single_word": false,
      "lstrip": false,
      "rstrip": false,
      "normalized": false,
      "special": true
    },
    {
      "id": 3,
      "content": "[unk]",
      "single_word": false,
      "lstrip": false,
      "rstrip": false,
      "normalized": false,
      "special": true
    }
  ],
  "normalizer": null,
  "pre_tokenizer": {
    "type": "Metaspace",
    "replacement": "▁",
    "prepend_scheme": "always",
    "split": true
  },
  "post_processor": null,
  "decoder": {
    "type": "Metaspace",
    "replacement": "▁",
    "prepend_scheme": "always",
    "split": true
  },
  "model": {
    "type": "BPE",
    "dropout": null,
    "unk_token": "[unk]",
    "continuing_subword_prefix": null,
    "end_of_word_suffix": null,
    "fuse_unk": false,
    "byte_fallback": false,
    "ignore_merges": false,
    "vocab": {
      "[pad]": 0,
      "[sos]": 1,
      "[eos]": 2,
      "[unk]": 3,
      "\t": 4,
      "\n": 5,
      "\r": 6,
      "!": 7,
      "\"": 8,
      "#": 9,
      "$": 10,
      "%": 11,
      "&": 12,
      "'": 13,
      "(": 14,
      ")": 15,
      "*": 16,
      "+": 17,
      ",": 18,
      "-": 19,
      ".": 20,
      "/": 21,
      "0": 22,
      "1": 23,
      "2": 24,
      "3": 25,
      "4": 26,
      "5": 27,
      "6": 28,
      "7": 29,
      "8": 30,
      "9": 31,
      ":": 32,
      ";": 33,
      "<": 34,
      "=": 35,
      ">": 36,
      "?": 37,
      "@": 38,
      "A": 39,
      "B": 40,
      "C": 41,
      "D": 42,
      "E": 43,
      "F": 44,
      "G": 45,
      "H": 46,
      "I": 47,
      "J": 48,
      "K": 49,
      "L": 50,
      "M": 51,
      "N": 52,
      "O": 53,
      "P": 54,
      "Q": 55,
      "R": 56,
      "S": 57,
      "T": 58,
      "U": 59,
      "V": 60,
      "W": 61,
      "X": 62,
      "Y": 63,
      "Z": 64,
      "[": 65,
      "\\": 66,
      "]": 67,
      "^": 68,
      "_": 69,
      "`": 70,
      "a": 71,
      "b": 72,
      "c": 73,
      "d": 74,
      "e": 75,
      "f": 76,
      "g": 77,
      "h": 78,
      "i": 79,
      "j": 80,
      "k": 81,
      "l": 82,
      "m": 83,
      "n": 84,
      "o": 85,
      "p": 86,
      "q": 87,
      "r": 88,
      "s": 89,
      "t": 90,
      "u": 91,
      "v": 92,
      "w": 93,
      "x": 94,
      "y": 95,
      "z": 96,
      "{": 97,
      "|": 98,
      "}": 99,
      "~": 100,
      "": 101,
      "": 102,
      "": 103,
      "": 104,
      "": 105,
      "": 106,
      "": 107,
      "": 108,
      "": 109,
      "": 110,
      "": 111,
      "": 112,
      "": 113,
      "": 114,
      "": 115,
      "": 116,
      "": 117,
      "": 118,
      "": 119,
      "": 120,
      "": 121,
      "": 122,
      "": 123,
      "": 124,
      "": 125,
      "": 126,
      "": 127,
      "": 128,
      "": 129,
      " ": 130,
      "¡": 131,
      "¢": 132,
      "£": 133,
      "¤": 134,
      "¥": 135,
      "¦": 136,
      "§": 137,
      "¨": 138,
      "©": 139,
      "ª": 140,
      "«": 141,
      "¬": 142,
      "­": 143,
      "®": 144,
      "¯": 145,
      "°": 146,
      "±": 147,
      "²": 148,
      "³": 149,
      "´": 150,
      "µ": 151,
      "¶": 152,
      "·": 153,
      "¸": 154,
      "¹": 155,
      "º": 156,
      "»": 157,
      "¼": 158,
      "½": 159,
      "¾": 160,
      "¿": 161,
      "À": 162,
      "Á": 163,
      "Â": 164,
      "Ã": 165,
      "Ä": 166,
      "Å": 167,
      "Æ": 168,
      "Ç": 169,
      "È": 170,
      "É": 171,
      "Ê": 172,
      "Ë": 173,
      "Ì": 174,
      "Í": 175,
      "Î": 176,
      "Ï": 177,
      "Ð": 178,
      "Ñ": 179,
      "Ò": 180,
      "Ó": 181,
      "Ô": 182,
      "Õ": 183,
      "Ö": 184,
      "×": 185,
      "Ø": 186,
      "Ù": 187,
      "Ú": 188,
      "Û": 189,
      "Ü": 190,
      "Ý": 191,
      "Þ": 192,
      "ß": 193,
      "à": 194,
      "á": 195,
      "â": 196,
      "ã": 197,
      "ä": 198,
      "å": 199,
      "æ": 200,
      "ç": 201,
      "è": 202,
      "é": 203,
      "ê": 204,
      "ë": 205,
      "ì": 206,
      "í": 207,
      "î": 208,
      "ï": 209,
      "ð": 210,
      "ñ": 211,
      "ò": 212,
      "ó": 213,
      "ô": 214,
      "õ": 215,
      "ö": 216,
      "÷": 217,
      "ø": 218,
      "ù": 219,
      "ú": 220,
      "û": 221,
      "ü": 222,
      "ý": 223,
      "þ": 224,
      "ÿ": 225,
      "Ā": 226,
      "ā": 227,
      "Ă": 228,
      "ă": 229,
      "Ą": 230,
      "ą": 231,
      "Ć": 232,
      "ć": 233,
      "Ĉ": 234,
      "ĉ": 235,
      "Ċ": 236,
      "ċ": 237,
      "Č": 238,
      "č": 239,
      "Ď": 240,
      "ď": 241,
      "Đ": 242,
      "đ": 243,
      "Ē": 244,
      "ē": 245,
      "ĕ": 246,
      "Ė": 247,
      "ė": 248,
      "Ę": 249,
      "ę": 250,
      "Ě": 251,
      "ě": 252,
      "ĝ": 253,
      "Ğ": 254,
      "ğ": 255,
      "Ġ": 256,
      "ġ": 257,
      "Ģ": 258,
      "ģ": 259,
      "ĥ": 260,
      "Ħ": 261,
      "ħ": 262,
      "ĩ": 263,
      "Ī": 264,
      "ī": 265,
      "ĭ": 266,
      "Į": 267,
      "į": 268,
      "İ": 269,
      "ı": 270,
      "Ĳ": 271,
      "ĵ": 272,
      "Ķ": 273,
      "ķ": 274,
      "ĸ": 275,
      "Ĺ": 276,
      "ĺ": 277,
      "Ļ": 278,
      "ļ": 279,
      "Ľ": 280,
      "ľ": 281,
      "Ŀ": 282,
      "Ł": 283,
      "ł": 284,
      "Ń": 285,
      "ń": 286,
      "Ņ": 287,
      "ņ": 288,
      "Ň": 289,
      "ň": 290,
      "ŋ": 291,
      "Ō": 292,
      "ō": 293,
      "ŏ": 294,
      "Ő": 295,
      "ő": 296,
      "Œ": 297,
      "œ": 298,
      "Ŕ": 299,
      "ŕ": 300,
      "Ř": 301,
      "ř": 302,
      "Ś": 303,
      "ś": 304,
      "Ŝ": 305,
      "ŝ": 306,
      "Ş": 307,
      "ş": 308,
      "Š": 309,
      "š": 310,
      "Ţ": 311,
      "ţ": 312,
      "Ť": 313,
      "ť": 314,
      "ũ": 315,
      "Ū": 316,
      "ū": 317,
      "ŭ": 318,
      "Ů": 319,
      "ů": 320,
      "Ű": 321,
      "ű": 322,
      "Ų": 323,
      "ų": 324,
      "ŵ": 325,
      "ŷ": 326,
      "Ÿ": 327,
      "Ź": 328,
      "ź": 329,
      "Ż": 330,
      "ż": 331,
      "Ž": 332,
      "ž": 333,
      "ſ": 334,
      "Ɔ": 335,
      "Ƒ": 336,
      "ƒ": 337,
      "Ɠ": 338,
      "Ɩ": 339,
      "Ƙ": 340,
      "ƛ": 341,
      "Ɲ": 342,
      "Ơ": 343,
      "ơ": 344,
      "Ʀ": 345,
      "Ƭ": 346,
      "ư": 347,
      "ǎ": 348,
      "ǐ": 349,
      "ǒ": 350,
      "ǔ": 351,
      "ǘ": 352,
      "ǜ": 353,
      "ǝ": 354,
      "ǟ": 355,
      "ǣ": 356,
      "ǫ": 357,
      "Ǵ": 358,
      "ǵ": 359,
      "Ǻ": 360,
      "ȃ": 361,
      "ș": 362,
      "ț": 363,
      "Ȣ": 364,
      "Ȥ": 365,
      "Ȼ": 366,
      "ɐ": 367,
      "ɑ": 368,
      "ɒ": 369,
      "ɔ": 370,
      "ɕ": 371,
      "ə": 372,
      "ɚ": 373,
      "ɛ": 374,
      "ɜ": 375,
      "ɡ": 376,
      "ɢ": 377,
      "ɣ": 378,
      "ɤ": 379,
      "ɨ": 380,
      "ɪ": 381,
      "ɫ": 382,
      "ɬ": 383,
      "ɯ": 384,
      "ɲ": 385,
      "ɴ": 386,
      "ɵ": 387,
      "ɹ": 388,
      "ɾ": 389,
      "ʀ": 390,
      "ʁ": 391,
      "ʃ": 392,
      "ʊ": 393,
      "ʋ": 394,
      "ʌ": 395,
      "ʎ": 396,
      "ʐ": 397,
      "ʒ": 398,
      "ʔ": 399,
      "ʚ": 400,
      "ʤ": 401,
      "ʦ": 402,
      "ʰ": 403,
      "ʲ": 404,
      "ʺ": 405,
      "ʻ": 406,
      "ʼ": 407,
      "ʾ": 408,
      "ʿ": 409,
      "ˁ": 410,
      "ˆ": 411,
      "ˇ": 412,
      "ˈ": 413,
      "ˌ": 414,
      "ː": 415,
      "ˑ": 416,
      "˘": 417,
      "˙": 418,
      "˚": 419,
      "˛": 420,
      "˜": 421,
      "˝": 422,
      "ˡ": 423,
      "ˤ": 424,
      "̀": 425,
      "́": 426,
      "̂": 427,
      "̃": 428,
      "̄": 429,
      "̆": 430,
      "̇": 431,
      "̈": 432,
      "̍": 433,
      "̡": 434,
      "̣": 435,
      "̤": 436,
      "̧": 437,
      "̯": 438,
      "̱": 439,
      "̶": 440,
      "͘": 441,
      "͡": 442,
      ";": 443,
      "΄": 444,
      "Ά": 445,
      "Έ": 446,
      "Ί": 447,
      "Ό": 448,
      "Ώ": 449,
      "ΐ": 450,
      "Α": 451,
      "Β": 452,
      "Γ": 453,
      "Δ": 454,
      "Ε": 455,
      "Ζ": 456,
      "Η": 457,
      "Θ": 458,
      "Ι": 459,
      "Κ": 460,
      "Λ": 461,
      "Μ": 462,
      "Ν": 463,
      "Ο": 464,
      "Π": 465,
      "Ρ": 466,
      "Σ": 467,
      "Τ": 468,
      "Υ": 469,
      "Φ": 470,
      "Χ": 471,
      "Ω": 472,
      "ά": 473,
      "έ": 474,
      "ή": 475,
      "ί": 476,
      "α": 477,
      "β": 478,
      "γ": 479,
      "δ": 480,
      "ε": 481,
      "ζ": 482,
      "η": 483,
      "θ": 484,
      "ι": 485,
      "κ": 486,
      "λ": 487,
      "μ": 488,
      "ν": 489,
      "ξ": 490,
      "ο": 491,
      "π": 492,
      "ρ": 493,
      "ς": 494,
      "σ": 495,
      "τ": 496,
      "υ": 497,
      "φ": 498,
      "χ": 499,
      "ψ": 500,
      "ω": 501,
      "ϊ": 502,
      "ϋ": 503,
      "ό": 504,
      "ύ": 505,
      "ώ": 506,
      "Ё": 507,
      "Ђ": 508,
      "Ѓ": 509,
      "Є": 510,
      "Ѕ": 511,
      "І": 512,
      "Ї": 513,
      "Ј": 514,
      "Љ": 515,
      "Њ": 516,
      "Ћ": 517,
      "Ќ": 518,
      "Ў": 519,
      "Џ": 520,
      "А": 521,
      "Б": 522,
      "В": 523,
      "Г": 524,
      "Д": 525,
      "Е": 526,
      "Ж": 527,
      "З": 528,
      "И": 529,
      "Й": 530,
      "К": 531,
      "Л": 532,
      "М": 533,
      "Н": 534,
      "О": 535,
      "П": 536,
      "Р": 537,
      "С": 538,
      "Т": 539,
      "У": 540,
      "Ф": 541,
      "Х": 542,
      "Ц": 543,
      "Ч": 544,
      "Ш": 545,
      "Щ": 546,
      "Ъ": 547,
      "Ы": 548,
      "Ь": 549,
      "Э": 550,
      "Ю": 551,
      "Я": 552,
      "а": 553,
      "б": 554,
      "в": 555,
      "г": 556,
      "д": 557,
      "е": 558,
      "ж": 559,
      "з": 560,
      "и": 561,
      "й": 562,
      "к": 563,
      "л": 564,
      "м": 565,
      "н": 566,
      "о": 567,
      "п": 568,
      "р": 569,
      "с": 570,
      "т": 571,
      "у": 572,
      "ф": 573,
      "х": 574,
      "ц": 575,
      "ч": 576,
      "ш": 577,
      "щ": 578,
      "ъ": 579,
      "ы": 580,
      "ь": 581,
      "э": 582,
      "ю": 583,
      "я": 584,
      "ё": 585,
      "ђ": 586,
      "ѓ": 587,
      "є": 588,
      "ѕ": 589,
      "і": 590,
      "ї": 591,
      "ј": 592,
      "љ": 593,
      "њ": 594,
      "ћ": 595,
      "ќ": 596,
      "ў": 597,
      "џ": 598,
      "Ѳ": 599,
      "ѳ": 600,
      "Ґ": 601,
      "ґ": 602,
      "ғ": 603,
      "ҙ": 604,
      "қ": 605,
      "Ҡ": 606,
      "ҡ": 607,
      "ң": 608,
      "ү": 609,
      "ұ": 610,
      "Ҳ": 611,
      "ҳ": 612,
      "һ": 613,
      "ә": 614,
      "ө": 615,
      "ӳ": 616,
      "ְ": 617,
      "ֲ": 618,
      "ֳ": 619,
      "ִ": 620,
      "ֵ": 621,
      "ֶ": 622,
      "ַ": 623,
      "ָ": 624,
      "ֹ": 625,
      "ּ": 626,
      "ֿ": 627,
      "ׁ": 628,
      "א": 629,
      "ב": 630,
      "ג": 631,
      "ד": 632,
      "ה": 633,
      "ו": 634,
      "ז": 635,
      "ח": 636,
      "ט": 637,
      "י": 638,
      "כ": 639,
      "ל": 640,
      "ם": 641,
      "מ": 642,
      "ן": 643,
      "נ": 644,
      "ס": 645,
      "ע": 646,
      "פ": 647,
      "ץ": 648,
      "צ": 649,
      "ק": 650,
      "ר": 651,
      "ש": 652,
      "ת": 653,
      "،": 654,
      "ؒ": 655,
      "؛": 656,
      "ء": 657,
      "آ": 658,
      "أ": 659,
      "ؤ": 660,
      "إ": 661,
      "ئ": 662,
      "ا": 663,
      "ب": 664,
      "ة": 665,
      "ت": 666,
      "ث": 667,
      "ج": 668,
      "ح": 669,
      "خ": 670,
      "د": 671,
      "ذ": 672,
      "ر": 673,
      "ز": 674,
      "س": 675,
      "ش": 676,
      "ص": 677,
      "ض": 678,
      "ط": 679,
      "ظ": 680,
      "ع": 681,
      "غ": 682,
      "ـ": 683,
      "ف": 684,
      "ق": 685,
      "ك": 686,
      "ل": 687,
      "م": 688,
      "ن": 689,
      "ه": 690,
      "و": 691,
      "ى": 692,
      "ي": 693,
      "ً": 694,
      "ٌ": 695,
      "ٍ": 696,
      "َ": 697,
      "ُ": 698,
      "ِ": 699,
      "ّ": 700,
      "ْ": 701,
      "ٲ": 702,
      "ٹ": 703,
      "ټ": 704,
      "پ": 705,
      "ځ": 706,
      "چ": 707,
      "ڠ": 708,
      "ڤ": 709,
      "ک": 710,
      "ڬ": 711,
      "ڭ": 712,
      "گ": 713,
      "ھ": 714,
      "ہ": 715,
      "ۂ": 716,
      "ۆ": 717,
      "ۇ": 718,
      "ی": 719,
      "ې": 720,
      "ە": 721,
      "۞": 722,
      "۩": 723,
      "۰": 724,
      "۱": 725,
      "۲": 726,
      "۳": 727,
      "۴": 728,
      "۵": 729,
      "۶": 730,
      "۷": 731,
      "۸": 732,
      "۹": 733,
      "ރ": 734,
      "ކ": 735,
      "އ": 736,
      "މ": 737,
      "ާ": 738,
      "ި": 739,
      "ެ": 740,
      "ߖ": 741,
      "ߧ": 742,
      "߮": 743,
      "ं": 744,
      "अ": 745,
      "आ": 746,
      "ई": 747,
      "उ": 748,
      "क": 749,
      "ग": 750,
      "च": 751,
      "छ": 752,
      "ज": 753,
      "ञ": 754,
      "ट": 755,
      "ड": 756,
      "ढ": 757,
      "ण": 758,
      "त": 759,
      "थ": 760,
      "द": 761,
      "ध": 762,
      "न": 763,
      "प": 764,
      "ब": 765,
      "भ": 766,
      "म": 767,
      "य": 768,
      "र": 769,
      "ल": 770,
      "व": 771,
      "श": 772,
      "ष": 773,
      "स": 774,
      "ह": 775,
      "़": 776,
      "ा": 777,
      "ि": 778,
      "ी": 779,
      "ु": 780,
      "ृ": 781,
      "े": 782,
      "ॉ": 783,
      "ो": 784,
      "्": 785,
      "ॐ": 786,
      "ॡ": 787,
      "०": 788,
      "१": 789,
      "२": 790,
      "३": 791,
      "५": 792,
      "९": 793,
      "ং": 794,
      "আ": 795,
      "ই": 796,
      "এ": 797,
      "ক": 798,
      "গ": 799,
      "ঙ": 800,
      "চ": 801,
      "ট": 802,
      "ত": 803,
      "ন": 804,
      "প": 805,
      "ব": 806,
      "ম": 807,
      "য": 808,
      "র": 809,
      "ল": 810,
      "শ": 811,
      "ষ": 812,
      "হ": 813,
      "়": 814,
      "া": 815,
      "ি": 816,
      "ু": 817,
      "ো": 818,
      "্": 819,
      "ৰ": 820,
      "ਗ": 821,
      "ਚ": 822,
      "ਡ": 823,
      "ਹ": 824,
      "ੀ": 825,
      "੍": 826,
      "ੜ": 827,
      "ੰ": 828,
      "ં": 829,
      "અ": 830,
      "ક": 831,
      "જ": 832,
      "ત": 833,
      "મ": 834,
      "ય": 835,
      "ર": 836,
      "સ": 837,
      "ા": 838,
      "િ": 839,
      "ુ": 840,
      "ે": 841,
      "્": 842,
      "૦": 843,
      "૧": 844,
      "૨": 845,
      "க": 846,
      "ங": 847,
      "ச": 848,
      "ட": 849,
      "த": 850,
      "ன": 851,
      "ப": 852,
      "ம": 853,
      "ய": 854,
      "ர": 855,
      "ல": 856,
      "வ": 857,
      "ஷ": 858,
      "ா": 859,
      "ி": 860,
      "ு": 861,
      "ூ": 862,
      "ெ": 863,
      "ை": 864,
      "ோ": 865,
      "்": 866,
      "ం": 867,
      "ఆ": 868,
      "క": 869,
      "గ": 870,
      "జ": 871,
      "డ": 872,
      "ద": 873,
      "ధ": 874,
      "న": 875,
      "ప": 876,
      "ర": 877,
      "శ": 878,
      "ా": 879,
      "ు": 880,
      "ె": 881,
      "ే": 882,
      "ొ": 883,
      "్": 884,
      "ౕ": 885,
      "ಐ": 886,
      "ಯ": 887,
      "ರ": 888,
      "ವ": 889,
      "ಶ": 890,
      "ಾ": 891,
      "ೆ": 892,
      "ೈ": 893,
      "್": 894,
      "ೖ": 895,
      "೦": 896,
      "೧": 897,
      "೨": 898,
      "೩": 899,
      "೫": 900,
      "೬": 901,
      "೮": 902,
      "೯": 903,
      "അ": 904,
      "എ": 905,
      "ക": 906,
      "ത": 907,
      "ദ": 908,
      "ന": 909,
      "പ": 910,
      "മ": 911,
      "യ": 912,
      "ല": 913,
      "വ": 914,
      "ഷ": 915,
      "സ": 916,
      "ി": 917,
      "ീ": 918,
      "ു": 919,
      "ോ": 920,
      "്": 921,
      "න": 922,
      "ම": 923,
      "ර": 924,
      "ව": 925,
      "හ": 926,
      "ු": 927,
      "ก": 928,
      "ข": 929,
      "ค": 930,
      "ฆ": 931,
      "ง": 932,
      "จ": 933,
      "ฉ": 934,
      "ช": 935,
      "ซ": 936,
      "ญ": 937,
      "ฎ": 938,
      "ฏ": 939,
      "ฐ": 940,
      "ฑ": 941,
      "ฒ": 942,
      "ณ": 943,
      "ด": 944,
      "ต": 945,
      "ถ": 946,
      "ท": 947,
      "ธ": 948,
      "น": 949,
      "บ": 950,
      "ป": 951,
      "ผ": 952,
      "ฝ": 953,
      "พ": 954,
      "ฟ": 955,
      "ภ": 956,
      "ม": 957,
      "ย": 958,
      "ร": 959,
      "ฤ": 960,
      "ล": 961,
      "ว": 962,
      "ศ": 963,
      "ษ": 964,
      "ส": 965,
      "ห": 966,
      "อ": 967,
      "ฮ": 968,
      "ฯ": 969,
      "ะ": 970,
      "ั": 971,
      "า": 972,
      "ำ": 973,
      "ิ": 974,
      "ี": 975,
      "ึ": 976,
      "ื": 977,
      "ุ": 978,
      "ู": 979,
      "฿": 980,
      "เ": 981,
      "แ": 982,
      "โ": 983,
      "ใ": 984,
      "ไ": 985,
      "ๆ": 986,
      "็": 987,
      "่": 988,
      "้": 989,
      "๊": 990,
      "๋": 991,
      "์": 992,
      "๑": 993,
      "ຂ": 994,
      "ຄ": 995,
      "ງ": 996,
      "ຈ": 997,
      "ດ": 998,
      "ຖ": 999,
      "ນ": 1000,
      "ບ": 1001,
      "ມ": 1002,
      "ລ": 1003,
      "ວ": 1004,
      "ັ": 1005,
      "າ": 1006,
      "ຸ": 1007,
      "ົ": 1008,
      "ຽ": 1009,
      "ເ": 1010,
      "້": 1011,
      "ໜ": 1012,
      "་": 1013,
      "ཏ": 1014,
      "ད": 1015,
      "ན": 1016,
      "བ": 1017,
      "མ": 1018,
      "ཚ": 1019,
      "འ": 1020,
      "ལ": 1021,
      "ས": 1022,
      "ཱ": 1023,
      "ི": 1024,
      "ོ": 1025,
      "ྔ": 1026,
      "ླ": 1027,
      "န": 1028,
      "ရ": 1029,
      "ဝ": 1030,
      "သ": 1031,
      "ဟ": 1032,
      "ေ": 1033,
      "္": 1034,
      "ა": 1035,
      "ბ": 1036,
      "გ": 1037,
      "დ": 1038,
      "ე": 1039,
      "ვ": 1040,
      "ზ": 1041,
      "თ": 1042,
      "ი": 1043,
      "კ": 1044,
      "ლ": 1045,
      "მ": 1046,
      "ნ": 1047,
      "ო": 1048,
      "პ": 1049,
      "რ": 1050,
      "ს": 1051,
      "ტ": 1052,
      "უ": 1053,
      "ქ": 1054,
      "ღ": 1055,
      "შ": 1056,
      "ც": 1057,
      "ძ": 1058,
      "წ": 1059,
      "ხ": 1060,
      "ჯ": 1061,
      "ህ": 1062,
      "ሊ": 1063,
      "ል": 1064,
      "ሓ": 1065,
      "ሕ": 1066,
      "መ": 1067,
      "ሙ": 1068,
      "ሜ": 1069,
      "ም": 1070,
      "ሥ": 1071,
      "ረ": 1072,
      "ሪ": 1073,
      "ራ": 1074,
      "ር": 1075,
      "ሰ": 1076,
      "ሴ": 1077,
      "ስ": 1078,
      "ሻ": 1079,
      "ሽ": 1080,
      "ቀ": 1081,
      "ቐ": 1082,
      "በ": 1083,
      "ቢ": 1084,
      "ባ": 1085,
      "ተ": 1086,
      "ት": 1087,
      "ቶ": 1088,
      "ነ": 1089,
      "ን": 1090,
      "አ": 1091,
      "ኣ": 1092,
      "ኤ": 1093,
      "እ": 1094,
      "ኦ": 1095,
      "ካ": 1096,
      "ክ": 1097,
      "ዋ": 1098,
      "ው": 1099,
      "ዓ": 1100,
      "ዕ": 1101,
      "የ": 1102,
      "ይ": 1103,
      "ደ": 1104,
      "ዲ": 1105,
      "ድ": 1106,
      "ገ": 1107,
      "ጋ": 1108,
      "ጨ": 1109,
      "ጽ": 1110,
      "ፅ": 1111,
      "ፈ": 1112,
      "ፍ": 1113,
      "፣": 1114,
      "Ꭰ": 1115,
      "Ꭲ": 1116,
      "Ꮊ": 1117,
      "ᐃ": 1118,
      "ᐊ": 1119,
      "ᑦ": 1120,
      "ᑲ": 1121,
      "ᒃ": 1122,
      "ᒥ": 1123,
      "ᓄ": 1124,
      "ᓕ": 1125,
      "ដ": 1126,
      "ឋ": 1127,
      "រ": 1128,
      "ស": 1129,
      "ហ": 1130,
      "្": 1131,
      "ḇ": 1132,
      "ḍ": 1133,
      "ḏ": 1134,
      "ḗ": 1135,
      "Ḥ": 1136,
      "ḥ": 1137,
      "Ḫ": 1138,
      "ḫ": 1139,
      "ḳ": 1140,
      "ḷ": 1141,
      "ḿ": 1142,
      "ṃ": 1143,
      "ṅ": 1144,
      "ṇ": 1145,
      "ṉ": 1146,
      "ṛ": 1147,
      "ṣ": 1148,
      "Ṭ": 1149,
      "ṭ": 1150,
      "Ṯ": 1151,
      "ṳ": 1152,
      "ẋ": 1153,
      "ạ": 1154,
      "ả": 1155,
      "ấ": 1156,
      "ầ": 1157,
      "ẩ": 1158,
      "ậ": 1159,
      "ắ": 1160,
      "ằ": 1161,
      "Ẳ": 1162,
      "ẵ": 1163,
      "ặ": 1164,
      "ẻ": 1165,
      "ẽ": 1166,
      "ế": 1167,
      "ề": 1168,
      "ể": 1169,
      "ễ": 1170,
      "ệ": 1171,
      "ỉ": 1172,
      "ị": 1173,
      "Ọ": 1174,
      "ọ": 1175,
      "ỏ": 1176,
      "ố": 1177,
      "ồ": 1178,
      "ổ": 1179,
      "ộ": 1180,
      "ớ": 1181,
      "ờ": 1182,
      "ở": 1183,
      "ỡ": 1184,
      "ợ": 1185,
      "ụ": 1186,
      "ủ": 1187,
      "ứ": 1188,
      "ừ": 1189,
      "ử": 1190,
      "ữ": 1191,
      "ự": 1192,
      "ỳ": 1193,
      "ỹ": 1194,
      "ἀ": 1195,
      "ἁ": 1196,
      "ἄ": 1197,
      "ἅ": 1198,
      "Ἀ": 1199,
      "ἐ": 1200,
      "ἑ": 1201,
      "ἔ": 1202,
      "Ἔ": 1203,
      "ἠ": 1204,
      "ἡ": 1205,
      "ἦ": 1206,
      "Ἡ": 1207,
      "Ἥ": 1208,
      "ἰ": 1209,
      "Ἱ": 1210,
      "ὁ": 1211,
      "ὄ": 1212,
      "Ὑ": 1213,
      "ά": 1214,
      "ὶ": 1215,
      "ὺ": 1216,
      "ῆ": 1217,
      "ῑ": 1218,
      "ῖ": 1219,
      "ῥ": 1220,
      "ῦ": 1221,
      " ": 1222,
      "​": 1223,
      "‌": 1224,
      "‍": 1225,
      "‎": 1226,
      "‏": 1227,
      "‐": 1228,
      "‑": 1229,
      "‒": 1230,
      "–": 1231,
      "—": 1232,
      "―": 1233,
      "‖": 1234,
      "‘": 1235,
      "’": 1236,
      "‚": 1237,
      "‛": 1238,
      "“": 1239,
      "”": 1240,
      "„": 1241,
      "‟": 1242,
      "†": 1243,
      "‡": 1244,
      "•": 1245,
      "…": 1246,
      " ": 1247,
      "‪": 1248,
      "‬": 1249,
      "‭": 1250,
      "‰": 1251,
      "′": 1252,
      "″": 1253,
      "‶": 1254,
      "‹": 1255,
      "›": 1256,
      "※": 1257,
      "‼": 1258,
      "‽": 1259,
      "⁄": 1260,
      "⁴": 1261,
      "ⁿ": 1262,
      "₁": 1263,
      "₂": 1264,
      "₠": 1265,
      "₣": 1266,
      "₤": 1267,
      "₩": 1268,
      "₪": 1269,
      "€": 1270,
      "₴": 1271,
      "₵": 1272,
      "⃛": 1273,
      "℃": 1274,
      "ℓ": 1275,
      "℔": 1276,
      "№": 1277,
      "™": 1278,
      "Ω": 1279,
      "℮": 1280,
      "⅓": 1281,
      "⅔": 1282,
      "⅛": 1283,
      "⅞": 1284,
      "Ⅱ": 1285,
      "Ⅲ": 1286,
      "←": 1287,
      "↑": 1288,
      "→": 1289,
      "↓": 1290,
      "↔": 1291,
      "↧": 1292,
      "⇒": 1293,
      "⇔": 1294,
      "⇗": 1295,
      "⇢": 1296,
      "∀": 1297,
      "∃": 1298,
      "∈": 1299,
      "∑": 1300,
      "−": 1301,
      "∙": 1302,
      "√": 1303,
      "∞": 1304,
      "∫": 1305,
      "∴": 1306,
      "∶": 1307,
      "∼": 1308,
      "≈": 1309,
      "≠": 1310,
      "≡": 1311,
      "≤": 1312,
      "≥": 1313,
      "≪": 1314,
      "≫": 1315,
      "⋅": 1316,
      "⌃": 1317,
      "⌘": 1318,
      "①": 1319,
      "②": 1320,
      "③": 1321,
      "─": 1322,
      "│": 1323,
      "┌": 1324,
      "┐": 1325,
      "└": 1326,
      "┘": 1327,
      "┬": 1328,
      "┴": 1329,
      "╚": 1330,
      "╞": 1331,
      "╩": 1332,
      "▁": 1333,
      "█": 1334,
      "░": 1335,
      "▒": 1336,
      "■": 1337,
      "□": 1338,
      "▪": 1339,
      "▲": 1340,
      "△": 1341,
      "▸": 1342,
      "►": 1343,
      "▼": 1344,
      "◆": 1345,
      "◇": 1346,
      "◈": 1347,
      "◊": 1348,
      "○": 1349,
      "◎": 1350,
      "●": 1351,
      "◙": 1352,
      "◦": 1353,
      "★": 1354,
      "☆": 1355,
      "☎": 1356,
      "☏": 1357,
      "☑": 1358,
      "☯": 1359,
      "☺": 1360,
      "☻": 1361,
      "☼": 1362,
      "♀": 1363,
      "♂": 1364,
      "♠": 1365,
      "♣": 1366,
      "♥": 1367,
      "♦": 1368,
      "♪": 1369,
      "♫": 1370,
      "✿": 1371,
      "➔": 1372,
      "➚": 1373,
      "➟": 1374,
      "➲": 1375,
      "Ⰶ": 1376,
      "ⲉ": 1377,
      "ⲟ": 1378,
      "Ⲡ": 1379,
      "ⲣ": 1380,
      "ⲩ": 1381,
      "、": 1382,
      "。": 1383,
      "々": 1384,
      "《": 1385,
      "》": 1386,
      "「": 1387,
      "」": 1388,
      "『": 1389,
      "』": 1390,
      "【": 1391,
      "】": 1392,
      "〔": 1393,
      "〕": 1394,
      "〜": 1395,
      "ぁ": 1396,
      "あ": 1397,
      "ぃ": 1398,
      "い": 1399,
      "う": 1400,
      "ぇ": 1401,
      "え": 1402,
      "お": 1403,
      "か": 1404,
      "が": 1405,
      "き": 1406,
      "ぎ": 1407,
      "く": 1408,
      "ぐ": 1409,
      "け": 1410,
      "げ": 1411,
      "こ": 1412,
      "ご": 1413,
      "さ": 1414,
      "ざ": 1415,
      "し": 1416,
      "じ": 1417,
      "す": 1418,
      "ず": 1419,
      "せ": 1420,
      "ぜ": 1421,
      "そ": 1422,
      "ぞ": 1423,
      "た": 1424,
      "だ": 1425,
      "ち": 1426,
      "ぢ": 1427,
      "っ": 1428,
      "つ": 1429,
      "づ": 1430,
      "て": 1431,
      "で": 1432,
      "と": 1433,
      "ど": 1434,
      "な": 1435,
      "に": 1436,
      "ぬ": 1437,
      "ね": 1438,
      "の": 1439,
      "は": 1440,
      "ば": 1441,
      "ひ": 1442,
      "び": 1443,
      "ふ": 1444,
      "ぶ": 1445,
      "ぷ": 1446,
      "へ": 1447,
      "べ": 1448,
      "ほ": 1449,
      "ぼ": 1450,
      "ま": 1451,
      "み": 1452,
      "む": 1453,
      "め": 1454,
      "も": 1455,
      "ゃ": 1456,
      "や": 1457,
      "ゅ": 1458,
      "ゆ": 1459,
      "ょ": 1460,
      "よ": 1461,
      "ら": 1462,
      "り": 1463,
      "る": 1464,
      "れ": 1465,
      "ろ": 1466,
      "わ": 1467,
      "ゐ": 1468,
      "ゑ": 1469,
      "を": 1470,
      "ん": 1471,
      "ゔ": 1472,
      "゛": 1473,
      "゜": 1474,
      "ァ": 1475,
      "ア": 1476,
      "ィ": 1477,
      "イ": 1478,
      "ゥ": 1479,
      "ウ": 1480,
      "ェ": 1481,
      "エ": 1482,
      "ォ": 1483,
      "オ": 1484,
      "カ": 1485,
      "ガ": 1486,
      "キ": 1487,
      "ギ": 1488,
      "ク": 1489,
      "グ": 1490,
      "ケ": 1491,
      "ゲ": 1492,
      "コ": 1493,
      "ゴ": 1494,
      "サ": 1495,
      "ザ": 1496,
      "シ": 1497,
      "ジ": 1498,
      "ス": 1499,
      "ズ": 1500,
      "セ": 1501,
      "ゼ": 1502,
      "ソ": 1503,
      "ゾ": 1504,
      "タ": 1505,
      "ダ": 1506,
      "チ": 1507,
      "ッ": 1508,
      "ツ": 1509,
      "テ": 1510,
      "デ": 1511,
      "ト": 1512,
      "ド": 1513,
      "ナ": 1514,
      "ニ": 1515,
      "ヌ": 1516,
      "ネ": 1517,
      "ノ": 1518,
      "ハ": 1519,
      "バ": 1520,
      "パ": 1521,
      "ヒ": 1522,
      "ビ": 1523,
      "ピ": 1524,
      "フ": 1525,
      "ブ": 1526,
      "プ": 1527,
      "ヘ": 1528,
      "ベ": 1529,
      "ペ": 1530,
      "ホ": 1531,
      "ボ": 1532,
      "ポ": 1533,
      "マ": 1534,
      "ミ": 1535,
      "ム": 1536,
      "メ": 1537,
      "モ": 1538,
      "ャ": 1539,
      "ヤ": 1540,
      "ュ": 1541,
      "ユ": 1542,
      "ョ": 1543,
      "ヨ": 1544,
      "ラ": 1545,
      "リ": 1546,
      "ル": 1547,
      "レ": 1548,
      "ロ": 1549,
      "ワ": 1550,
      "ン": 1551,
      "ヴ": 1552,
      "・": 1553,
      "ー": 1554,
      "ㄅ": 1555,
      "ㄆ": 1556,
      "ㄇ": 1557,
      "ㄈ": 1558,
      "ㄤ": 1559,
      "ㄧ": 1560,
      "ㅓ": 1561,
      "ㅔ": 1562,
      "ㅕ": 1563,
      "ㅖ": 1564,
      "ㅡ": 1565,
      "ㅣ": 1566,
      "㎡": 1567,
      "䟩": 1568,
      "一": 1569,
      "七": 1570,
      "万": 1571,
      "丈": 1572,
      "三": 1573,
      "上": 1574,
      "下": 1575,
      "不": 1576,
      "与": 1577,
      "专": 1578,
      "世": 1579,
      "丘": 1580,
      "业": 1581,
      "东": 1582,
      "两": 1583,
      "严": 1584,
      "丨": 1585,
      "个": 1586,
      "中": 1587,
      "丰": 1588,
      "临": 1589,
      "丸": 1590,
      "丹": 1591,
      "为": 1592,
      "主": 1593,
      "丼": 1594,
      "丽": 1595,
      "举": 1596,
      "久": 1597,
      "么": 1598,
      "义": 1599,
      "之": 1600,
      "乌": 1601,
      "乎": 1602,
      "乏": 1603,
      "乐": 1604,
      "乗": 1605,
      "乘": 1606,
      "乙": 1607,
      "九": 1608,
      "也": 1609,
      "习": 1610,
      "乡": 1611,
      "书": 1612,
      "买": 1613,
      "乱": 1614,
      "乾": 1615,
      "了": 1616,
      "争": 1617,
      "事": 1618,
      "二": 1619,
      "于": 1620,
      "云": 1621,
      "互": 1622,
      "五": 1623,
      "井": 1624,
      "亚": 1625,
      "些": 1626,
      "亜": 1627,
      "亞": 1628,
      "交": 1629,
      "产": 1630,
      "亨": 1631,
      "京": 1632,
      "人": 1633,
      "亿": 1634,
      "什": 1635,
      "仁": 1636,
      "仅": 1637,
      "今": 1638,
      "介": 1639,
      "仍": 1640,
      "从": 1641,
      "他": 1642,
      "付": 1643,
      "仙": 1644,
      "仝": 1645,
      "代": 1646,
      "以": 1647,
      "仪": 1648,
      "们": 1649,
      "仮": 1650,
      "仲": 1651,
      "件": 1652,
      "价": 1653,
      "任": 1654,
      "伊": 1655,
      "伎": 1656,
      "伏": 1657,
      "伐": 1658,
      "休": 1659,
      "众": 1660,
      "优": 1661,
      "会": 1662,
      "伝": 1663,
      "伟": 1664,
      "传": 1665,
      "伦": 1666,
      "伯": 1667,
      "估": 1668,
      "伴": 1669,
      "伸": 1670,
      "似": 1671,
      "但": 1672,
      "位": 1673,
      "低": 1674,
      "住": 1675,
      "佐": 1676,
      "佑": 1677,
      "体": 1678,
      "何": 1679,
      "佗": 1680,
      "余": 1681,
      "作": 1682,
      "你": 1683,
      "佰": 1684,
      "使": 1685,
      "例": 1686,
      "侍": 1687,
      "供": 1688,
      "依": 1689,
      "便": 1690,
      "俄": 1691,
      "俊": 1692,
      "保": 1693,
      "信": 1694,
      "修": 1695,
      "倉": 1696,
      "個": 1697,
      "倍": 1698,
      "倒": 1699,
      "候": 1700,
      "值": 1701,
      "假": 1702,
      "做": 1703,
      "健": 1704,
      "側": 1705,
      "備": 1706,
      "储": 1707,
      "傳": 1708,
      "傷": 1709,
      "働": 1710,
      "像": 1711,
      "僕": 1712,
      "儀": 1713,
      "儉": 1714,
      "元": 1715,
      "先": 1716,
      "光": 1717,
      "克": 1718,
      "免": 1719,
      "入": 1720,
      "內": 1721,
      "全": 1722,
      "兩": 1723,
      "八": 1724,
      "公": 1725,
      "六": 1726,
      "兰": 1727,
      "共": 1728,
      "关": 1729,
      "兴": 1730,
      "兵": 1731,
      "其": 1732,
      "具": 1733,
      "养": 1734,
      "兽": 1735,
      "内": 1736,
      "円": 1737,
      "冊": 1738,
      "册": 1739,
      "再": 1740,
      "写": 1741,
      "军": 1742,
      "农": 1743,
      "冤": 1744,
      "冰": 1745,
      "决": 1746,
      "况": 1747,
      "冷": 1748,
      "净": 1749,
      "凄": 1750,
      "准": 1751,
      "凉": 1752,
      "凍": 1753,
      "减": 1754,
      "几": 1755,
      "凶": 1756,
      "凸": 1757,
      "出": 1758,
      "函": 1759,
      "刀": 1760,
      "分": 1761,
      "切": 1762,
      "刑": 1763,
      "列": 1764,
      "刘": 1765,
      "则": 1766,
      "刚": 1767,
      "创": 1768,
      "判": 1769,
      "別": 1770,
      "刨": 1771,
      "利": 1772,
      "别": 1773,
      "到": 1774,
      "制": 1775,
      "刺": 1776,
      "則": 1777,
      "前": 1778,
      "剑": 1779,
      "剣": 1780,
      "剥": 1781,
      "剧": 1782,
      "剩": 1783,
      "副": 1784,
      "割": 1785,
      "創": 1786,
      "劇": 1787,
      "劉": 1788,
      "力": 1789,
      "功": 1790,
      "加": 1791,
      "务": 1792,
      "动": 1793,
      "助": 1794,
      "努": 1795,
      "劳": 1796,
      "势": 1797,
      "動": 1798,
      "勝": 1799,
      "勞": 1800,
      "勢": 1801,
      "勧": 1802,
      "勿": 1803,
      "包": 1804,
      "化": 1805,
      "北": 1806,
      "匠": 1807,
      "匡": 1808,
      "匹": 1809,
      "区": 1810,
      "医": 1811,
      "匿": 1812,
      "區": 1813,
      "十": 1814,
      "千": 1815,
      "升": 1816,
      "半": 1817,
      "卍": 1818,
      "华": 1819,
      "协": 1820,
      "卐": 1821,
      "卓": 1822,
      "单": 1823,
      "卖": 1824,
      "南": 1825,
      "博": 1826,
      "卡": 1827,
      "卦": 1828,
      "卫": 1829,
      "印": 1830,
      "危": 1831,
      "即": 1832,
      "却": 1833,
      "厂": 1834,
      "原": 1835,
      "去": 1836,
      "县": 1837,
      "参": 1838,
      "參": 1839,
      "及": 1840,
      "友": 1841,
      "双": 1842,
      "反": 1843,
      "发": 1844,
      "取": 1845,
      "受": 1846,
      "变": 1847,
      "叡": 1848,
      "口": 1849,
      "古": 1850,
      "另": 1851,
      "只": 1852,
      "叫": 1853,
      "召": 1854,
      "可": 1855,
      "台": 1856,
      "史": 1857,
      "右": 1858,
      "号": 1859,
      "司": 1860,
      "吃": 1861,
      "各": 1862,
      "合": 1863,
      "吉": 1864,
      "吊": 1865,
      "同": 1866,
      "名": 1867,
      "后": 1868,
      "向": 1869,
      "吗": 1870,
      "君": 1871,
      "否": 1872,
      "吧": 1873,
      "吨": 1874,
      "含": 1875,
      "听": 1876,
      "吳": 1877,
      "吴": 1878,
      "吸": 1879,
      "吹": 1880,
      "吾": 1881,
      "呀": 1882,
      "呂": 1883,
      "呆": 1884,
      "呉": 1885,
      "告": 1886,
      "呑": 1887,
      "员": 1888,
      "周": 1889,
      "味": 1890,
      "呼": 1891,
      "命": 1892,
      "咆": 1893,
      "和": 1894,
      "咬": 1895,
      "品": 1896,
      "哈": 1897,
      "响": 1898,
      "員": 1899,
      "哥": 1900,
      "哮": 1901,
      "哲": 1902,
      "唐": 1903,
      "售": 1904,
      "唸": 1905,
      "商": 1906,
      "問": 1907,
      "啤": 1908,
      "啦": 1909,
      "喀": 1910,
      "喂": 1911,
      "善": 1912,
      "喇": 1913,
      "喜": 1914,
      "喫": 1915,
      "嗣": 1916,
      "嘉": 1917,
      "嘛": 1918,
      "嘟": 1919,
      "噌": 1920,
      "噛": 1921,
      "器": 1922,
      "嚴": 1923,
      "四": 1924,
      "回": 1925,
      "因": 1926,
      "団": 1927,
      "囧": 1928,
      "园": 1929,
      "困": 1930,
      "固": 1931,
      "国": 1932,
      "图": 1933,
      "圆": 1934,
      "國": 1935,
      "圍": 1936,
      "圏": 1937,
      "園": 1938,
      "圓": 1939,
      "圖": 1940,
      "土": 1941,
      "在": 1942,
      "地": 1943,
      "圳": 1944,
      "场": 1945,
      "址": 1946,
      "坂": 1947,
      "均": 1948,
      "坊": 1949,
      "坐": 1950,
      "块": 1951,
      "坛": 1952,
      "坝": 1953,
      "坡": 1954,
      "坤": 1955,
      "坪": 1956,
      "型": 1957,
      "垣": 1958,
      "城": 1959,
      "埔": 1960,
      "域": 1961,
      "基": 1962,
      "堂": 1963,
      "堆": 1964,
      "堤": 1965,
      "堰": 1966,
      "報": 1967,
      "場": 1968,
      "塊": 1969,
      "塔": 1970,
      "塗": 1971,
      "塞": 1972,
      "塩": 1973,
      "塾": 1974,
      "増": 1975,
      "增": 1976,
      "墟": 1977,
      "墩": 1978,
      "壊": 1979,
      "士": 1980,
      "壮": 1981,
      "売": 1982,
      "壳": 1983,
      "壹": 1984,
      "壽": 1985,
      "处": 1986,
      "备": 1987,
      "変": 1988,
      "复": 1989,
      "夏": 1990,
      "夕": 1991,
      "外": 1992,
      "多": 1993,
      "夛": 1994,
      "夜": 1995,
      "够": 1996,
      "夢": 1997,
      "大": 1998,
      "天": 1999,
      "太": 2000,
      "夫": 2001,
      "央": 2002,
      "头": 2003,
      "夷": 2004,
      "夹": 2005,
      "奄": 2006,
      "奇": 2007,
      "奈": 2008,
      "奉": 2009,
      "套": 2010,
      "奘": 2011,
      "奚": 2012,
      "奥": 2013,
      "女": 2014,
      "奶": 2015,
      "奸": 2016,
      "好": 2017,
      "如": 2018,
      "妖": 2019,
      "妤": 2020,
      "妨": 2021,
      "妻": 2022,
      "姆": 2023,
      "始": 2024,
      "委": 2025,
      "姦": 2026,
      "威": 2027,
      "娃": 2028,
      "娄": 2029,
      "娜": 2030,
      "娣": 2031,
      "娥": 2032,
      "娱": 2033,
      "婁": 2034,
      "婦": 2035,
      "婷": 2036,
      "媛": 2037,
      "嫌": 2038,
      "子": 2039,
      "字": 2040,
      "存": 2041,
      "季": 2042,
      "学": 2043,
      "孴": 2044,
      "學": 2045,
      "宁": 2046,
      "它": 2047,
      "宇": 2048,
      "安": 2049,
      "宋": 2050,
      "完": 2051,
      "宏": 2052,
      "宗": 2053,
      "官": 2054,
      "定": 2055,
      "宜": 2056,
      "宝": 2057,
      "实": 2058,
      "実": 2059,
      "客": 2060,
      "宣": 2061,
      "室": 2062,
      "宫": 2063,
      "宮": 2064,
      "宰": 2065,
      "家": 2066,
      "容": 2067,
      "宿": 2068,
      "寄": 2069,
      "密": 2070,
      "富": 2071,
      "寤": 2072,
      "實": 2073,
      "寧": 2074,
      "寨": 2075,
      "寳": 2076,
      "寶": 2077,
      "寸": 2078,
      "对": 2079,
      "寺": 2080,
      "寻": 2081,
      "寿": 2082,
      "専": 2083,
      "将": 2084,
      "小": 2085,
      "少": 2086,
      "尔": 2087,
      "尘": 2088,
      "就": 2089,
      "尽": 2090,
      "尾": 2091,
      "尿": 2092,
      "局": 2093,
      "屄": 2094,
      "居": 2095,
      "屈": 2096,
      "届": 2097,
      "屋": 2098,
      "屏": 2099,
      "展": 2100,
      "属": 2101,
      "屯": 2102,
      "山": 2103,
      "屿": 2104,
      "岐": 2105,
      "岗": 2106,
      "岛": 2107,
      "岡": 2108,
      "岩": 2109,
      "岭": 2110,
      "岳": 2111,
      "岷": 2112,
      "岸": 2113,
      "島": 2114,
      "峻": 2115,
      "峽": 2116,
      "崎": 2117,
      "崔": 2118,
      "崖": 2119,
      "崩": 2120,
      "嵥": 2121,
      "嶺": 2122,
      "嶼": 2123,
      "川": 2124,
      "州": 2125,
      "工": 2126,
      "左": 2127,
      "巧": 2128,
      "巨": 2129,
      "差": 2130,
      "己": 2131,
      "已": 2132,
      "巴": 2133,
      "巻": 2134,
      "市": 2135,
      "布": 2136,
      "师": 2137,
      "希": 2138,
      "帝": 2139,
      "帥": 2140,
      "带": 2141,
      "師": 2142,
      "席": 2143,
      "帯": 2144,
      "常": 2145,
      "幌": 2146,
      "幡": 2147,
      "幣": 2148,
      "干": 2149,
      "平": 2150,
      "年": 2151,
      "并": 2152,
      "幸": 2153,
      "幹": 2154,
      "幾": 2155,
      "广": 2156,
      "庁": 2157,
      "広": 2158,
      "庄": 2159,
      "庆": 2160,
      "序": 2161,
      "库": 2162,
      "应": 2163,
      "底": 2164,
      "店": 2165,
      "庚": 2166,
      "府": 2167,
      "废": 2168,
      "度": 2169,
      "座": 2170,
      "庫": 2171,
      "庭": 2172,
      "康": 2173,
      "廃": 2174,
      "廣": 2175,
      "建": 2176,
      "开": 2177,
      "弁": 2178,
      "异": 2179,
      "弄": 2180,
      "式": 2181,
      "弓": 2182,
      "弔": 2183,
      "引": 2184,
      "张": 2185,
      "弦": 2186,
      "張": 2187,
      "强": 2188,
      "当": 2189,
      "形": 2190,
      "彩": 2191,
      "彭": 2192,
      "彰": 2193,
      "影": 2194,
      "役": 2195,
      "彻": 2196,
      "彼": 2197,
      "征": 2198,
      "待": 2199,
      "很": 2200,
      "律": 2201,
      "後": 2202,
      "徐": 2203,
      "徒": 2204,
      "得": 2205,
      "御": 2206,
      "復": 2207,
      "循": 2208,
      "微": 2209,
      "徳": 2210,
      "德": 2211,
      "徹": 2212,
      "徽": 2213,
      "心": 2214,
      "必": 2215,
      "忆": 2216,
      "忍": 2217,
      "志": 2218,
      "忘": 2219,
      "応": 2220,
      "忠": 2221,
      "快": 2222,
      "念": 2223,
      "忻": 2224,
      "忽": 2225,
      "态": 2226,
      "怒": 2227,
      "思": 2228,
      "怡": 2229,
      "急": 2230,
      "性": 2231,
      "怪": 2232,
      "总": 2233,
      "恋": 2234,
      "恢": 2235,
      "恩": 2236,
      "息": 2237,
      "恵": 2238,
      "悟": 2239,
      "悠": 2240,
      "患": 2241,
      "您": 2242,
      "悩": 2243,
      "悪": 2244,
      "悬": 2245,
      "情": 2246,
      "惑": 2247,
      "惠": 2248,
      "惧": 2249,
      "惯": 2250,
      "想": 2251,
      "意": 2252,
      "愛": 2253,
      "感": 2254,
      "慈": 2255,
      "態": 2256,
      "慎": 2257,
      "慢": 2258,
      "慣": 2259,
      "慶": 2260,
      "憎": 2261,
      "憨": 2262,
      "憩": 2263,
      "憶": 2264,
      "憾": 2265,
      "應": 2266,
      "成": 2267,
      "我": 2268,
      "戒": 2269,
      "或": 2270,
      "战": 2271,
      "截": 2272,
      "戴": 2273,
      "戶": 2274,
      "户": 2275,
      "戸": 2276,
      "戻": 2277,
      "房": 2278,
      "所": 2279,
      "扈": 2280,
      "手": 2281,
      "才": 2282,
      "打": 2283,
      "払": 2284,
      "找": 2285,
      "承": 2286,
      "技": 2287,
      "投": 2288,
      "抗": 2289,
      "折": 2290,
      "抜": 2291,
      "护": 2292,
      "报": 2293,
      "抵": 2294,
      "抹": 2295,
      "押": 2296,
      "担": 2297,
      "拉": 2298,
      "拒": 2299,
      "拓": 2300,
      "招": 2301,
      "拟": 2302,
      "择": 2303,
      "括": 2304,
      "拳": 2305,
      "拼": 2306,
      "拿": 2307,
      "持": 2308,
      "挂": 2309,
      "指": 2310,
      "按": 2311,
      "挑": 2312,
      "挠": 2313,
      "挡": 2314,
      "振": 2315,
      "损": 2316,
      "据": 2317,
      "捷": 2318,
      "掉": 2319,
      "排": 2320,
      "掛": 2321,
      "採": 2322,
      "探": 2323,
      "接": 2324,
      "控": 2325,
      "推": 2326,
      "措": 2327,
      "掻": 2328,
      "揂": 2329,
      "揃": 2330,
      "提": 2331,
      "揚": 2332,
      "換": 2333,
      "握": 2334,
      "援": 2335,
      "搅": 2336,
      "損": 2337,
      "搜": 2338,
      "搞": 2339,
      "携": 2340,
      "摂": 2341,
      "摆": 2342,
      "摇": 2343,
      "摩": 2344,
      "撒": 2345,
      "撤": 2346,
      "撫": 2347,
      "播": 2348,
      "撮": 2349,
      "操": 2350,
      "支": 2351,
      "收": 2352,
      "改": 2353,
      "攻": 2354,
      "放": 2355,
      "政": 2356,
      "故": 2357,
      "效": 2358,
      "敏": 2359,
      "救": 2360,
      "教": 2361,
      "散": 2362,
      "敦": 2363,
      "敬": 2364,
      "数": 2365,
      "整": 2366,
      "文": 2367,
      "斗": 2368,
      "料": 2369,
      "斯": 2370,
      "新": 2371,
      "方": 2372,
      "施": 2373,
      "旅": 2374,
      "旋": 2375,
      "族": 2376,
      "无": 2377,
      "日": 2378,
      "旧": 2379,
      "旨": 2380,
      "旭": 2381,
      "旱": 2382,
      "时": 2383,
      "昇": 2384,
      "昌": 2385,
      "明": 2386,
      "易": 2387,
      "星": 2388,
      "映": 2389,
      "春": 2390,
      "昭": 2391,
      "是": 2392,
      "显": 2393,
      "時": 2394,
      "晏": 2395,
      "晨": 2396,
      "普": 2397,
      "景": 2398,
      "智": 2399,
      "暂": 2400,
      "暨": 2401,
      "暫": 2402,
      "暴": 2403,
      "曌": 2404,
      "曝": 2405,
      "更": 2406,
      "書": 2407,
      "曹": 2408,
      "曾": 2409,
      "最": 2410,
      "會": 2411,
      "月": 2412,
      "有": 2413,
      "服": 2414,
      "朔": 2415,
      "朗": 2416,
      "望": 2417,
      "朝": 2418,
      "期": 2419,
      "木": 2420,
      "未": 2421,
      "末": 2422,
      "本": 2423,
      "札": 2424,
      "术": 2425,
      "朱": 2426,
      "机": 2427,
      "杂": 2428,
      "李": 2429,
      "杏": 2430,
      "材": 2431,
      "村": 2432,
      "束": 2433,
      "条": 2434,
      "来": 2435,
      "杨": 2436,
      "杭": 2437,
      "東": 2438,
      "松": 2439,
      "板": 2440,
      "极": 2441,
      "构": 2442,
      "析": 2443,
      "林": 2444,
      "枚": 2445,
      "果": 2446,
      "枡": 2447,
      "枫": 2448,
      "架": 2449,
      "某": 2450,
      "染": 2451,
      "柔": 2452,
      "查": 2453,
      "柱": 2454,
      "柴": 2455,
      "标": 2456,
      "树": 2457,
      "校": 2458,
      "株": 2459,
      "样": 2460,
      "核": 2461,
      "根": 2462,
      "格": 2463,
      "栽": 2464,
      "桂": 2465,
      "桃": 2466,
      "框": 2467,
      "案": 2468,
      "桓": 2469,
      "桜": 2470,
      "桥": 2471,
      "桩": 2472,
      "桶": 2473,
      "梁": 2474,
      "梅": 2475,
      "梨": 2476,
      "械": 2477,
      "检": 2478,
      "棒": 2479,
      "森": 2480,
      "棲": 2481,
      "椅": 2482,
      "植": 2483,
      "検": 2484,
      "楠": 2485,
      "業": 2486,
      "極": 2487,
      "楼": 2488,
      "楽": 2489,
      "樓": 2490,
      "標": 2491,
      "模": 2492,
      "横": 2493,
      "樱": 2494,
      "樹": 2495,
      "橋": 2496,
      "機": 2497,
      "橿": 2498,
      "檀": 2499,
      "次": 2500,
      "欢": 2501,
      "欧": 2502,
      "款": 2503,
      "歌": 2504,
      "止": 2505,
      "正": 2506,
      "此": 2507,
      "步": 2508,
      "武": 2509,
      "歩": 2510,
      "歳": 2511,
      "歸": 2512,
      "死": 2513,
      "殊": 2514,
      "段": 2515,
      "殷": 2516,
      "殻": 2517,
      "殿": 2518,
      "毁": 2519,
      "母": 2520,
      "毎": 2521,
      "每": 2522,
      "毓": 2523,
      "比": 2524,
      "毛": 2525,
      "氏": 2526,
      "民": 2527,
      "气": 2528,
      "気": 2529,
      "氣": 2530,
      "氧": 2531,
      "氮": 2532,
      "水": 2533,
      "氷": 2534,
      "永": 2535,
      "汁": 2536,
      "求": 2537,
      "汇": 2538,
      "汉": 2539,
      "汕": 2540,
      "江": 2541,
      "池": 2542,
      "汤": 2543,
      "汴": 2544,
      "決": 2545,
      "沈": 2546,
      "沌": 2547,
      "沙": 2548,
      "沛": 2549,
      "没": 2550,
      "沢": 2551,
      "沪": 2552,
      "沱": 2553,
      "河": 2554,
      "油": 2555,
      "治": 2556,
      "沿": 2557,
      "況": 2558,
      "泄": 2559,
      "泉": 2560,
      "泊": 2561,
      "法": 2562,
      "波": 2563,
      "泥": 2564,
      "注": 2565,
      "泰": 2566,
      "泽": 2567,
      "洁": 2568,
      "洋": 2569,
      "洒": 2570,
      "洗": 2571,
      "洛": 2572,
      "洞": 2573,
      "洪": 2574,
      "洲": 2575,
      "活": 2576,
      "派": 2577,
      "流": 2578,
      "浄": 2579,
      "测": 2580,
      "济": 2581,
      "浙": 2582,
      "浜": 2583,
      "浦": 2584,
      "浮": 2585,
      "浴": 2586,
      "海": 2587,
      "涂": 2588,
      "消": 2589,
      "涌": 2590,
      "涩": 2591,
      "淡": 2592,
      "淫": 2593,
      "深": 2594,
      "混": 2595,
      "淹": 2596,
      "清": 2597,
      "済": 2598,
      "渋": 2599,
      "渐": 2600,
      "減": 2601,
      "渝": 2602,
      "渡": 2603,
      "温": 2604,
      "港": 2605,
      "渲": 2606,
      "渴": 2607,
      "游": 2608,
      "湄": 2609,
      "湖": 2610,
      "湘": 2611,
      "湯": 2612,
      "湾": 2613,
      "満": 2614,
      "溉": 2615,
      "源": 2616,
      "溜": 2617,
      "溝": 2618,
      "溢": 2619,
      "溥": 2620,
      "溪": 2621,
      "溫": 2622,
      "溯": 2623,
      "溶": 2624,
      "滇": 2625,
      "滞": 2626,
      "滨": 2627,
      "滬": 2628,
      "漢": 2629,
      "漫": 2630,
      "潜": 2631,
      "潟": 2632,
      "潢": 2633,
      "潭": 2634,
      "潮": 2635,
      "澄": 2636,
      "澎": 2637,
      "澤": 2638,
      "澳": 2639,
      "激": 2640,
      "濟": 2641,
      "濱": 2642,
      "灌": 2643,
      "灣": 2644,
      "火": 2645,
      "灯": 2646,
      "灰": 2647,
      "灾": 2648,
      "炎": 2649,
      "炯": 2650,
      "点": 2651,
      "為": 2652,
      "烈": 2653,
      "烏": 2654,
      "烦": 2655,
      "烧": 2656,
      "热": 2657,
      "無": 2658,
      "焦": 2659,
      "然": 2660,
      "焼": 2661,
      "煙": 2662,
      "照": 2663,
      "煩": 2664,
      "煮": 2665,
      "熊": 2666,
      "熟": 2667,
      "熨": 2668,
      "熱": 2669,
      "燃": 2670,
      "燕": 2671,
      "燗": 2672,
      "爆": 2673,
      "爛": 2674,
      "爪": 2675,
      "爱": 2676,
      "父": 2677,
      "爻": 2678,
      "爾": 2679,
      "片": 2680,
      "版": 2681,
      "牌": 2682,
      "牙": 2683,
      "牛": 2684,
      "物": 2685,
      "特": 2686,
      "状": 2687,
      "狐": 2688,
      "狗": 2689,
      "独": 2690,
      "狭": 2691,
      "猛": 2692,
      "猪": 2693,
      "献": 2694,
      "獄": 2695,
      "獲": 2696,
      "玄": 2697,
      "率": 2698,
      "玉": 2699,
      "王": 2700,
      "环": 2701,
      "现": 2702,
      "玲": 2703,
      "珈": 2704,
      "珍": 2705,
      "珠": 2706,
      "班": 2707,
      "球": 2708,
      "理": 2709,
      "琢": 2710,
      "琲": 2711,
      "瑠": 2712,
      "瑩": 2713,
      "璃": 2714,
      "璐": 2715,
      "環": 2716,
      "瓊": 2717,
      "瓶": 2718,
      "甜": 2719,
      "生": 2720,
      "用": 2721,
      "田": 2722,
      "由": 2723,
      "甲": 2724,
      "申": 2725,
      "电": 2726,
      "男": 2727,
      "甸": 2728,
      "町": 2729,
      "画": 2730,
      "界": 2731,
      "留": 2732,
      "畢": 2733,
      "略": 2734,
      "番": 2735,
      "畿": 2736,
      "疆": 2737,
      "疏": 2738,
      "疑": 2739,
      "疗": 2740,
      "疫": 2741,
      "病": 2742,
      "痛": 2743,
      "痴": 2744,
      "瘤": 2745,
      "癌": 2746,
      "癪": 2747,
      "発": 2748,
      "登": 2749,
      "白": 2750,
      "百": 2751,
      "的": 2752,
      "皇": 2753,
      "皮": 2754,
      "盆": 2755,
      "益": 2756,
      "盐": 2757,
      "监": 2758,
      "盖": 2759,
      "盗": 2760,
      "盛": 2761,
      "監": 2762,
      "盧": 2763,
      "目": 2764,
      "直": 2765,
      "相": 2766,
      "省": 2767,
      "看": 2768,
      "県": 2769,
      "真": 2770,
      "眩": 2771,
      "眼": 2772,
      "着": 2773,
      "睛": 2774,
      "睦": 2775,
      "瞎": 2776,
      "瞳": 2777,
      "瞻": 2778,
      "矢": 2779,
      "知": 2780,
      "短": 2781,
      "石": 2782,
      "矿": 2783,
      "码": 2784,
      "砂": 2785,
      "砕": 2786,
      "破": 2787,
      "硝": 2788,
      "硬": 2789,
      "确": 2790,
      "碁": 2791,
      "碍": 2792,
      "碧": 2793,
      "碳": 2794,
      "確": 2795,
      "磁": 2796,
      "磨": 2797,
      "磷": 2798,
      "礱": 2799,
      "示": 2800,
      "礼": 2801,
      "社": 2802,
      "祖": 2803,
      "祝": 2804,
      "神": 2805,
      "票": 2806,
      "祭": 2807,
      "祸": 2808,
      "祿": 2809,
      "禁": 2810,
      "禅": 2811,
      "福": 2812,
      "禪": 2813,
      "禹": 2814,
      "禽": 2815,
      "秀": 2816,
      "私": 2817,
      "秉": 2818,
      "秋": 2819,
      "种": 2820,
      "科": 2821,
      "租": 2822,
      "秦": 2823,
      "积": 2824,
      "称": 2825,
      "移": 2826,
      "稀": 2827,
      "稅": 2828,
      "程": 2829,
      "税": 2830,
      "稱": 2831,
      "稲": 2832,
      "稳": 2833,
      "稻": 2834,
      "稼": 2835,
      "稿": 2836,
      "穷": 2837,
      "空": 2838,
      "立": 2839,
      "站": 2840,
      "竜": 2841,
      "竞": 2842,
      "章": 2843,
      "端": 2844,
      "競": 2845,
      "竹": 2846,
      "笠": 2847,
      "第": 2848,
      "筆": 2849,
      "等": 2850,
      "筑": 2851,
      "答": 2852,
      "策": 2853,
      "签": 2854,
      "简": 2855,
      "箍": 2856,
      "箕": 2857,
      "管": 2858,
      "箱": 2859,
      "節": 2860,
      "篇": 2861,
      "簡": 2862,
      "米": 2863,
      "类": 2864,
      "粉": 2865,
      "粤": 2866,
      "粮": 2867,
      "粵": 2868,
      "精": 2869,
      "糖": 2870,
      "糸": 2871,
      "系": 2872,
      "紀": 2873,
      "紂": 2874,
      "紅": 2875,
      "紋": 2876,
      "納": 2877,
      "純": 2878,
      "紙": 2879,
      "級": 2880,
      "素": 2881,
      "索": 2882,
      "紧": 2883,
      "細": 2884,
      "紹": 2885,
      "終": 2886,
      "経": 2887,
      "結": 2888,
      "絞": 2889,
      "統": 2890,
      "經": 2891,
      "継": 2892,
      "続": 2893,
      "網": 2894,
      "綺": 2895,
      "総": 2896,
      "線": 2897,
      "縣": 2898,
      "縮": 2899,
      "繁": 2900,
      "織": 2901,
      "红": 2902,
      "约": 2903,
      "级": 2904,
      "纪": 2905,
      "纷": 2906,
      "纸": 2907,
      "纹": 2908,
      "纽": 2909,
      "线": 2910,
      "组": 2911,
      "细": 2912,
      "终": 2913,
      "绍": 2914,
      "经": 2915,
      "绝": 2916,
      "绞": 2917,
      "统": 2918,
      "绪": 2919,
      "续": 2920,
      "维": 2921,
      "缓": 2922,
      "缩": 2923,
      "缺": 2924,
      "网": 2925,
      "罗": 2926,
      "罪": 2927,
      "置": 2928,
      "署": 2929,
      "羅": 2930,
      "美": 2931,
      "群": 2932,
      "義": 2933,
      "羲": 2934,
      "羽": 2935,
      "翁": 2936,
      "習": 2937,
      "翠": 2938,
      "翻": 2939,
      "翼": 2940,
      "耀": 2941,
      "老": 2942,
      "考": 2943,
      "者": 2944,
      "而": 2945,
      "耐": 2946,
      "耕": 2947,
      "耳": 2948,
      "耶": 2949,
      "耸": 2950,
      "联": 2951,
      "聖": 2952,
      "聞": 2953,
      "聼": 2954,
      "肉": 2955,
      "股": 2956,
      "肥": 2957,
      "育": 2958,
      "胁": 2959,
      "背": 2960,
      "胖": 2961,
      "胜": 2962,
      "胞": 2963,
      "胡": 2964,
      "能": 2965,
      "脑": 2966,
      "脖": 2967,
      "脚": 2968,
      "脱": 2969,
      "腔": 2970,
      "腕": 2971,
      "腰": 2972,
      "腹": 2973,
      "腺": 2974,
      "膚": 2975,
      "臂": 2976,
      "臈": 2977,
      "臓": 2978,
      "臘": 2979,
      "臣": 2980,
      "臧": 2981,
      "臨": 2982,
      "自": 2983,
      "至": 2984,
      "致": 2985,
      "臺": 2986,
      "舁": 2987,
      "舅": 2988,
      "興": 2989,
      "舊": 2990,
      "舍": 2991,
      "舐": 2992,
      "舖": 2993,
      "舞": 2994,
      "舣": 2995,
      "舩": 2996,
      "航": 2997,
      "舫": 2998,
      "般": 2999,
      "艮": 3000,
      "良": 3001,
      "色": 3002,
      "艳": 3003,
      "节": 3004,
      "芋": 3005,
      "芝": 3006,
      "芦": 3007,
      "花": 3008,
      "苏": 3009,
      "苑": 3010,
      "若": 3011,
      "英": 3012,
      "茂": 3013,
      "茜": 3014,
      "茨": 3015,
      "茶": 3016,
      "草": 3017,
      "荣": 3018,
      "荷": 3019,
      "莉": 3020,
      "莞": 3021,
      "莨": 3022,
      "莲": 3023,
      "获": 3024,
      "莹": 3025,
      "菜": 3026,
      "菩": 3027,
      "華": 3028,
      "菱": 3029,
      "萄": 3030,
      "营": 3031,
      "萧": 3032,
      "萬": 3033,
      "落": 3034,
      "葉": 3035,
      "著": 3036,
      "葡": 3037,
      "董": 3038,
      "蒋": 3039,
      "蒸": 3040,
      "蓋": 3041,
      "蓟": 3042,
      "蓮": 3043,
      "蔓": 3044,
      "蔚": 3045,
      "蔣": 3046,
      "蕭": 3047,
      "蕴": 3048,
      "薇": 3049,
      "薊": 3050,
      "薔": 3051,
      "薬": 3052,
      "薯": 3053,
      "藍": 3054,
      "藏": 3055,
      "藕": 3056,
      "藤": 3057,
      "蘇": 3058,
      "虑": 3059,
      "號": 3060,
      "虫": 3061,
      "蛋": 3062,
      "蜀": 3063,
      "蝦": 3064,
      "融": 3065,
      "螨": 3066,
      "螳": 3067,
      "螺": 3068,
      "蟲": 3069,
      "血": 3070,
      "衆": 3071,
      "行": 3072,
      "術": 3073,
      "街": 3074,
      "衡": 3075,
      "衣": 3076,
      "表": 3077,
      "裂": 3078,
      "装": 3079,
      "裕": 3080,
      "製": 3081,
      "西": 3082,
      "要": 3083,
      "見": 3084,
      "視": 3085,
      "覧": 3086,
      "親": 3087,
      "観": 3088,
      "覺": 3089,
      "见": 3090,
      "观": 3091,
      "视": 3092,
      "觉": 3093,
      "角": 3094,
      "解": 3095,
      "触": 3096,
      "言": 3097,
      "訃": 3098,
      "訊": 3099,
      "討": 3100,
      "訓": 3101,
      "記": 3102,
      "設": 3103,
      "許": 3104,
      "訳": 3105,
      "詠": 3106,
      "試": 3107,
      "詩": 3108,
      "詰": 3109,
      "話": 3110,
      "詳": 3111,
      "詹": 3112,
      "誓": 3113,
      "語": 3114,
      "說": 3115,
      "説": 3116,
      "読": 3117,
      "調": 3118,
      "談": 3119,
      "請": 3120,
      "論": 3121,
      "諸": 3122,
      "謑": 3123,
      "證": 3124,
      "警": 3125,
      "譯": 3126,
      "護": 3127,
      "讃": 3128,
      "變": 3129,
      "计": 3130,
      "讣": 3131,
      "认": 3132,
      "讨": 3133,
      "让": 3134,
      "议": 3135,
      "讯": 3136,
      "记": 3137,
      "讲": 3138,
      "许": 3139,
      "论": 3140,
      "讼": 3141,
      "设": 3142,
      "证": 3143,
      "评": 3144,
      "识": 3145,
      "诉": 3146,
      "译": 3147,
      "试": 3148,
      "诘": 3149,
      "话": 3150,
      "该": 3151,
      "详": 3152,
      "语": 3153,
      "说": 3154,
      "请": 3155,
      "诺": 3156,
      "课": 3157,
      "调": 3158,
      "谈": 3159,
      "谋": 3160,
      "谢": 3161,
      "谷": 3162,
      "豆": 3163,
      "豊": 3164,
      "豐": 3165,
      "豫": 3166,
      "貌": 3167,
      "負": 3168,
      "財": 3169,
      "貢": 3170,
      "販": 3171,
      "貮": 3172,
      "貰": 3173,
      "貴": 3174,
      "貸": 3175,
      "費": 3176,
      "賀": 3177,
      "資": 3178,
      "賈": 3179,
      "賢": 3180,
      "贊": 3181,
      "贞": 3182,
      "负": 3183,
      "贡": 3184,
      "贤": 3185,
      "货": 3186,
      "质": 3187,
      "贫": 3188,
      "购": 3189,
      "贱": 3190,
      "贳": 3191,
      "贷": 3192,
      "贸": 3193,
      "费": 3194,
      "资": 3195,
      "赌": 3196,
      "赖": 3197,
      "赛": 3198,
      "赞": 3199,
      "赤": 3200,
      "赵": 3201,
      "赶": 3202,
      "起": 3203,
      "超": 3204,
      "越": 3205,
      "趋": 3206,
      "趙": 3207,
      "足": 3208,
      "跆": 3209,
      "跋": 3210,
      "跟": 3211,
      "跨": 3212,
      "路": 3213,
      "跳": 3214,
      "踌": 3215,
      "蹟": 3216,
      "躇": 3217,
      "躊": 3218,
      "躍": 3219,
      "身": 3220,
      "車": 3221,
      "軍": 3222,
      "転": 3223,
      "較": 3224,
      "載": 3225,
      "輪": 3226,
      "车": 3227,
      "转": 3228,
      "轮": 3229,
      "轻": 3230,
      "载": 3231,
      "较": 3232,
      "辑": 3233,
      "辛": 3234,
      "辞": 3235,
      "辭": 3236,
      "辱": 3237,
      "農": 3238,
      "込": 3239,
      "达": 3240,
      "迅": 3241,
      "过": 3242,
      "迎": 3243,
      "运": 3244,
      "近": 3245,
      "返": 3246,
      "还": 3247,
      "这": 3248,
      "进": 3249,
      "远": 3250,
      "连": 3251,
      "迫": 3252,
      "述": 3253,
      "迷": 3254,
      "追": 3255,
      "送": 3256,
      "适": 3257,
      "逃": 3258,
      "逆": 3259,
      "选": 3260,
      "透": 3261,
      "途": 3262,
      "通": 3263,
      "速": 3264,
      "造": 3265,
      "逢": 3266,
      "連": 3267,
      "逸": 3268,
      "遇": 3269,
      "遊": 3270,
      "運": 3271,
      "過": 3272,
      "道": 3273,
      "達": 3274,
      "遗": 3275,
      "遝": 3276,
      "遠": 3277,
      "遣": 3278,
      "適": 3279,
      "遪": 3280,
      "遭": 3281,
      "遲": 3282,
      "遷": 3283,
      "遽": 3284,
      "避": 3285,
      "還": 3286,
      "邊": 3287,
      "邑": 3288,
      "那": 3289,
      "邱": 3290,
      "郎": 3291,
      "郑": 3292,
      "郝": 3293,
      "郡": 3294,
      "部": 3295,
      "郷": 3296,
      "都": 3297,
      "鄂": 3298,
      "鄉": 3299,
      "鄭": 3300,
      "酉": 3301,
      "配": 3302,
      "酎": 3303,
      "酒": 3304,
      "酸": 3305,
      "采": 3306,
      "釉": 3307,
      "里": 3308,
      "重": 3309,
      "野": 3310,
      "量": 3311,
      "金": 3312,
      "釣": 3313,
      "鈍": 3314,
      "鈴": 3315,
      "鉄": 3316,
      "鉋": 3317,
      "銀": 3318,
      "銭": 3319,
      "鋍": 3320,
      "鋑": 3321,
      "鋒": 3322,
      "鋓": 3323,
      "鋖": 3324,
      "鋘": 3325,
      "鋜": 3326,
      "鋝": 3327,
      "鋞": 3328,
      "鋟": 3329,
      "録": 3330,
      "鍋": 3331,
      "鎚": 3332,
      "鏡": 3333,
      "鐵": 3334,
      "针": 3335,
      "钓": 3336,
      "钟": 3337,
      "钢": 3338,
      "钦": 3339,
      "钧": 3340,
      "钱": 3341,
      "铁": 3342,
      "铃": 3343,
      "铭": 3344,
      "银": 3345,
      "链": 3346,
      "销": 3347,
      "锈": 3348,
      "锋": 3349,
      "错": 3350,
      "锦": 3351,
      "键": 3352,
      "镜": 3353,
      "長": 3354,
      "长": 3355,
      "門": 3356,
      "開": 3357,
      "間": 3358,
      "関": 3359,
      "閣": 3360,
      "閥": 3361,
      "閩": 3362,
      "關": 3363,
      "门": 3364,
      "问": 3365,
      "间": 3366,
      "闵": 3367,
      "闻": 3368,
      "闽": 3369,
      "阜": 3370,
      "队": 3371,
      "阪": 3372,
      "防": 3373,
      "阳": 3374,
      "阶": 3375,
      "阻": 3376,
      "阿": 3377,
      "陀": 3378,
      "际": 3379,
      "陈": 3380,
      "降": 3381,
      "限": 3382,
      "院": 3383,
      "除": 3384,
      "险": 3385,
      "陰": 3386,
      "陳": 3387,
      "陵": 3388,
      "陶": 3389,
      "陽": 3390,
      "隆": 3391,
      "隊": 3392,
      "階": 3393,
      "際": 3394,
      "障": 3395,
      "难": 3396,
      "雄": 3397,
      "雅": 3398,
      "集": 3399,
      "雙": 3400,
      "雛": 3401,
      "離": 3402,
      "難": 3403,
      "雨": 3404,
      "雪": 3405,
      "雲": 3406,
      "雷": 3407,
      "電": 3408,
      "需": 3409,
      "霊": 3410,
      "霖": 3411,
      "霜": 3412,
      "露": 3413,
      "青": 3414,
      "静": 3415,
      "非": 3416,
      "靠": 3417,
      "面": 3418,
      "革": 3419,
      "靳": 3420,
      "韓": 3421,
      "音": 3422,
      "韻": 3423,
      "頂": 3424,
      "項": 3425,
      "順": 3426,
      "須": 3427,
      "頑": 3428,
      "領": 3429,
      "頭": 3430,
      "題": 3431,
      "顗": 3432,
      "顯": 3433,
      "页": 3434,
      "顶": 3435,
      "顷": 3436,
      "须": 3437,
      "顾": 3438,
      "预": 3439,
      "颐": 3440,
      "颖": 3441,
      "题": 3442,
      "颜": 3443,
      "额": 3444,
      "風": 3445,
      "风": 3446,
      "飛": 3447,
      "飞": 3448,
      "食": 3449,
      "飯": 3450,
      "飲": 3451,
      "飼": 3452,
      "館": 3453,
      "饮": 3454,
      "饲": 3455,
      "馆": 3456,
      "首": 3457,
      "香": 3458,
      "馬": 3459,
      "駄": 3460,
      "駅": 3461,
      "験": 3462,
      "騙": 3463,
      "騜": 3464,
      "驗": 3465,
      "马": 3466,
      "验": 3467,
      "骨": 3468,
      "髄": 3469,
      "體": 3470,
      "高": 3471,
      "鬼": 3472,
      "魔": 3473,
      "鮨": 3474,
      "鮮": 3475,
      "鯨": 3476,
      "鰀": 3477,
      "鰃": 3478,
      "鰄": 3479,
      "鰈": 3480,
      "鰊": 3481,
      "鰎": 3482,
      "鱲": 3483,
      "鱼": 3484,
      "鲁": 3485,
      "鲞": 3486,
      "鳩": 3487,
      "鳳": 3488,
      "鴻": 3489,
      "鵜": 3490,
      "鷹": 3491,
      "鸡": 3492,
      "鸭": 3493,
      "鸯": 3494,
      "鸳": 3495,
      "鹅": 3496,
      "鹈": 3497,
      "鹤": 3498,
      "鹿": 3499,
      "麗": 3500,
      "麩": 3501,
      "麺": 3502,
      "黃": 3503,
      "黄": 3504,
      "黎": 3505,
      "黒": 3506,
      "黚": 3507,
      "點": 3508,
      "黡": 3509,
      "黨": 3510,
      "黮": 3511,
      "黵": 3512,
      "黷": 3513,
      "鼻": 3514,
      "齋": 3515,
      "齡": 3516,
      "龍": 3517,
      "龙": 3518,
      "검": 3519,
      "겜": 3520,
      "경": 3521,
      "계": 3522,
      "고": 3523,
      "곡": 3524,
      "구": 3525,
      "국": 3526,
      "군": 3527,
      "권": 3528,
      "글": 3529,
      "김": 3530,
      "뀌": 3531,
      "나": 3532,
      "널": 3533,
      "녀": 3534,
      "년": 3535,
      "노": 3536,
      "누": 3537,
      "는": 3538,
      "니": 3539,
      "닌": 3540,
      "님": 3541,
      "다": 3542,
      "단": 3543,
      "당": 3544,
      "대": 3545,
      "도": 3546,
      "돌": 3547,
      "동": 3548,
      "드": 3549,
      "디": 3550,
      "딘": 3551,
      "딩": 3552,
      "라": 3553,
      "레": 3554,
      "려": 3555,
      "령": 3556,
      "로": 3557,
      "루": 3558,
      "류": 3559,
      "르": 3560,
      "린": 3561,
      "마": 3562,
      "막": 3563,
      "맨": 3564,
      "면": 3565,
      "목": 3566,
      "무": 3567,
      "문": 3568,
      "미": 3569,
      "바": 3570,
      "박": 3571,
      "반": 3572,
      "백": 3573,
      "뱅": 3574,
      "번": 3575,
      "벌": 3576,
      "법": 3577,
      "베": 3578,
      "변": 3579,
      "별": 3580,
      "보": 3581,
      "블": 3582,
      "비": 3583,
      "빅": 3584,
      "빌": 3585,
      "빛": 3586,
      "사": 3587,
      "산": 3588,
      "서": 3589,
      "선": 3590,
      "성": 3591,
      "세": 3592,
      "셀": 3593,
      "셔": 3594,
      "셜": 3595,
      "소": 3596,
      "수": 3597,
      "스": 3598,
      "습": 3599,
      "승": 3600,
      "시": 3601,
      "신": 3602,
      "싱": 3603,
      "아": 3604,
      "알": 3605,
      "압": 3606,
      "야": 3607,
      "양": 3608,
      "어": 3609,
      "었": 3610,
      "에": 3611,
      "엘": 3612,
      "엠": 3613,
      "영": 3614,
      "오": 3615,
      "왕": 3616,
      "요": 3617,
      "울": 3618,
      "웅": 3619,
      "워": 3620,
      "월": 3621,
      "웨": 3622,
      "위": 3623,
      "유": 3624,
      "율": 3625,
      "으": 3626,
      "을": 3627,
      "읍": 3628,
      "이": 3629,
      "인": 3630,
      "일": 3631,
      "자": 3632,
      "작": 3633,
      "적": 3634,
      "전": 3635,
      "정": 3636,
      "제": 3637,
      "조": 3638,
      "존": 3639,
      "종": 3640,
      "주": 3641,
      "지": 3642,
      "짝": 3643,
      "창": 3644,
      "천": 3645,
      "체": 3646,
      "추": 3647,
      "충": 3648,
      "층": 3649,
      "치": 3650,
      "클": 3651,
      "키": 3652,
      "킨": 3653,
      "태": 3654,
      "터": 3655,
      "턴": 3656,
      "톨": 3657,
      "퇴": 3658,
      "트": 3659,
      "티": 3660,
      "퍼": 3661,
      "폐": 3662,
      "피": 3663,
      "한": 3664,
      "향": 3665,
      "호": 3666,
      "환": 3667,
      "회": 3668,
      "훈": 3669,
      "": 3670,
      "": 3671,
      "": 3672,
      "": 3673,
      "": 3674,
      "": 3675,
      "": 3676,
      "": 3677,
      "": 3678,
      "": 3679,
      "": 3680,
      "": 3681,
      "": 3682,
      "": 3683,
      "": 3684,
      "": 3685,
      "": 3686,
      "": 3687,
      "": 3688,
      "": 3689,
      "": 3690,
      "": 3691,
      "": 3692,
      "": 3693,
      "": 3694,
      "": 3695,
      "": 3696,
      "": 3697,
      "金": 3698,
      "ﬁ": 3699,
      "ﬂ": 3700,
      "ﷲ": 3701,
      "︰": 3702,
      "ﺍ": 3703,
      "ﺏ": 3704,
      "ﺤ": 3705,
      "ﺩ": 3706,
      "ﻁ": 3707,
      "ﻙ": 3708,
      "ﻫ": 3709,
      "﻿": 3710,
      "！": 3711,
      "＄": 3712,
      "（": 3713,
      "）": 3714,
      "＊": 3715,
      "，": 3716,
      "－": 3717,
      "．": 3718,
      "１": 3719,
      "２": 3720,
      "７": 3721,
      "９": 3722,
      "：": 3723,
      "；": 3724,
      "？": 3725,
      "Ｉ": 3726,
      "Ｐ": 3727,
      "Ｓ": 3728,
      "Ｖ": 3729,
      "［": 3730,
      "］": 3731,
      "ｂ": 3732,
      "ｄ": 3733,
      "ｅ": 3734,
      "ｈ": 3735,
      "ｌ": 3736,
      "ｏ": 3737,
      "ｓ": 3738,
      "ｔ": 3739,
      "ｕ": 3740,
      "､": 3741,
      "･": 3742,
      "ｫ": 3743,
      "ｲ": 3744,
      "ｻ": 3745,
      "ｿ": 3746,
      "ﾜ": 3747,
      "ﾟ": 3748,
      "￠": 3749,
      "￡": 3750,
      "￥": 3751,
      "￼": 3752,
      "�": 3753,
      "𐌰": 3754,
      "𐌴": 3755,
      "𐌸": 3756,
      "𐌼": 3757,
      "𐌽": 3758,
      "𐍃": 3759,
      "𐍉": 3760,
      "𠐄": 3761,
      "𢥲": 3762,
      "𧵮": 3763,
      "𲠄": 3764,
      "𲠤": 3765,
      "򮬩": 3766,
      "򮮥": 3767,
      "򲤥": 3768,
      "򲵮": 3769,
      "򴩧": 3770,
      "en": 3771,
      "er": 3772,
      "in": 3773,
      "▁a": 3774,
      "▁t": 3775,
      "▁d": 3776,
      "ch": 3777,
      "es": 3778,
      "on": 3779,
      "▁th": 3780,
      "un": 3781,
      "it": 3782,
      "is": 3783,
      "▁s": 3784,
      "▁w": 3785,
      "at": 3786,
      "ie": 3787,
      "or": 3788,
      "an": 3789,
      "▁the": 3790,
      "re": 3791,
      "▁b": 3792,
      "▁o": 3793,
      "al": 3794,
      "ar": 3795,
      "▁in": 3796,
      "▁f": 3797,
      ".\"": 3798,
      "ich": 3799,
      "▁m": 3800,
      "te": 3801,
      "ion": 3802,
      "▁e": 3803,
      "▁an": 3804,
      "ur": 3805,
      "as": 3806,
      "le": 3807,
      "▁p": 3808,
      "▁c": 3809,
      "▁un": 3810,
      "▁h": 3811,
      "us": 3812,
      "ge": 3813,
      "ent": 3814,
      "▁of": 3815,
      "ro": 3816,
      "▁S": 3817,
      "▁n": 3818,
      "▁v": 3819,
      "ing": 3820,
      "ung": 3821,
      "▁and": 3822,
      "▁to": 3823,
      "ll": 3824,
      "▁\"": 3825,
      "ed": 3826,
      "▁die": 3827,
      "om": 3828,
      "▁der": 3829,
      "▁und": 3830,
      ".\",": 3831,
      "▁A": 3832,
      "ig": 3833,
      "st": 3834,
      "ic": 3835,
      "▁be": 3836,
      "▁E": 3837,
      "▁is": 3838,
      ".\"\n": 3839,
      "▁ein": 3840,
      "ir": 3841,
      "▁z": 3842,
      "im": 3843,
      "▁M": 3844,
      "▁g": 3845,
      "▁P": 3846,
      "el": 3847,
      "ut": 3848,
      "ra": 3849,
      "▁B": 3850,
      "ter": 3851,
      "em": 3852,
      ".\",\"": 3853,
      "il": 3854,
      "en,": 3855,
      "et": 3856,
      "ol": 3857,
      "ation": 3858,
      "der": 3859,
      "eit": 3860,
      "▁l": 3861,
      "▁I": 3862,
      "am": 3863,
      "▁re": 3864,
      "ten": 3865,
      "▁D": 3866,
      ".\n": 3867,
      "▁F": 3868,
      "hr": 3869,
      "ies": 3870,
      "um": 3871,
      "▁G": 3872,
      "op": 3873,
      "ct": 3874,
      "id": 3875,
      "sch": 3876,
      "▁K": 3877,
      "ul": 3878,
      "▁k": 3879,
      "uf": 3880,
      "ber": 3881,
      "iv": 3882,
      "▁R": 3883,
      "lich": 3884,
      "▁C": 3885,
      "den": 3886,
      "▁for": 3887,
      ".,": 3888,
      "ab": 3889,
      "▁T": 3890,
      "ot": 3891,
      "▁H": 3892,
      "▁V": 3893,
      "▁W": 3894,
      "ür": 3895,
      "isch": 3896,
      "icht": 3897,
      "ier": 3898,
      "▁das": 3899,
      "▁on": 3900,
      "▁zu": 3901,
      "ere": 3902,
      "▁den": 3903,
      "ly": 3904,
      "est": 3905,
      "ess": 3906,
      "and": 3907,
      "▁that": 3908,
      "os": 3909,
      "he": 3910,
      "gen": 3911,
      "de": 3912,
      "▁L": 3913,
      "ce": 3914,
      "omm": 3915,
      "ers": 3916,
      "ein": 3917,
      "▁al": 3918,
      "▁pro": 3919,
      "ow": 3920,
      "▁wh": 3921,
      "ach": 3922,
      "▁von": 3923,
      "▁r": 3924,
      "ort": 3925,
      "▁ge": 3926,
      "uch": 3927,
      "▁im": 3928,
      "▁st": 3929,
      "▁U": 3930,
      "ith": 3931,
      "▁y": 3932,
      "▁wir": 3933,
      "kt": 3934,
      "if": 3935,
      "▁con": 3936,
      "▁ist": 3937,
      "▁ver": 3938,
      "▁er": 3939,
      "ver": 3940,
      "▁with": 3941,
      "▁auf": 3942,
      "▁we": 3943,
      "▁für": 3944,
      "urop": 3945,
      "ay": 3946,
      "ill": 3947,
      "▁des": 3948,
      "ad": 3949,
      "▁it": 3950,
      "ve": 3951,
      "▁mit": 3952,
      "▁are": 3953,
      "ind": 3954,
      "ts": 3955,
      "▁N": 3956,
      "▁as": 3957,
      "ck": 3958,
      "▁so": 3959,
      "▁de": 3960,
      "▁1": 3961,
      "▁ne": 3962,
      "end": 3963,
      "iss": 3964,
      "▁yo": 3965,
      "▁dies": 3966,
      "tr": 3967,
      "▁Z": 3968,
      "af": 3969,
      "pp": 3970,
      "▁Europ": 3971,
      "▁(": 3972,
      "ate": 3973,
      "t,": 3974,
      "ment": 3975,
      "ik": 3976,
      "▁\"D": 3977,
      "▁se": 3978,
      "qu": 3979,
      "th": 3980,
      "The": 3981,
      "la": 3982,
      "▁2": 3983,
      "00": 3984,
      "▁In": 3985,
      "ischen": 3986,
      "ib": 3987,
      "s,": 3988,
      "▁St": 3989,
      "▁als": 3990,
      "▁eine": 3991,
      "e,": 3992,
      "ak": 3993,
      "▁Ver": 3994,
      "▁ex": 3995,
      "for": 3996,
      "▁dem": 3997,
      "▁this": 3998,
      "ity": 3999,
      "ungen": 4000,
      "▁ha": 4001,
      "ial": 4002,
      "ah": 4003,
      "ist": 4004,
      "und": 4005,
      "▁Un": 4006,
      "ann": 4007,
      "▁j": 4008,
      "▁or": 4009,
      "ug": 4010,
      "art": 4011,
      "▁nicht": 4012,
      "ant": 4013,
      "▁wer": 4014,
      "▁co": 4015,
      "ne": 4016,
      "▁not": 4017,
      "ive": 4018,
      "nen": 4019,
      "über": 4020,
      "ste": 4021,
      "men": 4022,
      "ien": 4023,
      "pe": 4024,
      "▁sich": 4025,
      "▁all": 4026,
      "▁le": 4027,
      "än": 4028,
      "ub": 4029,
      "ff": 4030,
      "ag": 4031,
      "▁-": 4032,
      "▁J": 4033,
      "▁Sie": 4034,
      "tel": 4035,
      "we": 4036,
      "▁by": 4037,
      "▁An": 4038,
      "▁Re": 4039,
      "▁have": 4040,
      "rom": 4041,
      "▁dass": 4042,
      "▁at": 4043,
      "igh": 4044,
      "▁es": 4045,
      "ust": 4046,
      "ass": 4047,
      "▁aus": 4048,
      "ain": 4049,
      "all": 4050,
      "ens": 4051,
      "uld": 4052,
      "▁you": 4053,
      "up": 4054,
      "sp": 4055,
      "▁will": 4056,
      "od": 4057,
      "▁ab": 4058,
      "omp": 4059,
      "ern": 4060,
      "iel": 4061,
      "▁über": 4062,
      "aus": 4063,
      "igen": 4064,
      "▁uns": 4065,
      "ure": 4066,
      "▁sh": 4067,
      ".,\"": 4068,
      "age": 4069,
      "▁me": 4070,
      "▁which": 4071,
      "ission": 4072,
      "ted": 4073,
      "▁O": 4074,
      "▁werden": 4075,
      "▁was": 4076,
      "ze": 4077,
      "▁auch": 4078,
      "ran": 4079,
      "lie": 4080,
      "▁Pr": 4081,
      "▁from": 4082,
      "en.\",\"": 4083,
      "ahr": 4084,
      "hal": 4085,
      "ungs": 4086,
      "▁Sch": 4087,
      "du": 4088,
      "och": 4089,
      "ard": 4090,
      "▁um": 4091,
      "ould": 4092,
      "▁sind": 4093,
      "▁us": 4094,
      "tern": 4095,
      "▁Europe": 4096,
      "ommission": 4097,
      "▁sch": 4098,
      "▁ch": 4099,
      "▁i": 4100,
      "og": 4101,
      "ident": 4102,
      "▁Pro": 4103,
      "▁pr": 4104,
      "▁ent": 4105,
      "ions": 4106,
      "fer": 4107,
      "▁vor": 4108,
      "▁wird": 4109,
      "esch": 4110,
      "▁has": 4111,
      "▁hab": 4112,
      "schaf": 4113,
      "iz": 4114,
      "ip": 4115,
      "mer": 4116,
      "port": 4117,
      "ang": 4118,
      "Th": 4119,
      "uss": 4120,
      "▁Be": 4121,
      "▁wor": 4122,
      "ön": 4123,
      "▁En": 4124,
      "ud": 4125,
      "gr": 4126,
      "ss": 4127,
      "ben": 4128,
      "ue": 4129,
      "▁res": 4130,
      "▁en": 4131,
      "enn": 4132,
      "oc": 4133,
      "ous": 4134,
      "ick": 4135,
      "ok": 4136,
      "ft": 4137,
      "▁wie": 4138,
      "▁da": 4139,
      "ische": 4140,
      "our": 4141,
      "ine": 4142,
      "In": 4143,
      "▁Par": 4144,
      "tz": 4145,
      "▁he": 4146,
      "urch": 4147,
      "▁can": 4148,
      "▁man": 4149,
      "form": 4150,
      "etz": 4151,
      "able": 4152,
      "▁am": 4153,
      "err": 4154,
      "ige": 4155,
      "ire": 4156,
      "keit": 4157,
      "▁hat": 4158,
      "ast": 4159,
      "▁sein": 4160,
      "ap": 4161,
      "▁ich": 4162,
      "▁comp": 4163,
      "ost": 4164,
      "hen": 4165,
      "▁oder": 4166,
      "▁Er": 4167,
      "▁Ar": 4168,
      "ament": 4169,
      "▁our": 4170,
      "ia": 4171,
      "otel": 4172,
      "ise": 4173,
      "me": 4174,
      "cc": 4175,
      "erv": 4176,
      "▁zur": 4177,
      "pr": 4178,
      "ome": 4179,
      "ction": 4180,
      "ert": 4181,
      "beit": 4182,
      "▁also": 4183,
      "be": 4184,
      "▁European": 4185,
      "ition": 4186,
      "ult": 4187,
      "▁Aus": 4188,
      "▁sie": 4189,
      "ore": 4190,
      "ational": 4191,
      "her": 4192,
      "ical": 4193,
      "heit": 4194,
      "oll": 4195,
      "▁ad": 4196,
      "ide": 4197,
      "▁\"W": 4198,
      "lo": 4199,
      "ese": 4200,
      "ated": 4201,
      "es,": 4202,
      "are": 4203,
      "\"\"": 4204,
      "out": 4205,
      "dern": 4206,
      "▁einer": 4207,
      "▁kön": 4208,
      "lichen": 4209,
      "olit": 4210,
      "▁do": 4211,
      "rit": 4212,
      "ru": 4213,
      "ations": 4214,
      "▁\"\"": 4215,
      "tell": 4216,
      "ord": 4217,
      "hl": 4218,
      "▁Mit": 4219,
      "ther": 4220,
      "ark": 4221,
      "ät": 4222,
      "ect": 4223,
      "fü": 4224,
      "▁unter": 4225,
      "▁200": 4226,
      "pt": 4227,
      "ice": 4228,
      "ish": 4229,
      "▁Ge": 4230,
      "'s": 4231,
      "ün": 4232,
      "..": 4233,
      "▁nach": 4234,
      "ign": 4235,
      "▁qu": 4236,
      "ac": 4237,
      "▁einen": 4238,
      "är": 4239,
      "▁Parl": 4240,
      "▁bei": 4241,
      "▁your": 4242,
      "▁\"Die": 4243,
      "▁its": 4244,
      "vel": 4245,
      "▁part": 4246,
      "▁Union": 4247,
      "oun": 4248,
      "tra": 4249,
      "se": 4250,
      "▁te": 4251,
      "▁Ein": 4252,
      "aten": 4253,
      "ear": 4254,
      "schaft": 4255,
      "▁reg": 4256,
      "ake": 4257,
      "tw": 4258,
      "▁durch": 4259,
      "▁Die": 4260,
      "▁gro": 4261,
      "ight": 4262,
      "ank": 4263,
      "ger": 4264,
      "ian": 4265,
      "▁\"E": 4266,
      "au": 4267,
      "yste": 4268,
      "▁su": 4269,
      "▁sp": 4270,
      "ms": 4271,
      "ugh": 4272,
      "▁but": 4273,
      "ary": 4274,
      "▁wur": 4275,
      "ember": 4276,
      "▁go": 4277,
      "▁ag": 4278,
      "▁ro": 4279,
      "cial": 4280,
      "▁Ber": 4281,
      "glich": 4282,
      "▁there": 4283,
      "▁\"I": 4284,
      "per": 4285,
      "äs": 4286,
      "ute": 4287,
      "con": 4288,
      "ite": 4289,
      "▁app": 4290,
      "hre": 4291,
      "ör": 4292,
      "▁dis": 4293,
      "▁Fra": 4294,
      "anz": 4295,
      "▁dar": 4296,
      "▁Vor": 4297,
      "iert": 4298,
      "ates": 4299,
      "▁tra": 4300,
      "▁EU": 4301,
      "ual": 4302,
      "ose": 4303,
      "▁war": 4304,
      "cht": 4305,
      "▁Commission": 4306,
      "▁Ab": 4307,
      "We": 4308,
      "s.\"\n": 4309,
      "▁3": 4310,
      "cl": 4311,
      "▁would": 4312,
      "▁spe": 4313,
      "▁mö": 4314,
      "ance": 4315,
      "▁19": 4316,
      "ile": 4317,
      "ail": 4318,
      "imm": 4319,
      "▁zum": 4320,
      "▁their": 4321,
      "ov": 4322,
      "▁more": 4323,
      "eren": 4324,
      "▁einem": 4325,
      "chte": 4326,
      "mp": 4327,
      "▁been": 4328,
      ".\",\"The": 4329,
      "▁–": 4330,
      "▁gen": 4331,
      "reat": 4332,
      "▁cont": 4333,
      "▁bes": 4334,
      "▁haben": 4335,
      "liche": 4336,
      "y,": 4337,
      "elt": 4338,
      "uß": 4339,
      "ong": 4340,
      "geb": 4341,
      "chn": 4342,
      "hn": 4343,
      "ild": 4344,
      "act": 4345,
      "▁Europä": 4346,
      "▁ar": 4347,
      "gt": 4348,
      "utz": 4349,
      ".,The": 4350,
      "gra": 4351,
      "▁kann": 4352,
      "ück": 4353,
      "▁We": 4354,
      "ble": 4355,
      "▁können": 4356,
      "ack": 4357,
      "▁diese": 4358,
      "üss": 4359,
      "▁acc": 4360,
      "▁nur": 4361,
      "oss": 4362,
      "tet": 4363,
      "ame": 4364,
      "▁comm": 4365,
      "▁Te": 4366,
      "▁coun": 4367,
      "▁Gr": 4368,
      "ution": 4369,
      "ont": 4370,
      "▁per": 4371,
      "▁one": 4372,
      ".\",\"I": 4373,
      "▁fin": 4374,
      "▁\"A": 4375,
      "▁should": 4376,
      "wer": 4377,
      "▁alle": 4378,
      "▁bet": 4379,
      "ase": 4380,
      "ahl": 4381,
      "▁pl": 4382,
      "▁work": 4383,
      "gan": 4384,
      "ime": 4385,
      "lic": 4386,
      "▁Sp": 4387,
      "ges": 4388,
      "ierung": 4389,
      "▁Le": 4390,
      "▁De": 4391,
      "sten": 4392,
      "che": 4393,
      "chen": 4394,
      "▁Unter": 4395,
      "ob": 4396,
      "ieren": 4397,
      "▁new": 4398,
      "land": 4399,
      "▁up": 4400,
      "er,": 4401,
      "▁Ch": 4402,
      "ike": 4403,
      "▁,": 4404,
      "▁cl": 4405,
      "one": 4406,
      "This": 4407,
      "auf": 4408,
      "zu": 4409,
      "llen": 4410,
      "ied": 4411,
      "eine": 4412,
      "fen": 4413,
      "ht": 4414,
      "ktion": 4415,
      "äsident": 4416,
      "▁out": 4417,
      "to": 4418,
      "▁Hotel": 4419,
      "▁dieser": 4420,
      "av": 4421,
      "▁Jahr": 4422,
      "▁ob": 4423,
      "igkeit": 4424,
      "ld": 4425,
      "▁Kommission": 4426,
      "ree": 4427,
      "olle": 4428,
      "▁jed": 4429,
      "ähr": 4430,
      "reich": 4431,
      "a,": 4432,
      "▁pre": 4433,
      "▁countr": 4434,
      "▁ind": 4435,
      "▁very": 4436,
      "▁inter": 4437,
      "bar": 4438,
      "▁who": 4439,
      "▁zw": 4440,
      "▁Auf": 4441,
      "▁other": 4442,
      "▁daß": 4443,
      "▁noch": 4444,
      "neh": 4445,
      "▁Herr": 4446,
      "▁produ": 4447,
      "▁Pres": 4448,
      "ities": 4449,
      "▁\"Ich": 4450,
      "ner": 4451,
      "▁must": 4452,
      "formation": 4453,
      "▁ma": 4454,
      "▁ihr": 4455,
      "ink": 4456,
      "▁soll": 4457,
      "ommen": 4458,
      "▁ev": 4459,
      "▁pe": 4460,
      "▁they": 4461,
      "mit": 4462,
      "gram": 4463,
      "▁Mr": 4464,
      "▁weit": 4465,
      "▁need": 4466,
      "ystem": 4467,
      "▁ste": 4468,
      "ents": 4469,
      "pro": 4470,
      "ely": 4471,
      "▁\"S": 4472,
      "ons": 4473,
      "wo": 4474,
      "▁wurde": 4475,
      "pl": 4476,
      "▁no": 4477,
      "▁ber": 4478,
      "▁mehr": 4479,
      "▁only": 4480,
      "▁intern": 4481,
      "enz": 4482,
      "gel": 4483,
      "▁year": 4484,
      "▁fe": 4485,
      "▁bec": 4486,
      "▁cons": 4487,
      "▁supp": 4488,
      "▁str": 4489,
      "▁aber": 4490,
      "olog": 4491,
      "oin": 4492,
      "▁like": 4493,
      "ke": 4494,
      "glie": 4495,
      "▁about": 4496,
      "▁wenn": 4497,
      "▁polit": 4498,
      "▁Se": 4499,
      "teil": 4500,
      "ater": 4501,
      "▁Präsident": 4502,
      "entr": 4503,
      "ible": 4504,
      "▁any": 4505,
      "erm": 4506,
      "pos": 4507,
      "lin": 4508,
      "▁President": 4509,
      "ious": 4510,
      "▁5": 4511,
      "ced": 4512,
      "▁müss": 4513,
      "ange": 4514,
      "leich": 4515,
      "▁prov": 4516,
      "▁ges": 4517,
      "▁sehr": 4518,
      "alt": 4519,
      "den,": 4520,
      "ung,": 4521,
      "velop": 4522,
      "ces": 4523,
      "▁Wir": 4524,
      "fe": 4525,
      "▁tran": 4526,
      "ally": 4527,
      "▁Al": 4528,
      "ings": 4529,
      "▁4": 4530,
      "ject": 4531,
      "▁unser": 4532,
      "nah": 4533,
      "amp": 4534,
      "▁eff": 4535,
      "cess": 4536,
      "▁gr": 4537,
      "ient": 4538,
      "▁Reg": 4539,
      "▁sow": 4540,
      "▁bis": 4541,
      ".\",\"A": 4542,
      ".\",The": 4543,
      "iament": 4544,
      "ütz": 4545,
      ".\",I": 4546,
      "▁ra": 4547,
      "arbeit": 4548,
      "▁tr": 4549,
      "ence": 4550,
      "onder": 4551,
      "▁Arbeit": 4552,
      "▁Parlament": 4553,
      "schen": 4554,
      "▁these": 4555,
      "▁rec": 4556,
      "xt": 4557,
      "▁off": 4558,
      "wend": 4559,
      "▁serv": 4560,
      "▁sol": 4561,
      "atz": 4562,
      "io": 4563,
      "usam": 4564,
      "▁dire": 4565,
      "führ": 4566,
      "ular": 4567,
      "own": 4568,
      "▁vie": 4569,
      "ors": 4570,
      "fahr": 4571,
      "led": 4572,
      "▁hin": 4573,
      "ität": 4574,
      "te,": 4575,
      "▁Mitglie": 4576,
      "ility": 4577,
      "ments": 4578,
      "’s": 4579,
      "▁import": 4580,
      "erson": 4581,
      "ph": 4582,
      "),": 4583,
      "▁diesem": 4584,
      "stit": 4585,
      "äl": 4586,
      "ider": 4587,
      "ring": 4588,
      "irst": 4589,
      "ople": 4590,
      "usammen": 4591,
      "ism": 4592,
      "▁Men": 4593,
      "▁Member": 4594,
      "sta": 4595,
      "▁\"Wir": 4596,
      "▁gegen": 4597,
      "rie": 4598,
      "▁develop": 4599,
      "▁if": 4600,
      "ing,": 4601,
      "hnen": 4602,
      "▁\"Das": 4603,
      "▁wel": 4604,
      "▁such": 4605,
      "ichtig": 4606,
      "▁la": 4607,
      "fol": 4608,
      "enden": 4609,
      "▁The": 4610,
      "fl": 4611,
      "▁report": 4612,
      "dition": 4613,
      "ans": 4614,
      "uen": 4615,
      "▁time": 4616,
      "ative": 4617,
      "▁ihre": 4618,
      "änd": 4619,
      "ook": 4620,
      "wn": 4621,
      "▁Europäischen": 4622,
      "▁Th": 4623,
      "\",": 4624,
      "▁pol": 4625,
      "▁act": 4626,
      "ause": 4627,
      "rat": 4628,
      "ement": 4629,
      "▁sub": 4630,
      "sche": 4631,
      "ateg": 4632,
      "▁ins": 4633,
      "ific": 4634,
      "▁rel": 4635,
      "▁my": 4636,
      "▁over": 4637,
      "itu": 4638,
      "▁Ma": 4639,
      "▁Zeit": 4640,
      "mal": 4641,
      "▁For": 4642,
      "▁ist,": 4643,
      "▁into": 4644,
      "▁people": 4645,
      "▁Das": 4646,
      "▁were": 4647,
      "ließ": 4648,
      "iven": 4649,
      "▁gew": 4650,
      "str": 4651,
      "▁20": 4652,
      "▁well": 4653,
      "cre": 4654,
      "▁best": 4655,
      "▁gem": 4656,
      "▁international": 4657,
      "halt": 4658,
      "erg": 4659,
      "▁Parliament": 4660,
      "ures": 4661,
      "fr": 4662,
      "unden": 4663,
      "▁some": 4664,
      "-S": 4665,
      "s.\n": 4666,
      "▁viel": 4667,
      "▁möchte": 4668,
      "ibt": 4669,
      "▁\"Es": 4670,
      "▁what": 4671,
      "ou": 4672,
      "▁com": 4673,
      "cil": 4674,
      "▁inv": 4675,
      "bs": 4676,
      "conom": 4677,
      "▁müssen": 4678,
      "Über": 4679,
      "fore": 4680,
      "ühr": 4681,
      "▁dif": 4682,
      "lung": 4683,
      "▁hier": 4684,
      "icher": 4685,
      "▁use": 4686,
      "▁mark": 4687,
      "arge": 4688,
      "▁Mitglied": 4689,
      "etzt": 4690,
      "▁high": 4691,
      "cy": 4692,
      "inn": 4693,
      "ene": 4694,
      "leg": 4695,
      "ustr": 4696,
      "uropä": 4697,
      "▁eines": 4698,
      "rei": 4699,
      "▁Mar": 4700,
      "▁kn": 4701,
      "ale": 4702,
      "▁Coun": 4703,
      "▁hotel": 4704,
      "iet": 4705,
      "▁her": 4706,
      "▁President,": 4707,
      "very": 4708,
      "▁bed": 4709,
      "ull": 4710,
      "ention": 4711,
      "iger": 4712,
      "▁countries": 4713,
      "▁first": 4714,
      "kte": 4715,
      "ks": 4716,
      "▁loc": 4717,
      "▁than": 4718,
      "wor": 4719,
      "▁incl": 4720,
      "ays": 4721,
      "lä": 4722,
      "▁most": 4723,
      "▁vom": 4724,
      "olitik": 4725,
      "zeit": 4726,
      "halten": 4727,
      "▁hel": 4728,
      "▁his": 4729,
      "▁dec": 4730,
      "amen": 4731,
      "esent": 4732,
      "▁lie": 4733,
      "▁groß": 4734,
      "▁partic": 4735,
      "▁Or": 4736,
      "▁them": 4737,
      "assen": 4738,
      "pect": 4739,
      "▁under": 4740,
      "▁vers": 4741,
      "ace": 4742,
      "▁when": 4743,
      "acht": 4744,
      "ation,": 4745,
      "rough": 4746,
      "▁Um": 4747,
      "itz": 4748,
      "▁werden,": 4749,
      "▁Über": 4750,
      "▁polic": 4751,
      "itte": 4752,
      "öglich": 4753,
      "▁Council": 4754,
      "▁just": 4755,
      "rag": 4756,
      "ett": 4757,
      "äch": 4758,
      "att": 4759,
      "▁sowie": 4760,
      "▁dam": 4761,
      "ices": 4762,
      "▁Entw": 4763,
      "▁Kon": 4764,
      "▁now": 4765,
      "nehmen": 4766,
      "▁again": 4767,
      "▁bas": 4768,
      "▁fr": 4769,
      "▁europä": 4770,
      "isten": 4771,
      "ond": 4772,
      "tre": 4773,
      "änder": 4774,
      "▁support": 4775,
      "▁\"H": 4776,
      "ever": 4777,
      "▁Land": 4778,
      "▁gu": 4779,
      "ating": 4780,
      "▁dieses": 4781,
      "ights": 4782,
      ".\",\"In": 4783,
      "▁make": 4784,
      "▁Bericht": 4785,
      "▁aut": 4786,
      "blem": 4787,
      "ween": 4788,
      "▁Me": 4789,
      "▁pla": 4790,
      "▁find": 4791,
      "▁econom": 4792,
      "ory": 4793,
      "kl": 4794,
      "▁how": 4795,
      "stütz": 4796,
      "▁room": 4797,
      "▁many": 4798,
      "hand": 4799,
      "▁between": 4800,
      "▁wo": 4801,
      "▁ass": 4802,
      "abe": 4803,
      "oth": 4804,
      "▁Ihr": 4805,
      "▁propos": 4806,
      "stell": 4807,
      "▁Q": 4808,
      "▁requ": 4809,
      "▁mo": 4810,
      "halb": 4811,
      "▁important": 4812,
      "▁leg": 4813,
      "je": 4814,
      "ho": 4815,
      "fter": 4816,
      "▁States": 4817,
      "▁techn": 4818,
      "ats": 4819,
      "ural": 4820,
      "ages": 4821,
      "▁Ne": 4822,
      "▁poss": 4823,
      "ös": 4824,
      "▁fre": 4825,
      "▁Comm": 4826,
      "▁zwischen": 4827,
      "ware": 4828,
      "bst": 4829,
      "wir": 4830,
      "\"\n": 4831,
      "▁bereit": 4832,
      "▁imp": 4833,
      "▁\"Der": 4834,
      "arm": 4835,
      "▁take": 4836,
      "zie": 4837,
      "▁par": 4838,
      "▁Verb": 4839,
      "▁world": 4840,
      "▁kon": 4841,
      "urs": 4842,
      "ublic": 4843,
      "ister": 4844,
      "▁market": 4845,
      "▁pos": 4846,
      "▁Entwick": 4847,
      "▁6": 4848,
      "les": 4849,
      "▁Menschen": 4850,
      "▁Bed": 4851,
      "fin": 4852,
      "ful": 4853,
      "▁cre": 4854,
      "▁ele": 4855,
      "▁Mitgliedsta": 4856,
      "lag": 4857,
      "uer": 4858,
      "cted": 4859,
      "dr": 4860,
      "▁fo": 4861,
      "off": 4862,
      "o,": 4863,
      "▁Fl": 4864,
      "iden": 4865,
      "eschä": 4866,
      "zial": 4867,
      "ath": 4868,
      "min": 4869,
      "▁because": 4870,
      "▁sel": 4871,
      "▁\"In": 4872,
      "▁\"Dies": 4873,
      "stand": 4874,
      "lear": 4875,
      "hör": 4876,
      "▁son": 4877,
      "▁op": 4878,
      "▁unsere": 4879,
      "▁national": 4880,
      "atter": 4881,
      "ward": 4882,
      "als": 4883,
      "▁min": 4884,
      "dem": 4885,
      "▁where": 4886,
      "ues": 4887,
      "▁keine": 4888,
      "▁good": 4889,
      "ly,": 4890,
      "ality": 4891,
      "▁system": 4892,
      "ict": 4893,
      "igt": 4894,
      "nis": 4895,
      "▁Ent": 4896,
      "▁hand": 4897,
      "▁Pl": 4898,
      "▁Der": 4899,
      "▁great": 4900,
      "vern": 4901,
      "tschaft": 4902,
      "▁So": 4903,
      "▁Str": 4904,
      "ed,": 4905,
      "▁two": 4906,
      "▁Ges": 4907,
      "▁nat": 4908,
      "ote": 4909,
      "urn": 4910,
      "▁könn": 4911,
      "▁av": 4912,
      "ough": 4913,
      "▁information": 4914,
      "▁mein": 4915,
      "▁Intern": 4916,
      "▁US": 4917,
      "▁emp": 4918,
      "rauch": 4919,
      "Un": 4920,
      "ount": 4921,
      "ives": 4922,
      "sel": 4923,
      "▁sa": 4924,
      "▁'": 4925,
      "▁gibt": 4926,
      "▁rem": 4927,
      "ium": 4928,
      "▁every": 4929,
      "uring": 4930,
      "net": 4931,
      "▁poin": 4932,
      "öff": 4933,
      "▁einz": 4934,
      "▁verb": 4935,
      "▁\"M": 4936,
      "▁had": 4937,
      "▁way": 4938,
      "▁made": 4939,
      "▁Min": 4940,
      "ision": 4941,
      "▁conc": 4942,
      "unkt": 4943,
      "ument": 4944,
      "▁Produ": 4945,
      "aut": 4946,
      "amil": 4947,
      "any": 4948,
      "rol": 4949,
      "▁end": 4950,
      "▁bie": 4951,
      "els": 4952,
      "dit": 4953,
      "gend": 4954,
      "▁even": 4955,
      "▁Grund": 4956,
      "▁through": 4957,
      "▁Ihre": 4958,
      "laub": 4959,
      "fort": 4960,
      "lish": 4961,
      "▁iss": 4962,
      "air": 4963,
      "ession": 4964,
      "▁mach": 4965,
      "?\n": 4966,
      "▁product": 4967,
      "▁get": 4968,
      "▁Fr": 4969,
      "▁those": 4970,
      "▁„": 4971,
      "forder": 4972,
      "▁anderen": 4973,
      "cept": 4974,
      "essen": 4975,
      "▁ange": 4976,
      "▁Art": 4977,
      "▁199": 4978,
      "▁muss": 4979,
      "ereich": 4980,
      "igung": 4981,
      "▁sc": 4982,
      "▁versch": 4983,
      "▁Ä": 4984,
      "urr": 4985,
      "▁\"B": 4986,
      "▁Zusammen": 4987,
      "immer": 4988,
      "▁Ihnen": 4989,
      "▁see": 4990,
      "day": 4991,
      "ischer": 4992,
      "itä": 4993,
      "ken": 4994,
      "▁immer": 4995,
      "trag": 4996,
      "ußer": 4997,
      "▁tak": 4998,
      ".\",\"M": 4999,
      "erein": 5000,
      "▁order": 5001,
      "ganis": 5002,
      "▁Rat": 5003,
      "▁weiter": 5004,
      "▁may": 5005,
      "\",\"": 5006,
      "gramm": 5007,
      "hm": 5008,
      "uman": 5009,
      "lick": 5010,
      "▁disc": 5011,
      "rif": 5012,
      "▁Dies": 5013,
      "▁direct": 5014,
      "▁dann": 5015,
      "spr": 5016,
      "ende": 5017,
      "▁beg": 5018,
      "ital": 5019,
      "▁view": 5020,
      "legen": 5021,
      "▁ac": 5022,
      "itt": 5023,
      "▁know": 5024,
      "unity": 5025,
      "kommen": 5026,
      "▁being": 5027,
      "sicht": 5028,
      "▁Vorsch": 5029,
      "aff": 5030,
      "ivers": 5031,
      "weise": 5032,
      "▁7": 5033,
      "▁fact": 5034,
      "▁num": 5035,
      "chts": 5036,
      "▁rest": 5037,
      "▁ke": 5038,
      "ster": 5039,
      "ys": 5040,
      "000": 5041,
      "▁Nach": 5042,
      "ior": 5043,
      "▁car": 5044,
      "▁wieder": 5045,
      "▁belie": 5046,
      "stitution": 5047,
      "▁Haus": 5048,
      "▁particular": 5049,
      "ält": 5050,
      "▁appro": 5051,
      "▁damit": 5052,
      "10": 5053,
      "▁differ": 5054,
      "tellt": 5055,
      "▁diesen": 5056,
      "▁cent": 5057,
      "▁10": 5058,
      "gest": 5059,
      "▁[": 5060,
      "▁8": 5061,
      "ited": 5062,
      "hne": 5063,
      "▁right": 5064,
      "schließ": 5065,
      "▁ger": 5066,
      "▁zwe": 5067,
      "▁trans": 5068,
      "▁own": 5069,
      "vor": 5070,
      "▁includ": 5071,
      "tens": 5072,
      "lex": 5073,
      "ower": 5074,
      "▁ganz": 5075,
      "▁Bereich": 5076,
      "bal": 5077,
      "aur": 5078,
      "▁beste": 5079,
      ".,I": 5080,
      "com": 5081,
      "▁process": 5082,
      "icherheit": 5083,
      "eins": 5084,
      "hin": 5085,
      "▁Europa": 5086,
      "▁resp": 5087,
      "ade": 5088,
      "eln": 5089,
      "▁del": 5090,
      "▁Mitgliedstaaten": 5091,
      "▁mon": 5092,
      "ever,": 5093,
      "iness": 5094,
      "part": 5095,
      "read": 5096,
      "zeich": 5097,
      "le,": 5098,
      "alls": 5099,
      "y.\"\n": 5100,
      "old": 5101,
      "ituation": 5102,
      "issen": 5103,
      "öß": 5104,
      "hen,": 5105,
      "ändern": 5106,
      "-P": 5107,
      "fach": 5108,
      "▁bus": 5109,
      "▁gesch": 5110,
      "alk": 5111,
      "▁quest": 5112,
      "▁“": 5113,
      "az": 5114,
      "▁He": 5115,
      "▁exp": 5116,
      "▁main": 5117,
      "▁wichtig": 5118,
      "▁Gro": 5119,
      "nung": 5120,
      "▁Seit": 5121,
      "▁agre": 5122,
      "ieden": 5123,
      "▁Komm": 5124,
      "▁kein": 5125,
      "▁ph": 5126,
      "eration": 5127,
      "▁bu": 5128,
      "▁Y": 5129,
      "▁unserer": 5130,
      "ool": 5131,
      "▁dr": 5132,
      "There": 5133,
      "oy": 5134,
      "▁Hand": 5135,
      "round": 5136,
      "eth": 5137,
      "▁haben,": 5138,
      "▁real": 5139,
      "erk": 5140,
      "ix": 5141,
      "▁Geb": 5142,
      "▁help": 5143,
      "▁here": 5144,
      "illion": 5145,
      "nder": 5146,
      "▁sm": 5147,
      "schafts": 5148,
      "▁sondern": 5149,
      "▁stand": 5150,
      "get": 5151,
      "isse": 5152,
      "ßnah": 5153,
      "▁after": 5154,
      "▁seine": 5155,
      "▁\"N": 5156,
      "▁deb": 5157,
      "piel": 5158,
      "▁\"Wenn": 5159,
      "elle": 5160,
      "▁jedoch": 5161,
      "▁\"F": 5162,
      "ows": 5163,
      "▁form": 5164,
      "▁political": 5165,
      "eld": 5166,
      "▁Bes": 5167,
      "ina": 5168,
      "ince": 5169,
      "-M": 5170,
      "tal": 5171,
      "tegr": 5172,
      "innen": 5173,
      "mb": 5174,
      "▁geb": 5175,
      "ktiv": 5176,
      "adt": 5177,
      "ruck": 5178,
      "gesch": 5179,
      "▁Ex": 5180,
      "▁public": 5181,
      "▁place": 5182,
      "▁Europäische": 5183,
      "▁gut": 5184,
      "▁incre": 5185,
      "▁ide": 5186,
      "▁9": 5187,
      "▁concern": 5188,
      "▁prote": 5189,
      "ax": 5190,
      "?,": 5191,
      "mittel": 5192,
      "▁possible": 5193,
      "▁ausge": 5194,
      "istr": 5195,
      "▁Fin": 5196,
      "▁Ich": 5197,
      "▁Bür": 5198,
      "▁..": 5199,
      "▁sim": 5200,
      "▁etw": 5201,
      "▁Gem": 5202,
      "▁clear": 5203,
      "▁wür": 5204,
      "iron": 5205,
      "▁wird,": 5206,
      "▁ser": 5207,
      ".,A": 5208,
      "eral": 5209,
      "▁person": 5210,
      "▁Inter": 5211,
      "▁human": 5212,
      "▁say": 5213,
      "▁same": 5214,
      "öglichkeit": 5215,
      "res": 5216,
      "▁could": 5217,
      "yp": 5218,
      "▁bef": 5219,
      "▁sind,": 5220,
      "isk": 5221,
      "▁Information": 5222,
      "▁heute": 5223,
      "bens": 5224,
      "ler": 5225,
      "▁development": 5226,
      "reis": 5227,
      "weit": 5228,
      "lement": 5229,
      "ouse": 5230,
      ".\",\"F": 5231,
      "▁number": 5232,
      "▁Welt": 5233,
      "▁contin": 5234,
      "i,": 5235,
      "eng": 5236,
      "▁offer": 5237,
      "▁Br": 5238,
      "▁want": 5239,
      "▁neue": 5240,
      ".\",\"We": 5241,
      "▁curr": 5242,
      "▁economic": 5243,
      "▁gleich": 5244,
      "-B": 5245,
      "▁est": 5246,
      "org": 5247,
      "▁Bar": 5248,
      "▁opp": 5249,
      "▁cr": 5250,
      "ertain": 5251,
      "▁within": 5252,
      "men,": 5253,
      "▁effect": 5254,
      "▁Sta": 5255,
      "▁region": 5256,
      "iß": 5257,
      "ven": 5258,
      "▁wen": 5259,
      "trä": 5260,
      "ants": 5261,
      "▁rights": 5262,
      "ep": 5263,
      "▁does": 5264,
      "▁Teil": 5265,
      "setz": 5266,
      "▁area": 5267,
      "ierte": 5268,
      "▁Kolle": 5269,
      "▁fest": 5270,
      "▁Frau": 5271,
      "iti": 5272,
      "upt": 5273,
      "es.\"\n": 5274,
      "kehr": 5275,
      "▁avail": 5276,
      "▁\"Z": 5277,
      "▁transp": 5278,
      "ved": 5279,
      "▁Ind": 5280,
      "▁bereits": 5281,
      "▁Im": 5282,
      "▁selbst": 5283,
      "ähl": 5284,
      "entlich": 5285,
      "▁against": 5286,
      ".\",\"S": 5287,
      "hip": 5288,
      "line": 5289,
      "▁much": 5290,
      "ator": 5291,
      "▁mich": 5292,
      "▁Änder": 5293,
      "▁fund": 5294,
      "ander": 5295,
      "ata": 5296,
      "▁both": 5297,
      "▁val": 5298,
      "way": 5299,
      "▁policy": 5300,
      "  ": 5301,
      "use": 5302,
      "▁lang": 5303,
      "-A": 5304,
      "lage": 5305,
      "▁Schl": 5306,
      "▁vis": 5307,
      "äng": 5308,
      "work": 5309,
      "▁prof": 5310,
      "entral": 5311,
      "fern": 5312,
      "ivid": 5313,
      "▁ihrer": 5314,
      "lobal": 5315,
      "geben": 5316,
      "▁sur": 5317,
      "▁Fre": 5318,
      "stru": 5319,
      "in,": 5320,
      "ock": 5321,
      "▁möglich": 5322,
      "▁level": 5323,
      "fic": 5324,
      "bes": 5325,
      "▁führ": 5326,
      "▁habe": 5327,
      "▁sign": 5328,
      "▁var": 5329,
      "▁hist": 5330,
      "Wh": 5331,
      "loy": 5332,
      "▁Her": 5333,
      "rä": 5334,
      "▁Fran": 5335,
      "▁15": 5336,
      "▁med": 5337,
      "viron": 5338,
      "weis": 5339,
      "▁equ": 5340,
      "▁Con": 5341,
      "ftware": 5342,
      "ustom": 5343,
      "▁bring": 5344,
      "▁europäischen": 5345,
      "▁ohne": 5346,
      "▁pra": 5347,
      "▁wurden": 5348,
      "▁fun": 5349,
      "raft": 5350,
      "en.\",\"I": 5351,
      "▁play": 5352,
      "ständ": 5353,
      "▁used": 5354,
      "füg": 5355,
      "satz": 5356,
      "ux": 5357,
      "▁regard": 5358,
      "▁full": 5359,
      "äre": 5360,
      "▁provid": 5361,
      "▁bre": 5362,
      "ha": 5363,
      "▁andere": 5364,
      "scheid": 5365,
      "▁Germ": 5366,
      "urg": 5367,
      "▁tim": 5368,
      "▁neuen": 5369,
      "▁social": 5370,
      "▁Richt": 5371,
      "uro": 5372,
      "agement": 5373,
      "ätz": 5374,
      "zeug": 5375,
      "ierten": 5376,
      "▁years": 5377,
      "▁Vers": 5378,
      "▁different": 5379,
      "vironment": 5380,
      "eut": 5381,
      "ma": 5382,
      "▁zwei": 5383,
      "▁conf": 5384,
      "▁denn": 5385,
      "▁think": 5386,
      "▁Zu": 5387,
      "▁finan": 5388,
      "▁bek": 5389,
      "erung": 5390,
      "▁group": 5391,
      "▁letz": 5392,
      "▁Entwicklung": 5393,
      "▁exper": 5394,
      "▁without": 5395,
      "chten": 5396,
      "▁still": 5397,
      "ichte": 5398,
      "over": 5399,
      "wick": 5400,
      "▁then": 5401,
      "trib": 5402,
      "▁Ha": 5403,
      "▁Bet": 5404,
      "▁eigen": 5405,
      ".\",\"It": 5406,
      "under": 5407,
      ".\",\"This": 5408,
      ".\",We": 5409,
      "▁meas": 5410,
      "wort": 5411,
      "▁ens": 5412,
      "You": 5413,
      "cur": 5414,
      "par": 5415,
      "▁Am": 5416,
      "br": 5417,
      "ßnahmen": 5418,
      "lim": 5419,
      "osten": 5420,
      "▁oper": 5421,
      "▁consider": 5422,
      "ines": 5423,
      "ently": 5424,
      "▁adv": 5425,
      "▁long": 5426,
      "▁Sicherheit": 5427,
      "-s": 5428,
      "▁\"Un": 5429,
      "▁last": 5430,
      "que": 5431,
      "folg": 5432,
      "gar": 5433,
      "▁Frage": 5434,
      "ry": 5435,
      "▁Präsident,": 5436,
      "▁access": 5437,
      "▁Unternehmen": 5438,
      "▁gemeins": 5439,
      "wert": 5440,
      "▁priv": 5441,
      "▁bo": 5442,
      "pf": 5443,
      "▁mod": 5444,
      "▁set": 5445,
      "licher": 5446,
      "▁As": 5447,
      "▁opt": 5448,
      "hor": 5449,
      "▁18": 5450,
      "ists": 5451,
      "ulation": 5452,
      "▁woll": 5453,
      "ohl": 5454,
      "ER": 5455,
      "▁verschieden": 5456,
      "▁spec": 5457,
      "man": 5458,
      "ollow": 5459,
      "▁Hin": 5460,
      "▁ers": 5461,
      "ährend": 5462,
      "atur": 5463,
      "▁Mon": 5464,
      "▁Jahren": 5465,
      "ungen,": 5466,
      "ctor": 5467,
      "ness": 5468,
      "▁down": 5469,
      "▁govern": 5470,
      "▁att": 5471,
      "▁denen": 5472,
      "▁prin": 5473,
      ".,\"The": 5474,
      "▁unterstütz": 5475,
      "alen": 5476,
      "▁available": 5477,
      ".\",\"O": 5478,
      "▁cap": 5479,
      "▁12": 5480,
      "▁mak": 5481,
      "▁\"Herr": 5482,
      "▁require": 5483,
      "ting": 5484,
      "▁back": 5485,
      "cond": 5486,
      "▁Bürger": 5487,
      "How": 5488,
      "uture": 5489,
      "hol": 5490,
      "ondere": 5491,
      "▁industr": 5492,
      "iver": 5493,
      "akt": 5494,
      "ibility": 5495,
      "ittee": 5496,
      "ude": 5497,
      "▁interest": 5498,
      "ieren,": 5499,
      "▁able": 5500,
      "▁pres": 5501,
      "▁kle": 5502,
      "lagen": 5503,
      "tend": 5504,
      "ters": 5505,
      "äß": 5506,
      "zahl": 5507,
      "▁free": 5508,
      "urther": 5509,
      "ife": 5510,
      "ability": 5511,
      "▁business": 5512,
      "iff": 5513,
      "▁special": 5514,
      "alth": 5515,
      "yn": 5516,
      "▁dazu": 5517,
      "vers": 5518,
      "ience": 5519,
      "▁Kont": 5520,
      "▁einfach": 5521,
      "ize": 5522,
      "▁Ste": 5523,
      "rech": 5524,
      "ically": 5525,
      "▁Person": 5526,
      "▁Fe": 5527,
      "kun": 5528,
      "richt": 5529,
      "ienst": 5530,
      "ritt": 5531,
      "red": 5532,
      "utions": 5533,
      "▁small": 5534,
      "▁look": 5535,
      "ready": 5536,
      "gem": 5537,
      "▁\"Sie": 5538,
      "orte": 5539,
      "afür": 5540,
      "▁gel": 5541,
      "ispiel": 5542,
      "ers,": 5543,
      "▁\"V": 5544,
      "▁custom": 5545,
      "▁weil": 5546,
      "▁Part": 5547,
      "▁ben": 5548,
      "▁mus": 5549,
      "▁gest": 5550,
      "▁future": 5551,
      "▁sollte": 5552,
      "esse": 5553,
      "▁cor": 5554,
      "▁believe": 5555,
      "▁ze": 5556,
      "▁bietet": 5557,
      "▁viele": 5558,
      "▁aller": 5559,
      "▁day": 5560,
      "▁therefore": 5561,
      "▁air": 5562,
      "loss": 5563,
      "rechen": 5564,
      "▁som": 5565,
      "war": 5566,
      "▁Es": 5567,
      "▁Mittel": 5568,
      "ahre": 5569,
      "-F": 5570,
      "tem": 5571,
      "▁allen": 5572,
      "▁Is": 5573,
      "ope": 5574,
      "▁already": 5575,
      "ktur": 5576,
      "zug": 5577,
      "▁point": 5578,
      "▁seiner": 5579,
      "]]": 5580,
      ".\",It": 5581,
      "cr": 5582,
      "!,": 5583,
      "let": 5584,
      "ahmen": 5585,
      "▁darauf": 5586,
      "▁today": 5587,
      "fra": 5588,
      "▁before": 5589,
      "esell": 5590,
      "▁design": 5591,
      "▁komm": 5592,
      "jor": 5593,
      "▁hat,": 5594,
      "▁project": 5595,
      "ismus": 5596,
      "▁Stand": 5597,
      "ten,": 5598,
      "▁Daten": 5599,
      "äh": 5600,
      "▁voll": 5601,
      "▁environment": 5602,
      "et,": 5603,
      ".\",\"B": 5604,
      "ason": 5605,
      "▁Möglichkeit": 5606,
      "▁respons": 5607,
      "▁inst": 5608,
      "▁Aut": 5609,
      "!\n": 5610,
      "ron": 5611,
      "ing.\"\n": 5612,
      "▁cann": 5613,
      "▁stat": 5614,
      "▁Man": 5615,
      "ws": 5616,
      "▁compet": 5617,
      "▁pers": 5618,
      "▁größ": 5619,
      "▁et": 5620,
      "▁sollten": 5621,
      "▁Gen": 5622,
      "▁eing": 5623,
      "200": 5624,
      "▁Them": 5625,
      ".\",A": 5626,
      "ased": 5627,
      "▁Finanz": 5628,
      "▁open": 5629,
      "une": 5630,
      "▁fl": 5631,
      "ised": 5632,
      "w.": 5633,
      "tellen": 5634,
      "fahren": 5635,
      "▁question": 5636,
      "itiz": 5637,
      "ving": 5638,
      "▁problem": 5639,
      "ante": 5640,
      "▁proposal": 5641,
      "olution": 5642,
      "▁fac": 5643,
      "▁cannot": 5644,
      "üh": 5645,
      "▁certain": 5646,
      "mar": 5647,
      "fass": 5648,
      "▁Region": 5649,
      "zus": 5650,
      "curity": 5651,
      "okrat": 5652,
      "▁liegt": 5653,
      "▁Lage": 5654,
      "other": 5655,
      "▁Tra": 5656,
      "los": 5657,
      "▁prev": 5658,
      "öl": 5659,
      "ünd": 5660,
      "▁follow": 5661,
      "▁schon": 5662,
      "aterial": 5663,
      "▁mir": 5664,
      "▁services": 5665,
      "▁jetzt": 5666,
      "▁seit": 5667,
      "▁redu": 5668,
      "nahme": 5669,
      "▁Rahmen": 5670,
      "chie": 5671,
      "▁Ziel": 5672,
      "inal": 5673,
      "▁repr": 5674,
      "▁finden": 5675,
      ".,We": 5676,
      "▁individ": 5677,
      "▁Dem": 5678,
      "▁eas": 5679,
      "en.\",\"The": 5680,
      "leist": 5681,
      "aher": 5682,
      "welt": 5683,
      "▁neg": 5684,
      "▁int": 5685,
      "ppen": 5686,
      "▁Verein": 5687,
      "klär": 5688,
      "orn": 5689,
      "ilt": 5690,
      "▁einige": 5691,
      "ination": 5692,
      "olid": 5693,
      "▁dafür": 5694,
      "▁put": 5695,
      "▁hal": 5696,
      "tain": 5697,
      "▁Rechts": 5698,
      "20": 5699,
      "raph": 5700,
      "lease": 5701,
      "▁Med": 5702,
      "▁impro": 5703,
      "ahn": 5704,
      "its": 5705,
      "EN": 5706,
      "▁&": 5707,
      "▁Gemein": 5708,
      "lass": 5709,
      "ential": 5710,
      "ccess": 5711,
      "ode": 5712,
      "ßen": 5713,
      "▁cour": 5714,
      "That": 5715,
      "▁offers": 5716,
      "isierung": 5717,
      "come": 5718,
      "ulture": 5719,
      "iber": 5720,
      "▁Internet": 5721,
      "eich": 5722,
      "▁Herrn": 5723,
      "▁meet": 5724,
      "▁Energ": 5725,
      "ilit": 5726,
      "▁integr": 5727,
      "ified": 5728,
      "hmen": 5729,
      "▁sag": 5730,
      "▁je": 5731,
      "ather": 5732,
      "▁[[": 5733,
      "▁financial": 5734,
      "▁city": 5735,
      "aben": 5736,
      "ller": 5737,
      ".,This": 5738,
      "▁change": 5739,
      "press": 5740,
      "▁öff": 5741,
      "▁activ": 5742,
      "▁during": 5743,
      "grund": 5744,
      "▁Aussch": 5745,
      "kten": 5746,
      "ies,": 5747,
      "▁rev": 5748,
      "▁citiz": 5749,
      "iving": 5750,
      "ics": 5751,
      "▁said": 5752,
      "▁invest": 5753,
      "ystems": 5754,
      "reib": 5755,
      "nisse": 5756,
      "▁ihren": 5757,
      "▁zurück": 5758,
      "▁comple": 5759,
      "ove": 5760,
      "▁data": 5761,
      "ird": 5762,
      "▁posit": 5763,
      "▁prom": 5764,
      "▁deut": 5765,
      "issar": 5766,
      "▁fol": 5767,
      "▁allem": 5768,
      "▁far": 5769,
      "▁art": 5770,
      "▁.\"\n": 5771,
      "ins": 5772,
      "omen": 5773,
      "▁Pol": 5774,
      "ichter": 5775,
      "▁gef": 5776,
      "▁global": 5777,
      "▁nun": 5778,
      "ia,": 5779,
      "▁large": 5780,
      "hält": 5781,
      ".,\"A": 5782,
      "ffen": 5783,
      "ationen": 5784,
      "äm": 5785,
      "▁modern": 5786,
      "▁achie": 5787,
      "amm": 5788,
      "▁Jahre": 5789,
      "▁service": 5790,
      "▁energ": 5791,
      "▁0": 5792,
      "-c": 5793,
      "▁country": 5794,
      "▁Russ": 5795,
      "▁saf": 5796,
      ").\"\n": 5797,
      "aum": 5798,
      "▁examp": 5799,
      "▁Amer": 5800,
      "▁ask": 5801,
      "ctions": 5802,
      "abei": 5803,
      "▁quality": 5804,
      "ed.\"\n": 5805,
      "▁major": 5806,
      "nov": 5807,
      "▁2009": 5808,
      "▁applic": 5809,
      "▁Tran": 5810,
      "▁member": 5811,
      ".,\"In": 5812,
      "▁bin": 5813,
      "gramme": 5814,
      "▁cost": 5815,
      "operation": 5816,
      "▁famil": 5817,
      "▁\"G": 5818,
      "▁Zimmer": 5819,
      "antwort": 5820,
      "halts": 5821,
      "▁pass": 5822,
      "gress": 5823,
      "punkt": 5824,
      "▁fra": 5825,
      "▁ter": 5826,
      "▁entsp": 5827,
      "▁present": 5828,
      "▁besch": 5829,
      "▁since": 5830,
      "ek": 5831,
      "lichkeit": 5832,
      "▁besonder": 5833,
      "ren": 5834,
      "unter": 5835,
      "ern,": 5836,
      "▁strateg": 5837,
      "iend": 5838,
      "▁debate": 5839,
      "▁Maßnahmen": 5840,
      "▁necess": 5841,
      "ether": 5842,
      "reit": 5843,
      "▁Kommissar": 5844,
      "▁Serv": 5845,
      "▁unseren": 5846,
      "▁\"Im": 5847,
      "isl": 5848,
      "besondere": 5849,
      ".\",\"If": 5850,
      "▁histor": 5851,
      "▁technolog": 5852,
      "▁child": 5853,
      "▁Ö": 5854,
      "ilities": 5855,
      "itor": 5856,
      "amer": 5857,
      "fts": 5858,
      "▁Informationen": 5859,
      "▁Problem": 5860,
      "eschäft": 5861,
      "▁eng": 5862,
      "▁amend": 5863,
      "▁würde": 5864,
      "▁common": 5865,
      "▁agreement": 5866,
      "omat": 5867,
      "ves": 5868,
      "?\"\n": 5869,
      "▁each": 5870,
      "▁Kin": 5871,
      "haf": 5872,
      "▁Stadt": 5873,
      "ash": 5874,
      "▁adop": 5875,
      "ield": 5876,
      "zen": 5877,
      "cing": 5878,
      "▁matter": 5879,
      "▁Pal": 5880,
      "▁che": 5881,
      "ards": 5882,
      "▁einge": 5883,
      "▁means": 5884,
      "ually": 5885,
      "vention": 5886,
      "inen": 5887,
      "immt": 5888,
      "▁Gew": 5889,
      "▁meine": 5890,
      "asch": 5891,
      "annt": 5892,
      "reichen": 5893,
      "▁All": 5894,
      "-R": 5895,
      ".com": 5896,
      "▁Arbeits": 5897,
      "ieder": 5898,
      "▁colle": 5899,
      "▁Gesch": 5900,
      "ret": 5901,
      "ativ": 5902,
      "cip": 5903,
      "▁ref": 5904,
      "▁zusammen": 5905,
      "▁Des": 5906,
      "▁including": 5907,
      "-D": 5908,
      "▁während": 5909,
      "▁stay": 5910,
      "▁Politik": 5911,
      "▁bud": 5912,
      "opp": 5913,
      "ipp": 5914,
      "-K": 5915,
      "▁too": 5916,
      "ways": 5917,
      "▁etwas": 5918,
      "ily": 5919,
      "▁allow": 5920,
      "ablish": 5921,
      "▁Eng": 5922,
      "iele": 5923,
      "▁found": 5924,
      "▁Best": 5925,
      "ica": 5926,
      "gew": 5927,
      "bsite": 5928,
      "▁areas": 5929,
      "▁three": 5930,
      "rach": 5931,
      "▁respect": 5932,
      "orth": 5933,
      "▁doch": 5934,
      "▁Vorschlag": 5935,
      "▁stud": 5936,
      "bed": 5937,
      "▁object": 5938,
      "▁sozial": 5939,
      "ized": 5940,
      "gang": 5941,
      "▁author": 5942,
      "ec": 5943,
      "utes": 5944,
      "▁Form": 5945,
      "▁Bo": 5946,
      "▁Ro": 5947,
      "▁gar": 5948,
      "▁next": 5949,
      "kunft": 5950,
      "uge": 5951,
      "-T": 5952,
      "▁/": 5953,
      "▁Wor": 5954,
      "▁30": 5955,
      "▁give": 5956,
      "▁few": 5957,
      "▁situation": 5958,
      "▁Bild": 5959,
      "▁organis": 5960,
      "▁br": 5961,
      "▁rece": 5962,
      "▁democ": 5963,
      "▁sein,": 5964,
      "▁issue": 5965,
      "▁ensure": 5966,
      "lar": 5967,
      "▁Committee": 5968,
      "▁geht": 5969,
      "linie": 5970,
      "ls": 5971,
      "ürlich": 5972,
      "immung": 5973,
      "igen,": 5974,
      "▁law": 5975,
      "▁discuss": 5976,
      "▁Ur": 5977,
      "▁%": 5978,
      "▁erm": 5979,
      "▁further": 5980,
      "▁Ph": 5981,
      "▁tun": 5982,
      "▁thank": 5983,
      "zieh": 5984,
      "▁.\n": 5985,
      "▁provide": 5986,
      "an,": 5987,
      "ders": 5988,
      "▁build": 5989,
      "▁success": 5990,
      "ling": 5991,
      "gleich": 5992,
      "zept": 5993,
      "▁fil": 5994,
      "▁cal": 5995,
      "▁Länder": 5996,
      "▁second": 5997,
      "▁dra": 5998,
      "unde": 5999,
      "▁control": 6000,
      "▁addition": 6001,
      "schied": 6002,
      "allen": 6003,
      "▁position": 6004,
      "iate": 6005,
      "ion,": 6006,
      "▁Unterstütz": 6007,
      "▁power": 6008,
      "▁Ger": 6009,
      "▁einmal": 6010,
      "▁grow": 6011,
      "▁Lös": 6012,
      "komm": 6013,
      "gre": 6014,
      "on,": 6015,
      "▁Mein": 6016,
      "▁insbesondere": 6017,
      "ziel": 6018,
      "▁det": 6019,
      "▁employ": 6020,
      "▁pay": 6021,
      "ule": 6022,
      "▁Fall": 6023,
      "pecial": 6024,
      "lungs": 6025,
      "▁link": 6026,
      "▁Deut": 6027,
      ".\",\"T": 6028,
      "▁case": 6029,
      "▁ander": 6030,
      "por": 6031,
      "jekt": 6032,
      "blems": 6033,
      "▁taken": 6034,
      "▁establish": 6035,
      "ohn": 6036,
      "▁außer": 6037,
      "fang": 6038,
      ".\",\"Mr": 6039,
      "ultural": 6040,
      "▁read": 6041,
      "However,": 6042,
      "With": 6043,
      "▁abs": 6044,
      "ser": 6045,
      "gangen": 6046,
      "falls": 6047,
      "chnolog": 6048,
      "ordnung": 6049,
      "▁Verfüg": 6050,
      "▁ear": 6051,
      "▁du": 6052,
      "co": 6053,
      "oten": 6054,
      "anden": 6055,
      "▁beim": 6056,
      "▁that,": 6057,
      "ichten": 6058,
      "▁Änderungs": 6059,
      "▁\"Ein": 6060,
      "...": 6061,
      "elf": 6062,
      "▁Go": 6063,
      "▁pop": 6064,
      "rodu": 6065,
      "▁opport": 6066,
      "▁Euro": 6067,
      "ation.\"\n": 6068,
      "▁inde": 6069,
      "-E": 6070,
      "▁sk": 6071,
      "▁ersten": 6072,
      "▁Markt": 6073,
      "rache": 6074,
      "▁ho": 6075,
      "▁shall": 6076,
      "ien,": 6077,
      "▁Komp": 6078,
      "▁wirk": 6079,
      "▁Ital": 6080,
      "▁star": 6081,
      "ross": 6082,
      "rop": 6083,
      "▁did": 6084,
      "▁necessary": 6085,
      "▁Qual": 6086,
      "▁Zusammenarbeit": 6087,
      "▁schw": 6088,
      "ktionen": 6089,
      "▁Parlaments": 6090,
      "▁measures": 6091,
      "häng": 6092,
      "▁terr": 6093,
      "unic": 6094,
      "▁Group": 6095,
      "pend": 6096,
      "▁citizens": 6097,
      "▁Res": 6098,
      "▁come": 6099,
      "politik": 6100,
      "▁princip": 6101,
      "bo": 6102,
      "▁drei": 6103,
      "▁At": 6104,
      "fre": 6105,
      "▁begr": 6106,
      "▁\"Diese": 6107,
      "ell": 6108,
      "▁vo": 6109,
      "ucht": 6110,
      "▁legisl": 6111,
      "▁Zug": 6112,
      "▁ä": 6113,
      "▁security": 6114,
      "▁pract": 6115,
      "▁key": 6116,
      "heiten": 6117,
      "tschafts": 6118,
      "bau": 6119,
      "▁|": 6120,
      "▁simp": 6121,
      "ining": 6122,
      "▁em": 6123,
      "▁invol": 6124,
      "▁erst": 6125,
      "▁Schw": 6126,
      "gen,": 6127,
      "▁sicher": 6128,
      "AT": 6129,
      "irm": 6130,
      "▁health": 6131,
      "▁Mus": 6132,
      "stellung": 6133,
      "örder": 6134,
      "▁char": 6135,
      "urz": 6136,
      "▁25": 6137,
      "▁entwick": 6138,
      "▁lead": 6139,
      "burg": 6140,
      "AN": 6141,
      "▁given": 6142,
      ".,S": 6143,
      "▁Bl": 6144,
      "▁.": 6145,
      "▁Spiel": 6146,
      "ht,": 6147,
      "bewer": 6148,
      "▁inform": 6149,
      "▁while": 6150,
      "▁System": 6151,
      "ared": 6152,
      "iew": 6153,
      "igten": 6154,
      "schl": 6155,
      "ichts": 6156,
      "▁bro": 6157,
      "▁ret": 6158,
      "-m": 6159,
      "al,": 6160,
      "ald": 6161,
      "▁bess": 6162,
      "ilfe": 6163,
      "ests": 6164,
      "▁tradition": 6165,
      "▁Stra": 6166,
      "gether": 6167,
      "▁imm": 6168,
      "lect": 6169,
      "▁wirtschaft": 6170,
      "joy": 6171,
      "▁bl": 6172,
      "lossen": 6173,
      ".\",This": 6174,
      "▁products": 6175,
      "▁ir": 6176,
      "ands": 6177,
      "▁11": 6178,
      "▁located": 6179,
      "führt": 6180,
      "öt": 6181,
      "es.\n": 6182,
      "dress": 6183,
      "▁Tag": 6184,
      "▁Dienst": 6185,
      "▁el": 6186,
      "ES": 6187,
      "iter": 6188,
      "▁Namen": 6189,
      "arte": 6190,
      "▁wish": 6191,
      "ately": 6192,
      "agen": 6193,
      "▁gra": 6194,
      "▁14": 6195,
      "angen": 6196,
      "▁add": 6197,
      "▁result": 6198,
      "ott": 6199,
      "▁protection": 6200,
      "For": 6201,
      "IN": 6202,
      "fung": 6203,
      "▁cas": 6204,
      "▁start": 6205,
      "▁implement": 6206,
      "▁Kunden": 6207,
      "▁Sh": 6208,
      "▁and,": 6209,
      "▁Unterstützung": 6210,
      "ains": 6211,
      "▁refer": 6212,
      "▁action": 6213,
      "▁X": 6214,
      "zess": 6215,
      "▁Ländern": 6216,
      "en.\",\"A": 6217,
      "nd": 6218,
      "arch": 6219,
      "y.\n": 6220,
      "estaur": 6221,
      "▁seinen": 6222,
      "ugen": 6223,
      "of": 6224,
      "▁Regierung": 6225,
      "?\",\"": 6226,
      "earch": 6227,
      "▁reason": 6228,
      "▁writ": 6229,
      "▁können,": 6230,
      "▁bar": 6231,
      "▁Geschä": 6232,
      "kon": 6233,
      "führung": 6234,
      "!\"\n": 6235,
      "▁Deb": 6236,
      "ktor": 6237,
      "esellschaft": 6238,
      "▁net": 6239,
      "▁comb": 6240,
      "▁always": 6241,
      "▁complete": 6242,
      "indet": 6243,
      "▁16": 6244,
      "itäten": 6245,
      "▁sens": 6246,
      "▁komp": 6247,
      "▁tre": 6248,
      "▁Umwelt": 6249,
      "▁wäre": 6250,
      "▁Tr": 6251,
      "▁better": 6252,
      "schaften": 6253,
      "erb": 6254,
      "cell": 6255,
      "iste": 6256,
      "▁Vol": 6257,
      "19": 6258,
      "▁schne": 6259,
      "▁akt": 6260,
      "ivil": 6261,
      "▁hope": 6262,
      "▁mult": 6263,
      "▁why": 6264,
      "▁United": 6265,
      "schein": 6266,
      "ettbewer": 6267,
      "äd": 6268,
      "ichterst": 6269,
      "voll": 6270,
      "esen": 6271,
      "▁verl": 6272,
      "▁Beit": 6273,
      "atch": 6274,
      "▁Ad": 6275,
      "▁company": 6276,
      "▁German": 6277,
      "entrum": 6278,
      "▁energy": 6279,
      "eite": 6280,
      "ave": 6281,
      "▁Stat": 6282,
      "▁glaub": 6283,
      "ising": 6284,
      "ialog": 6285,
      "▁gehör": 6286,
      "lungen": 6287,
      "▁dank": 6288,
      "▁Ko": 6289,
      "spro": 6290,
      "ets": 6291,
      "▁compan": 6292,
      "uten": 6293,
      "▁wicht": 6294,
      "wendung": 6295,
      "orm": 6296,
      "weg": 6297,
      "▁hö": 6298,
      "zü": 6299,
      "ditions": 6300,
      "▁problems": 6301,
      "ämp": 6302,
      "bereich": 6303,
      "▁War": 6304,
      "rechte": 6305,
      "▁Kr": 6306,
      "less": 6307,
      "▁Spe": 6308,
      "▁letzten": 6309,
      "▁cho": 6310,
      "▁17": 6311,
      "▁fav": 6312,
      "▁Port": 6313,
      "▁budget": 6314,
      "sequ": 6315,
      "-b": 6316,
      "▁defin": 6317,
      "iod": 6318,
      "ikan": 6319,
      "iert,": 6320,
      "▁Red": 6321,
      "genommen": 6322,
      "▁Sw": 6323,
      "▁muß": 6324,
      "ße": 6325,
      "▁using": 6326,
      "ierungs": 6327,
      "osition": 6328,
      "▁2010": 6329,
      "obil": 6330,
      "▁ble": 6331,
      "▁2008": 6332,
      "▁rooms": 6333,
      "▁Energie": 6334,
      "▁mov": 6335,
      "▁show": 6336,
      "undheit": 6337,
      "wirk": 6338,
      "▁Lebens": 6339,
      "▁consum": 6340,
      "▁Nutz": 6341,
      "▁reach": 6342,
      "rän": 6343,
      "▁Bedeut": 6344,
      "clus": 6345,
      "▁around": 6346,
      "▁sing": 6347,
      "▁legal": 6348,
      "▁Diese": 6349,
      "▁Community": 6350,
      "eg": 6351,
      "ge,": 6352,
      "▁Rom": 6353,
      "▁conne": 6354,
      "▁transport": 6355,
      "iation": 6356,
      "ölk": 6357,
      "ites": 6358,
      "▁less": 6359,
      "▁cooperation": 6360,
      "ctive": 6361,
      "▁current": 6362,
      ".\",\"As": 6363,
      "▁deren": 6364,
      "-G": 6365,
      "abil": 6366,
      "▁rep": 6367,
      "umen": 6368,
      "altung": 6369,
      "ärk": 6370,
      "markt": 6371,
      "▁Entscheid": 6372,
      "▁50": 6373,
      "pflich": 6374,
      "▁vote": 6375,
      "▁Qu": 6376,
      "▁welche": 6377,
      "▁word": 6378,
      "▁USA": 6379,
      "▁production": 6380,
      "▁sector": 6381,
      "wards": 6382,
      "fte": 6383,
      "▁men": 6384,
      "ged": 6385,
      "▁based": 6386,
      "30": 6387,
      "▁inner": 6388,
      "ervor": 6389,
      "▁stehen": 6390,
      "▁Besch": 6391,
      "▁stru": 6392,
      "▁short": 6393,
      "lev": 6394,
      "▁Bel": 6395,
      "ique": 6396,
      "genden": 6397,
      "leit": 6398,
      "▁account": 6399,
      "▁großen": 6400,
      "▁große": 6401,
      "▁Ergeb": 6402,
      "▁whether": 6403,
      "blick": 6404,
      "▁tour": 6405,
      "▁individual": 6406,
      "lich,": 6407,
      "▁erhalten": 6408,
      "▁non": 6409,
      "ogen": 6410,
      "▁Proble": 6411,
      "ros": 6412,
      "▁become": 6413,
      "hof": 6414,
      "pporte": 6415,
      "▁met": 6416,
      "▁crit": 6417,
      "▁statt": 6418,
      "▁lim": 6419,
      "▁centre": 6420,
      "▁diffic": 6421,
      "▁clos": 6422,
      "▁extre": 6423,
      "▁together": 6424,
      "▁La": 6425,
      "ultur": 6426,
      "ünst": 6427,
      "load": 6428,
      "igkeiten": 6429,
      "▁near": 6430,
      "▁another": 6431,
      "ppe": 6432,
      "▁particularly": 6433,
      "▁event": 6434,
      "▁Recht": 6435,
      "▁working": 6436,
      "!\",\"": 6437,
      "▁state": 6438,
      "ferenz": 6439,
      "▁orig": 6440,
      "▁\"Er": 6441,
      "-L": 6442,
      "▁dist": 6443,
      "ed.\n": 6444,
      "enk": 6445,
      "▁Sk": 6446,
      "▁research": 6447,
      ".\",\"C": 6448,
      "▁trade": 6449,
      "▁field": 6450,
      "▁him": 6451,
      "▁Schutz": 6452,
      "druck": 6453,
      "▁zahl": 6454,
      "▁dabei": 6455,
      "▁Famil": 6456,
      "-C": 6457,
      "text": 6458,
      "ify": 6459,
      "▁care": 6460,
      "kauf": 6461,
      "ustrie": 6462,
      "▁government": 6463,
      "ice,": 6464,
      "▁verw": 6465,
      "eder": 6466,
      "atte": 6467,
      "▁Vertrag": 6468,
      "▁bene": 6469,
      "von": 6470,
      "aster": 6471,
      "▁sl": 6472,
      "▁life": 6473,
      "üt": 6474,
      "▁notwend": 6475,
      "▁contrib": 6476,
      "▁visit": 6477,
      "room": 6478,
      "▁join": 6479,
      "▁entfern": 6480,
      "▁Regel": 6481,
      "▁call": 6482,
      "astr": 6483,
      "ules": 6484,
      "iar": 6485,
      "alle": 6486,
      "▁bel": 6487,
      "▁hervor": 6488,
      "▁Bank": 6489,
      "▁Fragen": 6490,
      "ty": 6491,
      "anc": 6492,
      "gaben": 6493,
      "▁öffent": 6494,
      "legt": 6495,
      "iges": 6496,
      "▁difficult": 6497,
      "▁100": 6498,
      "▁Kinder": 6499,
      "arante": 6500,
      "uft": 6501,
      "▁local": 6502,
      "▁specific": 6503,
      "ON": 6504,
      "ategor": 6505,
      "▁Seite": 6506,
      "▁darüber": 6507,
      "ements": 6508,
      "▁friend": 6509,
      "50": 6510,
      "▁steht": 6511,
      "ingungen": 6512,
      "ätze": 6513,
      "▁erforder": 6514,
      "pecially": 6515,
      "\"\",": 6516,
      "isation": 6517,
      "▁km": 6518,
      "ig,": 6519,
      "xim": 6520,
      "▁restaur": 6521,
      "ikel": 6522,
      "vest": 6523,
      "hö": 6524,
      "▁Wirtschafts": 6525,
      "hang": 6526,
      "▁aff": 6527,
      "▁bew": 6528,
      "▁ann": 6529,
      "▁subject": 6530,
      "▁eben": 6531,
      "▁China": 6532,
      "en.\",": 6533,
      "▁jeder": 6534,
      "▁beach": 6535,
      "▁2007": 6536,
      "▁gegenüber": 6537,
      "ording": 6538,
      "▁book": 6539,
      "▁break": 6540,
      "reg": 6541,
      "▁address": 6542,
      "▁Beispiel": 6543,
      "▁UN": 6544,
      "▁hoff": 6545,
      "▁Programm": 6546,
      "▁enjoy": 6547,
      "▁\"L": 6548,
      "affen": 6549,
      "▁tax": 6550,
      "erstell": 6551,
      "row": 6552,
      "schrif": 6553,
      "▁various": 6554,
      "▁Comp": 6555,
      "▁24": 6556,
      "werk": 6557,
      "▁brauch": 6558,
      "▁exist": 6559,
      "ckt": 6560,
      "isen": 6561,
      "▁rapporte": 6562,
      "ength": 6563,
      "▁run": 6564,
      "lock": 6565,
      "ichterstatter": 6566,
      "adies": 6567,
      "arn": 6568,
      "fäh": 6569,
      "▁International": 6570,
      "▁experience": 6571,
      "▁besteht": 6572,
      "What": 6573,
      "▁Verfügung": 6574,
      "▁organ": 6575,
      "▁Fol": 6576,
      "▁gesam": 6577,
      "▁terms": 6578,
      "gemein": 6579,
      "On": 6580,
      "▁however,": 6581,
      "asser": 6582,
      "▁Gä": 6583,
      "▁Tur": 6584,
      "▁Durch": 6585,
      "uter": 6586,
      "▁old": 6587,
      "▁\"K": 6588,
      "til": 6589,
      "enten": 6590,
      "▁page": 6591,
      "▁sowohl": 6592,
      "▁step": 6593,
      "▁typ": 6594,
      "▁ur": 6595,
      "▁Haushalts": 6596,
      "sk": 6597,
      ".,It": 6598,
      "▁basis": 6599,
      "schutz": 6600,
      "▁Wahl": 6601,
      "▁guarante": 6602,
      "▁näch": 6603,
      "▁weitere": 6604,
      "▁aim": 6605,
      "▁Weg": 6606,
      "eten": 6607,
      "▁Zahl": 6608,
      "▁Ben": 6609,
      "▁Air": 6610,
      "raum": 6611,
      "▁eigenen": 6612,
      "▁Fahr": 6613,
      "▁occ": 6614,
      "▁Bus": 6615,
      "▁dort": 6616,
      "▁profession": 6617,
      "wach": 6618,
      "▁Mrs": 6619,
      "▁third": 6620,
      "ipt": 6621,
      "When": 6622,
      "eign": 6623,
      "gabe": 6624,
      "lle": 6625,
      "▁bestimm": 6626,
      "▁natürlich": 6627,
      "ender": 6628,
      "▁EUR": 6629,
      "▁Ihrer": 6630,
      "▁House": 6631,
      "by": 6632,
      "▁really": 6633,
      "▁beaut": 6634,
      "▁Gu": 6635,
      "▁comfort": 6636,
      "▁pack": 6637,
      "▁meiner": 6638,
      "▁nor": 6639,
      "▁di": 6640,
      "▁whole": 6641,
      "▁sum": 6642,
      "▁needs": 6643,
      "▁commit": 6644,
      "▁San": 6645,
      "geord": 6646,
      "▁sever": 6647,
      "▁speak": 6648,
      "▁deal": 6649,
      "▁Produkt": 6650,
      "▁arbeit": 6651,
      "▁Wer": 6652,
      "ing.\n": 6653,
      "▁\"Be": 6654,
      "glichen": 6655,
      "bild": 6656,
      "▁politischen": 6657,
      "isches": 6658,
      "bene": 6659,
      "▁col": 6660,
      "▁klar": 6661,
      "orgen": 6662,
      "▁effort": 6663,
      "ension": 6664,
      "▁Ende": 6665,
      "▁innov": 6666,
      "▁month": 6667,
      "▁course": 6668,
      "▁prior": 6669,
      "gende": 6670,
      "▁Stud": 6671,
      "ober": 6672,
      "fect": 6673,
      "ca": 6674,
      "▁role": 6675,
      "▁cris": 6676,
      "▁period": 6677,
      "▁staff": 6678,
      "▁though": 6679,
      "▁Geschäfts": 6680,
      "▁gent": 6681,
      "▁Haupt": 6682,
      "▁doc": 6683,
      "▁machen": 6684,
      "▁13": 6685,
      "▁Mal": 6686,
      "chan": 6687,
      "uchen": 6688,
      "inter": 6689,
      "▁decision": 6690,
      "▁(A": 6691,
      "cellent": 6692,
      "▁proced": 6693,
      "▁Mark": 6694,
      "ünft": 6695,
      "▁she": 6696,
      "▁mot": 6697,
      "ifiz": 6698,
      "rieden": 6699,
      "▁Fun": 6700,
      "▁verschiedenen": 6701,
      "ners": 6702,
      "▁Ausschuss": 6703,
      "-V": 6704,
      "ican": 6705,
      "▁wirklich": 6706,
      "oren": 6707,
      "▁food": 6708,
      "uktur": 6709,
      "▁Bedeutung": 6710,
      "ograph": 6711,
      "▁besonders": 6712,
      "▁resul": 6713,
      "▁teil": 6714,
      "▁ple": 6715,
      "▁Forsch": 6716,
      "▁hoch": 6717,
      "▁\"Mit": 6718,
      "▁top": 6719,
      "zuf": 6720,
      "arten": 6721,
      "eiten": 6722,
      "▁innerhalb": 6723,
      "▁water": 6724,
      "▁daher": 6725,
      "▁Fort": 6726,
      "▁especially": 6727,
      "▁negot": 6728,
      "▁bieten": 6729,
      "▁create": 6730,
      "▁close": 6731,
      "AR": 6732,
      "▁Preis": 6733,
      "el,": 6734,
      "▁Deutsch": 6735,
      "But": 6736,
      "▁represent": 6737,
      "▁turn": 6738,
      "strument": 6739,
      "▁situ": 6740,
      "▁private": 6741,
      "ordin": 6742,
      "▁kommen": 6743,
      "stoff": 6744,
      "▁Lin": 6745,
      "üd": 6746,
      "▁Thema": 6747,
      "▁perform": 6748,
      "▁Rolle": 6749,
      "oment": 6750,
      "ennt": 6751,
      "▁gener": 6752,
      "▁treat": 6753,
      "▁press": 6754,
      "▁gentle": 6755,
      "▁ihnen": 6756,
      "▁vielen": 6757,
      "amt": 6758,
      "▁approach": 6759,
      "IT": 6760,
      "en.\",\"In": 6761,
      ".0": 6762,
      "▁Zukunft": 6763,
      "These": 6764,
      "▁betr": 6765,
      "träge": 6766,
      "▁personal": 6767,
      "▁Park": 6768,
      "▁zwar": 6769,
      "▁Minister": 6770,
      "ton": 6771,
      "▁soc": 6772,
      "▁prop": 6773,
      "▁Restaur": 6774,
      "▁worden": 6775,
      "duc": 6776,
      "▁befindet": 6777,
      "▁Fest": 6778,
      "cken": 6779,
      "▁enter": 6780,
      "▁beh": 6781,
      "▁Treat": 6782,
      "▁reform": 6783,
      "▁favour": 6784,
      "istic": 6785,
      "▁Kollegen": 6786,
      "oor": 6787,
      "▁among": 6788,
      "▁Wettbewer": 6789,
      "ean": 6790,
      "heb": 6791,
      "▁job": 6792,
      "▁children": 6793,
      "isions": 6794,
      "▁cours": 6795,
      "ritte": 6796,
      "-H": 6797,
      ".\",\"H": 6798,
      "▁internationalen": 6799,
      "Mr": 6800,
      "iol": 6801,
      "▁itself": 6802,
      "▁someth": 6803,
      "imate": 6804,
      "▁issues": 6805,
      "zip": 6806,
      "▁Tour": 6807,
      "racht": 6808,
      "▁conditions": 6809,
      "uc": 6810,
      "wh": 6811,
      "olf": 6812,
      "▁langu": 6813,
      "rim": 6814,
      "▁rapporteur": 6815,
      "▁several": 6816,
      "▁initi": 6817,
      "▁pat": 6818,
      "▁general": 6819,
      "▁waren": 6820,
      "▁resolution": 6821,
      "▁struct": 6822,
      "▁feat": 6823,
      "▁Berichterstatter": 6824,
      "▁doub": 6825,
      "ences": 6826,
      "▁Gegen": 6827,
      "▁aufge": 6828,
      "▁Gru": 6829,
      "▁resour": 6830,
      "▁install": 6831,
      "▁material": 6832,
      "▁ess": 6833,
      "uth": 6834,
      "roll": 6835,
      "ministr": 6836,
      "ival": 6837,
      ".\",\"E": 6838,
      "ably": 6839,
      "▁plan": 6840,
      "▁standard": 6841,
      "mework": 6842,
      "tember": 6843,
      "▁town": 6844,
      "▁lo": 6845,
      "▁Lie": 6846,
      "▁Richtlinie": 6847,
      "ache": 6848,
      "▁Weise": 6849,
      "▁direkt": 6850,
      "ars": 6851,
      "iety": 6852,
      "eute": 6853,
      "11": 6854,
      "Our": 6855,
      "app": 6856,
      "ände": 6857,
      "▁Bei": 6858,
      "▁Disk": 6859,
      "▁hinaus": 6860,
      "cher": 6861,
      "▁Woch": 6862,
      "'t": 6863,
      "▁dür": 6864,
      "▁alles": 6865,
      "▁single": 6866,
      "▁let": 6867,
      "▁inc": 6868,
      "▁Verbrauch": 6869,
      "▁Pre": 6870,
      "▁port": 6871,
      "mos": 6872,
      "▁Ihren": 6873,
      "-in": 6874,
      "▁Not": 6875,
      "▁million": 6876,
      "gestellt": 6877,
      "▁Terr": 6878,
      "wär": 6879,
      "ksam": 6880,
      "▁Probleme": 6881,
      "▁Afr": 6882,
      "▁Seiten": 6883,
      "antrag": 6884,
      "ived": 6885,
      "dings": 6886,
      "▁:": 6887,
      "▁davon": 6888,
      "▁Abst": 6889,
      "▁Uhr": 6890,
      "ittle": 6891,
      "▁automat": 6892,
      "ches": 6893,
      "indung": 6894,
      "ika": 6895,
      "▁regul": 6896,
      "ücks": 6897,
      "▁introdu": 6898,
      "asing": 6899,
      "▁gewähr": 6900,
      "▁Software": 6901,
      "▁women": 6902,
      "▁done": 6903,
      ".\",\"P": 6904,
      "▁Strateg": 6905,
      "▁away": 6906,
      "▁nam": 6907,
      "▁progress": 6908,
      "▁serious": 6909,
      ".\",\"N": 6910,
      "IS": 6911,
      "▁peace": 6912,
      "▁Kü": 6913,
      "erien": 6914,
      "▁something": 6915,
      "▁Jan": 6916,
      "▁excellent": 6917,
      "lauf": 6918,
      "▁kind": 6919,
      "ively": 6920,
      "▁\"J": 6921,
      "uellen": 6922,
      "thing": 6923,
      "nehmer": 6924,
      "uments": 6925,
      "▁opin": 6926,
      "▁wurde,": 6927,
      "▁continue": 6928,
      "▁accept": 6929,
      "zeichnet": 6930,
      "▁following": 6931,
      "hens": 6932,
      "▁management": 6933,
      "ury": 6934,
      "▁companies": 6935,
      "▁El": 6936,
      "gric": 6937,
      "▁sup": 6938,
      "▁konn": 6939,
      "▁mar": 6940,
      "▁verfü": 6941,
      "▁understand": 6942,
      "▁making": 6943,
      "▁tro": 6944,
      "▁particip": 6945,
      "yl": 6946,
      "▁list": 6947,
      "▁New": 6948,
      "▁Service": 6949,
      "mm": 6950,
      "▁Mehr": 6951,
      "▁Chr": 6952,
      "ots": 6953,
      "▁Frauen": 6954,
      "▁enc": 6955,
      "lik": 6956,
      "wirtschaft": 6957,
      "asse": 6958,
      "partment": 6959,
      "▁going": 6960,
      "wä": 6961,
      "▁ans": 6962,
      "▁crisis": 6963,
      "▁(S": 6964,
      "fehl": 6965,
      "though": 6966,
      "▁europäische": 6967,
      "cel": 6968,
      "▁2000": 6969,
      "▁contact": 6970,
      "▁Fisch": 6971,
      "tes": 6972,
      "▁anal": 6973,
      "▁forward": 6974,
      "CH": 6975,
      "▁benef": 6976,
      "produ": 6977,
      "▁members": 6978,
      "▁Situation": 6979,
      "igt,": 6980,
      "ody": 6981,
      "▁sett": 6982,
      "▁mean": 6983,
      "▁1.": 6984,
      "▁Zwe": 6985,
      "▁mone": 6986,
      "▁erste": 6987,
      "äuf": 6988,
      "ino": 6989,
      "▁Transp": 6990,
      "ums": 6991,
      "▁once": 6992,
      "▁software": 6993,
      "sprache": 6994,
      "ativen": 6995,
      "▁stark": 6996,
      "▁gentlemen,": 6997,
      "▁extrem": 6998,
      "▁Wind": 6999,
      "▁often": 7000,
      "▁Gesundheit": 7001,
      "▁range": 7002,
      "▁express": 7003,
      "▁bal": 7004,
      "▁towards": 7005,
      "▁systems": 7006,
      "ts,": 7007,
      "▁On": 7008,
      "▁Cl": 7009,
      "▁Präsident!": 7010,
      "▁Berlin": 7011,
      "▁site": 7012,
      "▁genau": 7013,
      "▁Dire": 7014,
      "▁\"U": 7015,
      "bei": 7016,
      "▁etc": 7017,
      "▁schnell": 7018,
      "▁erfolg": 7019,
      "▁absol": 7020,
      "▁einzel": 7021,
      "12": 7022,
      "▁dest": 7023,
      "▁recog": 7024,
      "prü": 7025,
      "▁hät": 7026,
      "yr": 7027,
      "haus": 7028,
      "▁Zusammenhang": 7029,
      "-0": 7030,
      "▁mention": 7031,
      ").\n": 7032,
      "ference": 7033,
      "▁post": 7034,
      "legenheit": 7035,
      "▁feel": 7036,
      "adam": 7037,
      "▁ident": 7038,
      "▁walk": 7039,
      "▁communic": 7040,
      "emp": 7041,
      "rael": 7042,
      "the": 7043,
      "wand": 7044,
      "itäts": 7045,
      "▁könnte": 7046,
      "▁until": 7047,
      "▁Rep": 7048,
      "gän": 7049,
      ".\",\"L": 7050,
      "▁relations": 7051,
      "▁Abgeord": 7052,
      "▁Univers": 7053,
      "omb": 7054,
      "oto": 7055,
      "ure,": 7056,
      "▁milit": 7057,
      ".,P": 7058,
      "▁offen": 7059,
      "▁function": 7060,
      "ift": 7061,
      "asst": 7062,
      "▁World": 7063,
      "▁unserem": 7064,
      "outh": 7065,
      "fast": 7066,
      "bet": 7067,
      "▁ant": 7068,
      "go": 7069,
      "fen,": 7070,
      "▁time,": 7071,
      "▁beiden": 7072,
      "▁little": 7073,
      "vent": 7074,
      "▁198": 7075,
      "▁optim": 7076,
      "▁Emp": 7077,
      "▁nutz": 7078,
      "armon": 7079,
      "▁week": 7080,
      "▁Frank": 7081,
      "▁programm": 7082,
      "uff": 7083,
      "▁aid": 7084,
      "▁It": 7085,
      "▁Commissioner": 7086,
      "as,": 7087,
      "▁finanz": 7088,
      "▁Gäste": 7089,
      "usätz": 7090,
      "▁strong": 7091,
      "icle": 7092,
      "ai": 7093,
      "tract": 7094,
      "ype": 7095,
      "ured": 7096,
      "▁welcome": 7097,
      "▁sagen,": 7098,
      "leb": 7099,
      "OR": 7100,
      "▁Rück": 7101,
      "ußen": 7102,
      "pekt": 7103,
      "ances": 7104,
      "▁Entschließ": 7105,
      "▁fast": 7106,
      "ization": 7107,
      "enzen": 7108,
      "▁Staaten": 7109,
      "ächst": 7110,
      "idence": 7111,
      "▁land": 7112,
      "▁entfernt": 7113,
      "▁home": 7114,
      "▁weltw": 7115,
      "▁solution": 7116,
      "leicht": 7117,
      "zimmer": 7118,
      "▁opportunity": 7119,
      "esehen": 7120,
      "▁term": 7121,
      "ally,": 7122,
      "▁online": 7123,
      "ails": 7124,
      "▁lassen": 7125,
      "▁Invest": 7126,
      "full": 7127,
      "▁rather": 7128,
      "▁keep": 7129,
      "▁sehen": 7130,
      "etzung": 7131,
      "ment,": 7132,
      "▁bz": 7133,
      "▁growth": 7134,
      "▁Gra": 7135,
      "▁ermöglich": 7136,
      "▁Op": 7137,
      "▁activities": 7138,
      "▁price": 7139,
      "▁Verantwort": 7140,
      "▁Span": 7141,
      "▁institution": 7142,
      "▁verwend": 7143,
      "▁mind": 7144,
      "▁hard": 7145,
      ".,C": 7146,
      "ocus": 7147,
      "half": 7148,
      "▁Artikel": 7149,
      "▁2006": 7150,
      "stra": 7151,
      "▁ve": 7152,
      "edom": 7153,
      "treten": 7154,
      "onds": 7155,
      "▁Nov": 7156,
      "▁quite": 7157,
      "weil": 7158,
      "▁Technolog": 7159,
      "▁text": 7160,
      "▁Met": 7161,
      "teilung": 7162,
      "atis": 7163,
      "▁increase": 7164,
      "▁check": 7165,
      "ity,": 7166,
      "▁Demokrat": 7167,
      "▁least": 7168,
      "mäß": 7169,
      "▁Union,": 7170,
      "▁Klim": 7171,
      "▁seem": 7172,
      "▁beginn": 7173,
      "▁Ums": 7174,
      "▁Su": 7175,
      "▁il": 7176,
      "aps": 7177,
      "▁verbess": 7178,
      "ises": 7179,
      "▁Für": 7180,
      "AS": 7181,
      "▁instit": 7182,
      "ification": 7183,
      "▁\"Wie": 7184,
      "▁begrü": 7185,
      "▁line": 7186,
      "▁sw": 7187,
      "ison": 7188,
      "▁elect": 7189,
      "▁tas": 7190,
      "atives": 7191,
      "▁National": 7192,
      "▁Fil": 7193,
      "▁dev": 7194,
      "▁sug": 7195,
      "finden": 7196,
      "a.\"\n": 7197,
      "▁Partner": 7198,
      "▁indem": 7199,
      "arian": 7200,
      "bour": 7201,
      "▁name": 7202,
      "▁Deutschland": 7203,
      "▁agree": 7204,
      "▁chang": 7205,
      "▁Hotels": 7206,
      "iere": 7207,
      "▁behalf": 7208,
      "▁Kultur": 7209,
      "ichtet": 7210,
      ".\",\"There": 7211,
      "▁Schluss": 7212,
      "ommend": 7213,
      "illionen": 7214,
      "▁Organis": 7215,
      "▁qual": 7216,
      "immen": 7217,
      "age,": 7218,
      "▁bzw.": 7219,
      "plan": 7220,
      "▁try": 7221,
      "▁programme": 7222,
      "agn": 7223,
      "ers.\"\n": 7224,
      "ides": 7225,
      "▁Natur": 7226,
      "▁four": 7227,
      "mosph": 7228,
      ".\",S": 7229,
      "annten": 7230,
      "▁gesag": 7231,
      "iations": 7232,
      "▁might": 7233,
      "▁big": 7234,
      "▁spiel": 7235,
      "▁ihn": 7236,
      "uh": 7237,
      "▁effic": 7238,
      "▁include": 7239,
      "abhäng": 7240,
      "letz": 7241,
      "▁Hilfe": 7242,
      "▁remain": 7243,
      "▁weniger": 7244,
      "▁Jul": 7245,
      "▁näm": 7246,
      "wohl": 7247,
      "zogen": 7248,
      "rank": 7249,
      "▁Cent": 7250,
      "▁etwa": 7251,
      "▁lab": 7252,
      "▁Dienstleist": 7253,
      "▁signific": 7254,
      "▁)": 7255,
      "iful": 7256,
      "ter,": 7257,
      "▁Sep": 7258,
      ".\",\"D": 7259,
      "onger": 7260,
      "ij": 7261,
      "▁gute": 7262,
      "▁fully": 7263,
      "sen": 7264,
      "reiche": 7265,
      "amental": 7266,
      "▁location": 7267,
      "▁persön": 7268,
      "▁park": 7269,
      "▁positive": 7270,
      "einander": 7271,
      "mor": 7272,
      "▁ideal": 7273,
      "ethod": 7274,
      "amb": 7275,
      "ies.\"\n": 7276,
      "ety": 7277,
      "▁pur": 7278,
      "▁sogar": 7279,
      "▁kurz": 7280,
      "etzen": 7281,
      "erecht": 7282,
      "▁hatte": 7283,
      "▁Sozial": 7284,
      "▁ladies": 7285,
      "zeitig": 7286,
      "▁having": 7287,
      "▁jeden": 7288,
      "▁Projekt": 7289,
      "ierungen": 7290,
      "ratic": 7291,
      "▁framework": 7292,
      "icial": 7293,
      "▁Car": 7294,
      "hunder": 7295,
      "▁bor": 7296,
      "eits": 7297,
      "spl": 7298,
      "OM": 7299,
      "▁stellt": 7300,
      "auer": 7301,
      "▁State": 7302,
      "▁directive": 7303,
      "▁class": 7304,
      "baren": 7305,
      "▁Erfahr": 7306,
      "völk": 7307,
      "▁Fraktion": 7308,
      "▁\"O": 7309,
      "▁gerade": 7310,
      "ächlich": 7311,
      "▁along": 7312,
      "▁educ": 7313,
      "▁u": 7314,
      "self": 7315,
      "▁risk": 7316,
      "iqu": 7317,
      "▁Punkt": 7318,
      "-f": 7319,
      "▁Geld": 7320,
      "▁Grün": 7321,
      "▁content": 7322,
      "▁arch": 7323,
      "▁Char": 7324,
      "▁log": 7325,
      "arf": 7326,
      "▁Ser": 7327,
      "side": 7328,
      "fall": 7329,
      "▁geben": 7330,
      "▁Bas": 7331,
      "r.": 7332,
      "ie,": 7333,
      "ce,": 7334,
      "gehen": 7335,
      "▁recommend": 7336,
      "verb": 7337,
      "▁Lösung": 7338,
      "sere": 7339,
      "▁Son": 7340,
      "ta": 7341,
      "▁hour": 7342,
      "met": 7343,
      "▁kann,": 7344,
      "?\",": 7345,
      "▁above": 7346,
      "▁Leben": 7347,
      "▁Austr": 7348,
      "▁\"(": 7349,
      "▁oth": 7350,
      "oph": 7351,
      "▁fair": 7352,
      "aden": 7353,
      "ric": 7354,
      "▁\"T": 7355,
      "▁nicht,": 7356,
      "most": 7357,
      "lean": 7358,
      "▁example,": 7359,
      "▁adopted": 7360,
      "rolle": 7361,
      "▁nämlich": 7362,
      "▁September": 7363,
      "▁unterschied": 7364,
      "▁entsprechen": 7365,
      "▁\"Um": 7366,
      "▁essential": 7367,
      "▁ihm": 7368,
      "läge": 7369,
      "ideo": 7370,
      "▁Ass": 7371,
      "ex": 7372,
      "▁pa": 7373,
      "cript": 7374,
      "▁strength": 7375,
      "▁bitte": 7376,
      "▁network": 7377,
      "wahl": 7378,
      "lei": 7379,
      "iberal": 7380,
      "anst": 7381,
      "▁creat": 7382,
      "stant": 7383,
      "▁seinem": 7384,
      "▁suf": 7385,
      "▁Zugang": 7386,
      "▁Ange": 7387,
      ".,\"I": 7388,
      "▁flo": 7389,
      "▁\"Eine": 7390,
      "▁Tür": 7391,
      ".\",\"For": 7392,
      "bereit": 7393,
      "setzung": 7394,
      "▁ü": 7395,
      "▁meisten": 7396,
      "fert": 7397,
      "unst": 7398,
      "▁taking": 7399,
      "▁Pat": 7400,
      "▁nie": 7401,
      "tag": 7402,
      "▁viol": 7403,
      "frage": 7404,
      "▁led": 7405,
      "▁Sc": 7406,
      "▁don": 7407,
      "▁entire": 7408,
      "liches": 7409,
      "▁charac": 7410,
      "bank": 7411,
      "▁makes": 7412,
      "▁bank": 7413,
      "en.": 7414,
      "▁Bezug": 7415,
      "▁tool": 7416,
      "▁stre": 7417,
      "▁And": 7418,
      "▁called": 7419,
      "▁transpar": 7420,
      "▁anges": 7421,
      "▁provided": 7422,
      "recht": 7423,
      "rieb": 7424,
      "▁Mo": 7425,
      "igr": 7426,
      "▁example": 7427,
      "▁darf": 7428,
      "▁yet": 7429,
      "▁agric": 7430,
      "▁\"P": 7431,
      "ception": 7432,
      "▁family": 7433,
      "▁politische": 7434,
      "▁ebenfalls": 7435,
      "▁flex": 7436,
      "▁bath": 7437,
      "▁21": 7438,
      "▁return": 7439,
      "▁Viel": 7440,
      "ünf": 7441,
      "▁never": 7442,
      "reicht": 7443,
      "▁constru": 7444,
      "aten,": 7445,
      "▁left": 7446,
      "▁value": 7447,
      "▁focus": 7448,
      "▁customers": 7449,
      "word": 7450,
      "han": 7451,
      "▁wesent": 7452,
      "uz": 7453,
      "▁partners": 7454,
      "bon": 7455,
      "▁gre": 7456,
      "iken": 7457,
      "iled": 7458,
      "igital": 7459,
      "telle": 7460,
      "▁ak": 7461,
      "▁Institution": 7462,
      "▁wahr": 7463,
      "a.": 7464,
      "▁Zust": 7465,
      "▁Jahres": 7466,
      "▁def": 7467,
      "▁recht": 7468,
      "▁Rechte": 7469,
      "forderungen": 7470,
      "aged": 7471,
      "▁Kap": 7472,
      "ption": 7473,
      "erst": 7474,
      "um,": 7475,
      "▁40": 7476,
      "ostel": 7477,
      "aussch": 7478,
      "▁Initi": 7479,
      "▁freedom": 7480,
      "▁\"Was": 7481,
      "▁continu": 7482,
      "▁Web": 7483,
      "▁attention": 7484,
      "liament": 7485,
      ".\",\"However,": 7486,
      "▁Verkehr": 7487,
      "▁deliver": 7488,
      "▁Verhand": 7489,
      "▁Sa": 7490,
      "bare": 7491,
      "▁pot": 7492,
      "▁\"Des": 7493,
      "▁ren": 7494,
      "ined": 7495,
      ".,M": 7496,
      "▁\"Da": 7497,
      "▁Sal": 7498,
      "füll": 7499,
      "▁Text": 7500,
      "berg": 7501,
      "▁provides": 7502,
      "▁Entwicklungs": 7503,
      "ym": 7504,
      "▁cover": 7505,
      "ager": 7506,
      "irc": 7507,
      "▁Buch": 7508,
      "▁light": 7509,
      "▁demand": 7510,
      "now": 7511,
      "▁responsibility": 7512,
      "issen,": 7513,
      "AL": 7514,
      "▁due": 7515,
      "unds": 7516,
      "▁Frei": 7517,
      "▁Kosten": 7518,
      "benso": 7519,
      "▁beautiful": 7520,
      "▁application": 7521,
      "DE": 7522,
      "▁öffentlichen": 7523,
      "uell": 7524,
      "ufact": 7525,
      "ume": 7526,
      "▁gilt": 7527,
      "▁derzeit": 7528,
      "▁institutions": 7529,
      "▁wissen": 7530,
      "is,": 7531,
      "▁Antw": 7532,
      "▁appropr": 7533,
      "mitted": 7534,
      "▁neu": 7535,
      "▁rela": 7536,
      "ency": 7537,
      "▁talk": 7538,
      "▁recent": 7539,
      "▁course,": 7540,
      "▁team": 7541,
      "itions": 7542,
      "ested": 7543,
      "▁perfect": 7544,
      "▁rules": 7545,
      "wohn": 7546,
      "sweise": 7547,
      "züglich": 7548,
      "▁Rates": 7549,
      "▁mass": 7550,
      "mission": 7551,
      "▁dom": 7552,
      "apan": 7553,
      "▁importance": 7554,
      "▁total": 7555,
      "▁Pe": 7556,
      "▁stellen": 7557,
      "▁Wel": 7558,
      "illa": 7559,
      "▁\"Und": 7560,
      "▁2005": 7561,
      "▁send": 7562,
      "▁verbunden": 7563,
      "wür": 7564,
      ".,In": 7565,
      "stadt": 7566,
      "▁abge": 7567,
      "▁Flug": 7568,
      "ampf": 7569,
      "▁möchten": 7570,
      "▁sport": 7571,
      "▁App": 7572,
      "▁things": 7573,
      "ähe": 7574,
      "ustain": 7575,
      "ennen": 7576,
      "▁resources": 7577,
      "▁verst": 7578,
      "▁head": 7579,
      "▁ihrem": 7580,
      "▁Gar": 7581,
      "▁\"Als": 7582,
      "▁Rei": 7583,
      "▁kommt": 7584,
      "▁easy": 7585,
      "ee": 7586,
      "▁known": 7587,
      "▁Beschäft": 7588,
      "EL": 7589,
      "▁Kre": 7590,
      "▁administr": 7591,
      "▁wollen": 7592,
      "▁bedeute": 7593,
      "▁heart": 7594,
      "äus": 7595,
      "schließlich": 7596,
      "i-": 7597,
      "▁Millionen": 7598,
      "rieg": 7599,
      "▁keinen": 7600,
      "idency": 7601,
      "▁This": 7602,
      "▁holid": 7603,
      "▁simply": 7604,
      "▁Produkte": 7605,
      "▁Janu": 7606,
      "wärt": 7607,
      "tlich": 7608,
      "ive,": 7609,
      "▁Hö": 7610,
      "spolitik": 7611,
      "ledge": 7612,
      "▁greater": 7613,
      ".\",\"On": 7614,
      "▁besser": 7615,
      "EC": 7616,
      "▁einigen": 7617,
      "▁Europas": 7618,
      "▁method": 7619,
      "▁Angeb": 7620,
      "verkehr": 7621,
      "▁Eine": 7622,
      "iner": 7623,
      "dern,": 7624,
      "▁sure": 7625,
      "▁nationalen": 7626,
      "▁zusätz": 7627,
      "en.\",\"We": 7628,
      "▁TV": 7629,
      "▁natural": 7630,
      "tellen,": 7631,
      "fore,": 7632,
      "▁gl": 7633,
      "▁young": 7634,
      "▁road": 7635,
      "▁Germany": 7636,
      "▁Kolleg": 7637,
      "▁ja": 7638,
      "▁minutes": 7639,
      "▁test": 7640,
      "▁\"Auf": 7641,
      "▁kosten": 7642,
      "▁weiterhin": 7643,
      "▁Jahrhunder": 7644,
      "▁arr": 7645,
      "▁erwar": 7646,
      "unächst": 7647,
      "▁table": 7648,
      "▁verste": 7649,
      "▁rad": 7650,
      "▁na": 7651,
      "▁Früh": 7652,
      "ader": 7653,
      "▁\"Nach": 7654,
      "aler": 7655,
      "inge": 7656,
      "hib": 7657,
      "ieten": 7658,
      "▁schließ": 7659,
      "pflicht": 7660,
      "▁environmental": 7661,
      "esten": 7662,
      "▁moment": 7663,
      "▁(C": 7664,
      "▁money": 7665,
      "▁heiß": 7666,
      ".,E": 7667,
      "▁Gesetz": 7668,
      "▁Sitz": 7669,
      "▁Verw": 7670,
      "achst": 7671,
      "▁Priv": 7672,
      "OS": 7673,
      "äll": 7674,
      "imes": 7675,
      "▁results": 7676,
      "lt": 7677,
      "roffen": 7678,
      "▁Ob": 7679,
      "▁required": 7680,
      "urf": 7681,
      "▁No": 7682,
      "▁Groß": 7683,
      "frastr": 7684,
      "s.": 7685,
      "▁erklär": 7686,
      "ief": 7687,
      "▁Fortsch": 7688,
      "▁central": 7689,
      "halten,": 7690,
      "''": 7691,
      "ban": 7692,
      "▁moder": 7693,
      "▁2004": 7694,
      "unities": 7695,
      "▁heraus": 7696,
      "nete": 7697,
      "▁II": 7698,
      "igent": 7699,
      "lemen": 7700,
      "uelle": 7701,
      "▁nichts": 7702,
      "▁manufact": 7703,
      "lang": 7704,
      "▁Aussprache": 7705,
      "▁an,": 7706,
      "▁Mär": 7707,
      "spruch": 7708,
      "▁attra": 7709,
      "▁reserv": 7710,
      "▁Pra": 7711,
      "fully": 7712,
      "▁building": 7713,
      "▁Änderungsan": 7714,
      "vernment": 7715,
      "änger": 7716,
      "▁wenig": 7717,
      "ames": 7718,
      "▁version": 7719,
      "▁points": 7720,
      "▁benöt": 7721,
      "▁authorities": 7722,
      "term": 7723,
      "▁deshalb": 7724,
      "▁music": 7725,
      "gebung": 7726,
      "ünsch": 7727,
      "▁Fir": 7728,
      "▁capital": 7729,
      "unch": 7730,
      "▁quick": 7731,
      "atul": 7732,
      "▁unver": 7733,
      "▁infl": 7734,
      "▁bleib": 7735,
      "▁Tre": 7736,
      "stellen": 7737,
      "▁Nor": 7738,
      "▁Website": 7739,
      "ären": 7740,
      "▁Leist": 7741,
      "▁tem": 7742,
      "▁Gemeinschaft": 7743,
      "achten": 7744,
      "▁Israel": 7745,
      "ysteme": 7746,
      "läss": 7747,
      "greif": 7748,
      "▁Weit": 7749,
      "oting": 7750,
      "▁significant": 7751,
      "▁cla": 7752,
      "▁democra": 7753,
      "▁dessen": 7754,
      ".,\"S": 7755,
      "▁relax": 7756,
      "▁website": 7757,
      "ation.\n": 7758,
      "oper": 7759,
      "▁Bem": 7760,
      "▁aufgrund": 7761,
      "▁guest": 7762,
      "ceed": 7763,
      "▁sal": 7764,
      "▁pub": 7765,
      "▁bestehen": 7766,
      "▁effective": 7767,
      "kre": 7768,
      "▁interess": 7769,
      "60": 7770,
      "atal": 7771,
      "▁(1": 7772,
      "zentr": 7773,
      "▁extra": 7774,
      "▁learn": 7775,
      "▁Und": 7776,
      "▁Bezieh": 7777,
      "tragen": 7778,
      "▁achieve": 7779,
      "▁fa": 7780,
      "▁lar": 7781,
      "-O": 7782,
      "▁increasing": 7783,
      "ance,": 7784,
      "ork": 7785,
      "▁Gleich": 7786,
      "▁technical": 7787,
      "▁Co": 7788,
      "▁Meinung": 7789,
      "▁aspect": 7790,
      "▁\"Für": 7791,
      "▁sour": 7792,
      "äsent": 7793,
      "▁wichtige": 7794,
      "na": 7795,
      "▁share": 7796,
      "hing": 7797,
      "atten": 7798,
      "▁Members": 7799,
      "erous": 7800,
      "▁erreich": 7801,
      "stück": 7802,
      "pril": 7803,
      "▁Verbraucher": 7804,
      "anze": 7805,
      "ürz": 7806,
      "▁besten": 7807,
      "▁Wort": 7808,
      "▁Gl": 7809,
      "▁according": 7810,
      "▁Wohn": 7811,
      "itive": 7812,
      "haltung": 7813,
      "▁Ort": 7814,
      "▁industry": 7815,
      "▁distrib": 7816,
      "heim": 7817,
      "▁Ide": 7818,
      "▁vorge": 7819,
      "ning": 7820,
      ".\",\"R": 7821,
      "▁request": 7822,
      "▁fish": 7823,
      "▁via": 7824,
      "▁Plan": 7825,
      "▁Wirtschaft": 7826,
      "▁challen": 7827,
      "▁Dok": 7828,
      "ritten": 7829,
      "▁appear": 7830,
      "▁Christ": 7831,
      "▁beispiel": 7832,
      "▁longer": 7833,
      "▁Ansicht": 7834,
      "▁internal": 7835,
      "▁fundamental": 7836,
      "-Pro": 7837,
      "▁amendments": 7838,
      "▁Far": 7839,
      "▁Besuch": 7840,
      "▁Qualität": 7841,
      "▁facilities": 7842,
      "▁meeting": 7843,
      "äter": 7844,
      "change": 7845,
      "us,": 7846,
      "mals": 7847,
      "▁Menschenrechte": 7848,
      "▁Schul": 7849,
      "jen": 7850,
      "omfort": 7851,
      "▁enough": 7852,
      "▁Mitarbeit": 7853,
      "▁verein": 7854,
      "▁prec": 7855,
      "sid": 7856,
      "▁solche": 7857,
      "▁Abstimmung": 7858,
      "▁obl": 7859,
      "platz": 7860,
      "▁Eur": 7861,
      "▁responsible": 7862,
      "▁Bevölk": 7863,
      "▁clearly": 7864,
      "▁Kunst": 7865,
      "n,": 7866,
      "US": 7867,
      "▁Wasser": 7868,
      "orr": 7869,
      "▁days": 7870,
      "▁user": 7871,
      "▁\"  ": 7872,
      "za": 7873,
      "▁ern": 7874,
      "▁nächsten": 7875,
      "/200": 7876,
      "ellen": 7877,
      "▁character": 7878,
      "alten": 7879,
      "▁cultural": 7880,
      "fassung": 7881,
      "▁oft": 7882,
      "▁questions": 7883,
      "▁Personen": 7884,
      "ona": 7885,
      "elbst": 7886,
      "▁carr": 7887,
      "▁bekannt": 7888,
      "tellung": 7889,
      "▁vorgesch": 7890,
      "▁erne": 7891,
      "▁Tats": 7892,
      "▁unterstützt": 7893,
      "afen": 7894,
      "▁(P": 7895,
      "▁stärk": 7896,
      "iten": 7897,
      "▁document": 7898,
      "▁Umsetzung": 7899,
      "atic": 7900,
      "uk": 7901,
      "▁vol": 7902,
      "▁23": 7903,
      "▁Verbess": 7904,
      "▁lange": 7905,
      "orted": 7906,
      "▁Design": 7907,
      "▁Ebene": 7908,
      "ios": 7909,
      "▁Prof": 7910,
      "ations,": 7911,
      "▁Förder": 7912,
      "gent": 7913,
      "▁prevent": 7914,
      "kämp": 7915,
      "ians": 7916,
      "useum": 7917,
      "▁vier": 7918,
      "▁maintain": 7919,
      "▁civil": 7920,
      "msel": 7921,
      "To": 7922,
      "▁November": 7923,
      "▁Sport": 7924,
      "▁Kar": 7925,
      "frist": 7926,
      "▁Jun": 7927,
      "▁Nähe": 7928,
      "▁Dar": 7929,
      "▁müssen,": 7930,
      "▁currently": 7931,
      "iting": 7932,
      "▁all,": 7933,
      "ant,": 7934,
      "igur": 7935,
      "gru": 7936,
      "▁Industrie": 7937,
      "▁terror": 7938,
      "▁Bü": 7939,
      "has": 7940,
      "▁assist": 7941,
      "IC": 7942,
      ".,H": 7943,
      "▁Cas": 7944,
      "▁Benutz": 7945,
      "▁competition": 7946,
      "▁themsel": 7947,
      "▁(B": 7948,
      "▁directly": 7949,
      "-W": 7950,
      "▁\"Aber": 7951,
      "irt": 7952,
      "▁Klima": 7953,
      "▁sustain": 7954,
      "▁mount": 7955,
      "▁proposals": 7956,
      "verständ": 7957,
      "drück": 7958,
      "▁betre": 7959,
      "ood": 7960,
      "ana": 7961,
      "▁...": 7962,
      "▁web": 7963,
      "▁illeg": 7964,
      "▁anim": 7965,
      "▁Dank": 7966,
      ".00": 7967,
      "▁Ju": 7968,
      "▁past": 7969,
      "▁sele": 7970,
      "▁is,": 7971,
      "AD": 7972,
      "▁Ira": 7973,
      "lands": 7974,
      "oid": 7975,
      "dam": 7976,
      "▁zie": 7977,
      "▁benutz": 7978,
      "ette": 7979,
      "unkte": 7980,
      "▁Insel": 7981,
      "ublik": 7982,
      "▁caus": 7983,
      "▁pages": 7984,
      "schluss": 7985,
      "AP": 7986,
      "▁foreign": 7987,
      "▁Hier": 7988,
      "ench": 7989,
      "▁disk": 7990,
      "▁Wachst": 7991,
      "teile": 7992,
      "▁voted": 7993,
      "▁gemacht": 7994,
      "▁extremely": 7995,
      "istischen": 7996,
      "▁recogn": 7997,
      "▁Struktur": 7998,
      "hem": 7999,
      "▁Fehl": 8000,
      "raf": 8001,
      "ding": 8002,
      "▁nehmen": 8003,
      "▁Brit": 8004,
      "mbH": 8005,
      "de,": 8006,
      "▁camp": 8007,
      "▁weiß": 8008,
      "▁Bro": 8009,
      "▁Bud": 8010,
      "▁house": 8011,
      "land,": 8012,
      "▁Bau": 8013,
      "neten": 8014,
      "▁sty": 8015,
      "▁Raum": 8016,
      "▁\"An": 8017,
      "isc": 8018,
      "▁gemeinsamen": 8019,
      "▁farm": 8020,
      "▁happen": 8021,
      "▁Chin": 8022,
      "ired": 8023,
      "▁jeweil": 8024,
      "▁mess": 8025,
      "ommod": 8026,
      "▁item": 8027,
      "▁Commissioner,": 8028,
      "▁kont": 8029,
      "▁safety": 8030,
      "val": 8031,
      ".\",P": 8032,
      "▁contain": 8033,
      "▁Version": 8034,
      "▁findet": 8035,
      "▁April": 8036,
      "▁apply": 8037,
      "▁low": 8038,
      "ynam": 8039,
      "▁erreichen": 8040,
      "▁z.": 8041,
      "iable": 8042,
      "prochen": 8043,
      "schaft,": 8044,
      "▁Can": 8045,
      "▁bedeut": 8046,
      "lef": 8047,
      "▁AG": 8048,
      "ither": 8049,
      "rau": 8050,
      "▁wohl": 8051,
      "▁umf": 8052,
      "iellen": 8053,
      "nehmen,": 8054,
      "▁Kons": 8055,
      "obile": 8056,
      "▁thing": 8057,
      "▁vielleicht": 8058,
      "▁Auss": 8059,
      "▁Treaty": 8060,
      "▁Nord": 8061,
      "▁prep": 8062,
      "▁Druck": 8063,
      "estern": 8064,
      "▁Grundlage": 8065,
      "▁lat": 8066,
      "inzip": 8067,
      "ators": 8068,
      "▁Pf": 8069,
      "▁Meer": 8070,
      "ieb": 8071,
      "▁guarantee": 8072,
      "▁Gesellschaft": 8073,
      "▁fight": 8074,
      "▁Wert": 8075,
      "lied": 8076,
      "▁Gebiet": 8077,
      "▁upon": 8078,
      "▁GmbH": 8079,
      "▁Tages": 8080,
      "▁charge": 8081,
      "play": 8082,
      "▁expect": 8083,
      "schlag": 8084,
      "▁circ": 8085,
      "▁erziel": 8086,
      "▁wind": 8087,
      "▁demokrat": 8088,
      "▁Erfolg": 8089,
      "▁wissen,": 8090,
      "▁separ": 8091,
      "▁Parte": 8092,
      "isher": 8093,
      "▁Richtung": 8094,
      "deut": 8095,
      "sh": 8096,
      "▁Ihrem": 8097,
      "▁Auswirk": 8098,
      "ely,": 8099,
      "▁bevor": 8100,
      "▁lot": 8101,
      "▁night": 8102,
      "-,": 8103,
      "▁zust": 8104,
      "schn": 8105,
      "▁beispielsweise": 8106,
      "onstr": 8107,
      "▁erreicht": 8108,
      "▁2003": 8109,
      "amous": 8110,
      "▁197": 8111,
      "tet,": 8112,
      "▁corre": 8113,
      "vert": 8114,
      "▁22": 8115,
      "hnt": 8116,
      "aging": 8117,
      "▁live": 8118,
      "▁protect": 8119,
      "sichtlich": 8120,
      "ented": 8121,
      "ine,": 8122,
      "ilf": 8123,
      "▁Musik": 8124,
      "▁Reihe": 8125,
      "-d": 8126,
      "würd": 8127,
      "▁Netz": 8128,
      "alität": 8129,
      "gesehen": 8130,
      "▁ö": 8131,
      "▁Cour": 8132,
      "▁comfortable": 8133,
      "▁Einsatz": 8134,
      "uct": 8135,
      "andid": 8136,
      "ilder": 8137,
      "isiert": 8138,
      "▁Außen": 8139,
      "▁maxim": 8140,
      "crib": 8141,
      "-1": 8142,
      "▁proposed": 8143,
      "▁pool": 8144,
      "hend": 8145,
      "ikt": 8146,
      "ients": 8147,
      "▁Sol": 8148,
      "merksam": 8149,
      "▁Anwendung": 8150,
      "hörden": 8151,
      "▁\"R": 8152,
      "▁program": 8153,
      "▁situated": 8154,
      "▁Aug": 8155,
      "▁allerdings": 8156,
      "▁targe": 8157,
      "▁previous": 8158,
      "▁Krit": 8159,
      "▁it.\"\n": 8160,
      "ound": 8161,
      "▁normal": 8162,
      "▁Gre": 8163,
      "▁stor": 8164,
      "▁Wh": 8165,
      "▁regional": 8166,
      "▁Ir": 8167,
      "rad": 8168,
      "▁sozialen": 8169,
      "▁weltweit": 8170,
      "▁principle": 8171,
      "▁Mensch": 8172,
      "▁war,": 8173,
      "istan": 8174,
      "▁sei": 8175,
      "▁einges": 8176,
      "inner": 8177,
      ".,You": 8178,
      "ube": 8179,
      "▁costs": 8180,
      "▁Date": 8181,
      "▁Heraus": 8182,
      "lier": 8183,
      "▁context": 8184,
      "▁please": 8185,
      "▁daran": 8186,
      "ump": 8187,
      "usst": 8188,
      "▁Webs": 8189,
      "▁Einz": 8190,
      "mut": 8191,
      "chnik": 8192,
      "▁indic": 8193,
      "▁kleinen": 8194,
      "achen": 8195,
      "▁review": 8196,
      "TO": 8197,
      "▁Per": 8198,
      "▁solutions": 8199,
      "▁Blick": 8200,
      "▁bit": 8201,
      "▁übern": 8202,
      "ücksichtig": 8203,
      "▁minim": 8204,
      "▁macht": 8205,
      "▁mag": 8206,
      "ww.": 8207,
      "▁created": 8208,
      "▁Stre": 8209,
      "▁ausgest": 8210,
      "▁comes": 8211,
      "▁Cont": 8212,
      "stall": 8213,
      "▁side": 8214,
      "ilater": 8215,
      "▁breakfast": 8216,
      "▁Soc": 8217,
      "▁Windows": 8218,
      "▁surround": 8219,
      "▁Damen": 8220,
      "ise,": 8221,
      "▁deutlich": 8222,
      "▁Wieder": 8223,
      "▁final": 8224,
      "▁Erweit": 8225,
      "üssel": 8226,
      "!\",": 8227,
      "cep": 8228,
      "▁clean": 8229,
      "▁fünf": 8230,
      "▁Verantwortung": 8231,
      "richtung": 8232,
      "▁angeb": 8233,
      "-In": 8234,
      "▁soon": 8235,
      "...\"\n": 8236,
      "▁improve": 8237,
      "▁involved": 8238,
      "▁amb": 8239,
      "▁höch": 8240,
      ".\",\"To": 8241,
      "▁Hinblick": 8242,
      "ided": 8243,
      "▁views": 8244,
      "▁Prozess": 8245,
      "öffentlich": 8246,
      "atory": 8247,
      "RO": 8248,
      "▁Prot": 8249,
      "▁regulation": 8250,
      "▁Alle": 8251,
      "partments": 8252,
      "best": 8253,
      ".\",\"Th": 8254,
      "▁schwier": 8255,
      "▁Erklär": 8256,
      "▁pict": 8257,
      "▁Schwe": 8258,
      "hes": 8259,
      "▁accommod": 8260,
      "▁richt": 8261,
      "▁developing": 8262,
      "unik": 8263,
      "▁60": 8264,
      "▁Aktiv": 8265,
      "ymb": 8266,
      "▁Bedingungen": 8267,
      ".,B": 8268,
      "▁immed": 8269,
      "▁monitor": 8270,
      "▁verschiedene": 8271,
      "▁Interesse": 8272,
      "▁\"Bei": 8273,
      "▁either": 8274,
      "▁almost": 8275,
      "ibr": 8276,
      "▁training": 8277,
      "en.\",\"It": 8278,
      ".\",C": 8279,
      "pendent": 8280,
      "▁€": 8281,
      "bl": 8282,
      "ählen": 8283,
      "▁altern": 8284,
      "▁Mot": 8285,
      "ations.\"\n": 8286,
      "ast,": 8287,
      "▁Funktion": 8288,
      ".000": 8289,
      "vin": 8290,
      "gesetzt": 8291,
      "eless": 8292,
      "▁analys": 8293,
      "griff": 8294,
      "▁additional": 8295,
      "▁democratic": 8296,
      "▁Fund": 8297,
      "gency": 8298,
      "▁dürfen": 8299,
      "B.": 8300,
      "bahn": 8301,
      "▁card": 8302,
      "▁cut": 8303,
      "▁Ziele": 8304,
      "▁handelt": 8305,
      "▁que": 8306,
      "▁South": 8307,
      "igungs": 8308,
      "▁Europe,": 8309,
      "lack": 8310,
      "uche": 8311,
      "▁vill": 8312,
      "hab": 8313,
      "▁Steuer": 8314,
      "pre": 8315,
      "▁Aff": 8316,
      "spräsident": 8317,
      "▁Wie": 8318,
      "aking": 8319,
      "orf": 8320,
      "▁climate": 8321,
      "▁Lis": 8322,
      "ussion": 8323,
      "▁travel": 8324,
      "idd": 8325,
      "▁French": 8326,
      "▁Mont": 8327,
      "rechts": 8328,
      "▁es,": 8329,
      "▁gemeinsame": 8330,
      "linien": 8331,
      "ieren.\",\"": 8332,
      "bel": 8333,
      "IP": 8334,
      "▁contract": 8335,
      "ables": 8336,
      "▁Zentrum": 8337,
      "▁haben.\",\"": 8338,
      "chs": 8339,
      "▁actually": 8340,
      "▁Hoch": 8341,
      "erc": 8342,
      "▁exam": 8343,
      "▁May": 8344,
      "▁Platz": 8345,
      "ipped": 8346,
      "▁encour": 8347,
      ".,D": 8348,
      "▁verfüg": 8349,
      "▁lack": 8350,
      "▁(D": 8351,
      "▁akzept": 8352,
      "ilar": 8353,
      "▁tats": 8354,
      "▁hold": 8355,
      "▁Trans": 8356,
      "▁professional": 8357,
      "äum": 8358,
      "▁file": 8359,
      "▁Rechn": 8360,
      "▁vollständ": 8361,
      "ada": 8362,
      "▁unique": 8363,
      "arbeitung": 8364,
      "chsel": 8365,
      "ane": 8366,
      "▁Nicht": 8367,
      "▁happ": 8368,
      "▁‘": 8369,
      "▁nature": 8370,
      "▁official": 8371,
      "barkeit": 8372,
      "▁times": 8373,
      "ished": 8374,
      "▁appropriate": 8375,
      "▁dialog": 8376,
      "hinder": 8377,
      "erseits": 8378,
      "▁schein": 8379,
      "▁bisher": 8380,
      "▁developed": 8381,
      "▁held": 8382,
      "▁Mod": 8383,
      "leben": 8384,
      "▁Sicherheits": 8385,
      "▁receive": 8386,
      "▁Integr": 8387,
      "ielle": 8388,
      "iesen": 8389,
      "▁allgemein": 8390,
      "▁Ausdruck": 8391,
      "tended": 8392,
      "▁Frieden": 8393,
      "ate,": 8394,
      "▁Öff": 8395,
      "▁force": 8396,
      "▁Entscheidung": 8397,
      "▁thus": 8398,
      "frei": 8399,
      "▁opinion": 8400,
      "▁wide": 8401,
      "▁assoc": 8402,
      "▁Vorschläge": 8403,
      "cke": 8404,
      ".\",\"With": 8405,
      "adurch": 8406,
      "▁EC": 8407,
      "▁Demokratie": 8408,
      "▁holiday": 8409,
      "▁sagen": 8410,
      "▁Kir": 8411,
      "kra": 8412,
      "▁language": 8413,
      "▁gesamten": 8414,
      "-st": 8415,
      "▁implementation": 8416,
      "auber": 8417,
      "▁Als": 8418,
      "▁school": 8419,
      "▁Ergebnis": 8420,
      ".,\"F": 8421,
      "▁erwä": 8422,
      "▁werde": 8423,
      "▁vor,": 8424,
      "▁Sub": 8425,
      "aper": 8426,
      "▁Debatte": 8427,
      "▁employment": 8428,
      "öll": 8429,
      "anced": 8430,
      "ternal": 8431,
      ":00": 8432,
      "feld": 8433,
      "▁States,": 8434,
      "folgt": 8435,
      "▁Auswirkungen": 8436,
      "▁technology": 8437,
      "▁ce": 8438,
      "▁suggest": 8439,
      "ingen": 8440,
      "▁propert": 8441,
      "atisf": 8442,
      "▁funktion": 8443,
      "▁policies": 8444,
      "▁brauchen": 8445,
      "▁Änderungsantrag": 8446,
      "▁gehen": 8447,
      "stead": 8448,
      "immungen": 8449,
      "jähr": 8450,
      "ommer": 8451,
      "▁equip": 8452,
      "▁Vertre": 8453,
      "▁einzelnen": 8454,
      "ox": 8455,
      "▁famous": 8456,
      "▁stop": 8457,
      "▁fort": 8458,
      "▁Japan": 8459,
      "▁Verfahren": 8460,
      "▁seen": 8461,
      "▁relev": 8462,
      "▁American": 8463,
      "anten": 8464,
      "gegen": 8465,
      "▁hon": 8466,
      "▁ebenso": 8467,
      "▁cop": 8468,
      "▁enl": 8469,
      "or,": 8470,
      "ri": 8471,
      "▁harmon": 8472,
      "clud": 8473,
      "▁living": 8474,
      "genda": 8475,
      "orge": 8476,
      "▁Auch": 8477,
      "▁sea": 8478,
      "▁Kle": 8479,
      ".1": 8480,
      "acy": 8481,
      "▁West": 8482,
      "▁throughout": 8483,
      "▁efforts": 8484,
      "▁Geschichte": 8485,
      "umente": 8486,
      "ester": 8487,
      "haft": 8488,
      "cy,": 8489,
      "aul": 8490,
      "otos": 8491,
      "▁draw": 8492,
      "ging": 8493,
      "▁gemeinsam": 8494,
      "▁history": 8495,
      "urt": 8496,
      "▁Arch": 8497,
      "▁answer": 8498,
      "▁Binnen": 8499,
      "ama": 8500,
      "▁Kön": 8501,
      "indest": 8502,
      "alled": 8503,
      "ußerdem": 8504,
      "▁emphas": 8505,
      "▁Antwort": 8506,
      "▁exclus": 8507,
      "nehm": 8508,
      "ländern": 8509,
      "int": 8510,
      "▁regions": 8511,
      "cent": 8512,
      "▁Kolleginnen": 8513,
      "▁\"Deshalb": 8514,
      "▁download": 8515,
      "▁behand": 8516,
      "▁impact": 8517,
      "▁space": 8518,
      "ässt": 8519,
      "haps": 8520,
      "▁betra": 8521,
      "▁looking": 8522,
      "▁Wissen": 8523,
      "fähigkeit": 8524,
      "▁Portug": 8525,
      "▁führen": 8526,
      "▁five": 8527,
      "▁Iran": 8528,
      "▁condition": 8529,
      "▁\"Auch": 8530,
      "▁transl": 8531,
      "prise": 8532,
      ".,There": 8533,
      "▁Kraft": 8534,
      "ipf": 8535,
      "orre": 8536,
      "jekte": 8537,
      "▁designed": 8538,
      "▁outside": 8539,
      "▁Lond": 8540,
      "▁27": 8541,
      "lling": 8542,
      "▁solid": 8543,
      "ole": 8544,
      "▁potential": 8545,
      "▁type": 8546,
      "▁Mitglieder": 8547,
      "▁wider": 8548,
      "oint": 8549,
      "▁verwendet": 8550,
      "▁Minuten": 8551,
      "fil": 8552,
      "▁across": 8553,
      "▁early": 8554,
      "abel": 8555,
      "▁Werk": 8556,
      "▁enable": 8557,
      "▁jedem": 8558,
      "▁connection": 8559,
      "▁strengthen": 8560,
      "ense": 8561,
      "▁countries,": 8562,
      "▁ever": 8563,
      "ET": 8564,
      "▁000": 8565,
      "▁äußer": 8566,
      "▁Pak": 8567,
      "zw": 8568,
      "▁univers": 8569,
      "▁Herstell": 8570,
      "▁Off": 8571,
      "▁würden": 8572,
      "▁Rad": 8573,
      "▁everything": 8574,
      "ült": 8575,
      "▁consequ": 8576,
      "▁Gemeinschafts": 8577,
      "such": 8578,
      "▁takes": 8579,
      "▁proper": 8580,
      "▁Führ": 8581,
      "ature": 8582,
      "▁negotiations": 8583,
      "▁unterstützen": 8584,
      "▁internationale": 8585,
      "▁aud": 8586,
      "bt": 8587,
      "ones": 8588,
      "▁true": 8589,
      "onom": 8590,
      "▁Ris": 8591,
      "▁Währ": 8592,
      "▁Vereinigten": 8593,
      "kn": 8594,
      "▁wirtschaftlichen": 8595,
      "ery": 8596,
      "▁verfügt": 8597,
      "▁colleag": 8598,
      "ental": 8599,
      ".,N": 8600,
      "▁Süd": 8601,
      "zif": 8602,
      "▁record": 8603,
      "schriften": 8604,
      "▁original": 8605,
      "▁Staats": 8606,
      "▁Kl": 8607,
      "▁adopt": 8608,
      "bru": 8609,
      "▁mer": 8610,
      "▁took": 8611,
      "▁Position": 8612,
      "gern": 8613,
      ")\n": 8614,
      "▁mechan": 8615,
      "▁certainly": 8616,
      "▁erk": 8617,
      "ush": 8618,
      "▁Team": 8619,
      "kr": 8620,
      "ases": 8621,
      ",000": 8622,
      ".,F": 8623,
      "▁benefit": 8624,
      "▁erhö": 8625,
      "▁Dialog": 8626,
      "▁divers": 8627,
      "vement": 8628,
      "▁eth": 8629,
      "lant": 8630,
      "▁General": 8631,
      ".,That": 8632,
      "▁Beg": 8633,
      "▁hinter": 8634,
      "▁Restaurant": 8635,
      "▁complex": 8636,
      "▁(F": 8637,
      "mark": 8638,
      "▁projects": 8639,
      "▁requirements": 8640,
      "esh": 8641,
      "▁publish": 8642,
      "/9": 8643,
      "▁amendment": 8644,
      "▁strategy": 8645,
      "ari": 8646,
      "▁Strategie": 8647,
      "St": 8648,
      "teid": 8649,
      "▁2002": 8650,
      "uted": 8651,
      "▁80": 8652,
      "minister": 8653,
      "▁existing": 8654,
      "▁enthalten": 8655,
      "▁weiteren": 8656,
      "▁North": 8657,
      "▁zuf": 8658,
      "▁idea": 8659,
      "▁Mill": 8660,
      "▁legislation": 8661,
      "13": 8662,
      "▁gleichzeitig": 8663,
      "äss": 8664,
      "gn": 8665,
      "assen,": 8666,
      "▁wichtig,": 8667,
      "▁search": 8668,
      "ifft": 8669,
      "airs": 8670,
      "▁changes": 8671,
      "tt": 8672,
      "gestell": 8673,
      "▁relig": 8674,
      "▁majority": 8675,
      "▁cross": 8676,
      "▁prices": 8677,
      "▁customer": 8678,
      "aders": 8679,
      "▁später": 8680,
      "▁gesagt": 8681,
      "▁Diskussion": 8682,
      "-p": 8683,
      "▁neben": 8684,
      "▁model": 8685,
      "kämpfung": 8686,
      "▁traditional": 8687,
      "▁Leit": 8688,
      "länder": 8689,
      "▁aktiv": 8690,
      "fortun": 8691,
      "▁wurden,": 8692,
      "▁neues": 8693,
      "ball": 8694,
      "▁prim": 8695,
      "▁investment": 8696,
      "▁auf,": 8697,
      "temp": 8698,
      "▁richtig": 8699,
      "itionen": 8700,
      "▁profit": 8701,
      "▁although": 8702,
      "at,": 8703,
      "▁Commission,": 8704,
      "ano": 8705,
      "▁Handels": 8706,
      "▁wollen,": 8707,
      "iance": 8708,
      "▁Schritt": 8709,
      "igte": 8710,
      "▁Familien": 8711,
      "serv": 8712,
      "▁parliament": 8713,
      "▁knowledge": 8714,
      "▁Will": 8715,
      "▁jede": 8716,
      "haupt": 8717,
      "▁Ant": 8718,
      "ia.\"\n": 8719,
      "-h": 8720,
      "ehr": 8721,
      "▁concerning": 8722,
      "grif": 8723,
      "▁lux": 8724,
      "▁euro": 8725,
      "▁absolute": 8726,
      "▁Verhandlungen": 8727,
      "▁Kos": 8728,
      "▁Mil": 8729,
      "▁features": 8730,
      "▁amount": 8731,
      "▁Fischere": 8732,
      "▁völl": 8733,
      "▁Zus": 8734,
      "odell": 8735,
      "▁train": 8736,
      "▁Beitrag": 8737,
      "prä": 8738,
      "▁Reform": 8739,
      "▁Fern": 8740,
      "▁Türke": 8741,
      "unehmen": 8742,
      "▁Luft": 8743,
      "▁\"Frau": 8744,
      "▁Stad": 8745,
      "▁aware": 8746,
      "▁gehört": 8747,
      "▁demonstr": 8748,
      "AM": 8749,
      "stre": 8750,
      "▁intens": 8751,
      ".\",\"(": 8752,
      "▁2001": 8753,
      "▁states": 8754,
      "▁Vertra": 8755,
      "▁related": 8756,
      "▁gegenwärt": 8757,
      "istet": 8758,
      "▁Flugh": 8759,
      "handlung": 8760,
      "olz": 8761,
      "▁rund": 8762,
      "▁resol": 8763,
      "▁leading": 8764,
      "▁half": 8765,
      "▁basic": 8766,
      "ungsver": 8767,
      "▁beit": 8768,
      "zös": 8769,
      "▁extens": 8770,
      "imme": 8771,
      "▁community": 8772,
      "▁Verpflicht": 8773,
      "iedr": 8774,
      "▁Schlussel": 8775,
      "ices,": 8776,
      "▁culture": 8777,
      "▁pleas": 8778,
      "▁becom": 8779,
      "▁groups": 8780,
      "▁conflic": 8781,
      "affung": 8782,
      "gl": 8783,
      "ufen": 8784,
      "ological": 8785,
      "▁sec": 8786,
      "▁guests": 8787,
      "▁gab": 8788,
      "▁claim": 8789,
      "▁Commission's": 8790,
      "▁Beziehungen": 8791,
      "teilt": 8792,
      "▁joint": 8793,
      "oom": 8794,
      "▁Präsidentin,": 8795,
      "geln": 8796,
      "▁included": 8797,
      "▁it,": 8798,
      "▁unseres": 8799,
      "▁Förderung": 8800,
      "▁themselves": 8801,
      "▁assess": 8802,
      "▁enlarge": 8803,
      "▁Fuß": 8804,
      "▁prakt": 8805,
      "öhn": 8806,
      "▁schwer": 8807,
      "▁restaurant": 8808,
      "ue,": 8809,
      "▁rate": 8810,
      "▁Parliament,": 8811,
      "▁Dienstleistungen": 8812,
      "▁Stabil": 8813,
      "ipl": 8814,
      "▁democracy": 8815,
      "▁completely": 8816,
      "▁you,": 8817,
      "▁Terror": 8818,
      "▁military": 8819,
      "ID": 8820,
      "iddle": 8821,
      "▁PC": 8822,
      "termin": 8823,
      "▁events": 8824,
      "▁digital": 8825,
      "▁wichtigen": 8826,
      "▁interests": 8827,
      "▁(E": 8828,
      "hung": 8829,
      "ires": 8830,
      "▁Kampf": 8831,
      "▁parts": 8832,
      "▁Just": 8833,
      "▁CD": 8834,
      "▁spr": 8835,
      "▁Dec": 8836,
      "rieben": 8837,
      "range": 8838,
      "▁gegeben": 8839,
      "▁upd": 8840,
      "▁avoid": 8841,
      "▁fail": 8842,
      "pression": 8843,
      "uck": 8844,
      "▁empf": 8845,
      "▁verd": 8846,
      "▁consult": 8847,
      "▁Landes": 8848,
      ".5": 8849,
      "gangenen": 8850,
      "seit": 8851,
      "▁English": 8852,
      "oft": 8853,
      "▁oblig": 8854,
      "▁Inform": 8855,
      "▁Forschung": 8856,
      "and,": 8857,
      "▁Proz": 8858,
      "▁parties": 8859,
      "otion": 8860,
      "alter": 8861,
      "▁mor": 8862,
      "rab": 8863,
      "▁Paris": 8864,
      "▁standards": 8865,
      "▁spezie": 8866,
      "ibt,": 8867,
      "face": 8868,
      "▁dat": 8869,
      "▁jedes": 8870,
      "▁this,": 8871,
      "▁report,": 8872,
      "▁Liste": 8873,
      "ress": 8874,
      "▁Wettbewerbs": 8875,
      "▁built": 8876,
      "lös": 8877,
      "▁advant": 8878,
      "elt,": 8879,
      "▁warm": 8880,
      "attet": 8881,
      "▁sound": 8882,
      "▁-,": 8883,
      "▁conclus": 8884,
      "quis": 8885,
      "▁See": 8886,
      "▁Presidency": 8887,
      "▁Volk": 8888,
      "▁gewährle": 8889,
      "scheiden": 8890,
      "ity.\"\n": 8891,
      "▁others": 8892,
      ").": 8893,
      "▁los": 8894,
      "AC": 8895,
      "▁includes": 8896,
      "▁Interessen": 8897,
      "▁allows": 8898,
      "▁wa": 8899,
      "itness": 8900,
      "ko": 8901,
      "iterran": 8902,
      "▁wegen": 8903,
      "▁Turke": 8904,
      "▁commer": 8905,
      "▁1,": 8906,
      "▁vorh": 8907,
      "▁denk": 8908,
      "iated": 8909,
      "▁later": 8910,
      "▁\"Aus": 8911,
      "▁lik": 8912,
      "amit": 8913,
      "▁emer": 8914,
      "▁transfer": 8915,
      "▁$": 8916,
      "statt": 8917,
      "eff": 8918,
      "änden": 8919,
      "▁Online": 8920,
      ".\",M": 8921,
      "▁Konferenz": 8922,
      "fluss": 8923,
      "▁nahe": 8924,
      "▁satisf": 8925,
      "▁anz": 8926,
      ".2": 8927,
      "40": 8928,
      "▁Barcel": 8929,
      "öst": 8930,
      "ühl": 8931,
      "▁Kontrolle": 8932,
      "ava": 8933,
      "▁Einzel": 8934,
      "ourn": 8935,
      "▁reich": 8936,
      "▁plann": 8937,
      ".,\"This": 8938,
      "unk": 8939,
      "▁Institutionen": 8940,
      "▁Bevölkerung": 8941,
      "▁Abgeordneten": 8942,
      "▁Verbindung": 8943,
      ".\",\"But": 8944,
      "▁angem": 8945,
      "▁poor": 8946,
      "jahr": 8947,
      "▁Abkommen": 8948,
      "▁1999": 8949,
      "stehen": 8950,
      "▁needed": 8951,
      "▁Court": 8952,
      "wegen": 8953,
      "SE": 8954,
      "▁versuch": 8955,
      "▁arg": 8956,
      "▁Handel": 8957,
      "▁führt": 8958,
      "igkeit,": 8959,
      "ini": 8960,
      "ooking": 8961,
      "iers": 8962,
      "pass": 8963,
      "ingt": 8964,
      "▁move": 8965,
      "ops": 8966,
      "▁capac": 8967,
      "▁schön": 8968,
      "bring": 8969,
      "▁front": 8970,
      "imension": 8971,
      "▁doing": 8972,
      "▁durchge": 8973,
      "▁regarding": 8974,
      "▁vorlie": 8975,
      "sitz": 8976,
      "▁spend": 8977,
      "▁lok": 8978,
      "pite": 8979,
      "ias": 8980,
      "▁verantwort": 8981,
      "▁jud": 8982,
      "▁Änderungsanträge": 8983,
      "▁wunder": 8984,
      "▁ich,": 8985,
      "▁Bereichen": 8986,
      "▁August": 8987,
      "▁kleine": 8988,
      "▁attack": 8989,
      "▁Regionen": 8990,
      "▁erlaub": 8991,
      "▁Möglichkeiten": 8992,
      "issab": 8993,
      "pected": 8994,
      ".\",In": 8995,
      "erve": 8996,
      "▁Selbst": 8997,
      "laden": 8998,
      "wie": 8999,
      "▁rat": 9000,
      "ikanischen": 9001,
      "▁\"Hier": 9002,
      "▁Verbesserung": 9003,
      "vious": 9004,
      "▁red": 9005,
      "▁\"So": 9006,
      "ymbol": 9007,
      "▁Febru": 9008,
      "▁purch": 9009,
      "▁Ausschusses": 9010,
      "▁agricultural": 9011,
      "ändert": 9012,
      "▁economy": 9013,
      "▁broad": 9014,
      "ar,": 9015,
      "▁Kop": 9016,
      "▁procedure": 9017,
      "▁vorgeschlagen": 9018,
      "zer": 9019,
      "uclear": 9020,
      "▁unabhäng": 9021,
      "ing.": 9022,
      "en.\",\"If": 9023,
      "▁Nutzung": 9024,
      "▁Aufent": 9025,
      "▁mehrere": 9026,
      "ED": 9027,
      "▁Volks": 9028,
      "▁Erweiterung": 9029,
      "▁credit": 9030,
      "▁links": 9031,
      "▁Link": 9032,
      "▁aus,": 9033,
      "▁hinsichtlich": 9034,
      "▁Notwend": 9035,
      "lam": 9036,
      "▁cru": 9037,
      "▁face": 9038,
      "onn": 9039,
      "▁Forder": 9040,
      "▁herr": 9041,
      "▁Verordnung": 9042,
      "▁airport": 9043,
      "halte": 9044,
      "▁below": 9045,
      "▁wonder": 9046,
      "▁IS": 9047,
      "▁keyword": 9048,
      "▁Lissab": 9049,
      "ka": 9050,
      "▁wichtigsten": 9051,
      "▁halten": 9052,
      "staat": 9053,
      "▁könnten": 9054,
      "orpor": 9055,
      "▁err": 9056,
      "hen.\",\"": 9057,
      "-N": 9058,
      "▁fran": 9059,
      "bildung": 9060,
      "put": 9061,
      "▁ganze": 9062,
      "▁self": 9063,
      "ränk": 9064,
      "▁Urlaub": 9065,
      ".\",\"At": 9066,
      "▁ganzen": 9067,
      "▁einger": 9068,
      "▁entscheid": 9069,
      "▁sun": 9070,
      "▁industrial": 9071,
      "▁nachhalt": 9072,
      "-t": 9073,
      "ips": 9074,
      "▁Sie,": 9075,
      "ben,": 9076,
      "annte": 9077,
      "▁wobei": 9078,
      "gratul": 9079,
      "aring": 9080,
      "▁decisions": 9081,
      "undes": 9082,
      "▁option": 9083,
      "▁south": 9084,
      "utt": 9085,
      "ayer": 9086,
      "▁gerne": 9087,
      "dom": 9088,
      "▁trotz": 9089,
      "▁experien": 9090,
      "eln,": 9091,
      "▁huge": 9092,
      "geben,": 9093,
      "▁Gelegenheit": 9094,
      ".,R": 9095,
      "▁Auswahl": 9096,
      "▁machen,": 9097,
      "▁popular": 9098,
      "deck": 9099,
      "▁Mor": 9100,
      "rechend": 9101,
      "action": 9102,
      "▁internet": 9103,
      "▁Em": 9104,
      "ählt": 9105,
      "ausch": 9106,
      "▁för": 9107,
      "▁Ober": 9108,
      "▁pow": 9109,
      "▁ill": 9110,
      "erweise": 9111,
      "▁IT": 9112,
      "▁nothing": 9113,
      "▁schaff": 9114,
      "emb": 9115,
      "▁hätte": 9116,
      "▁glaube,": 9117,
      "ught": 9118,
      "▁genie": 9119,
      "gesamt": 9120,
      "▁ermöglicht": 9121,
      "entwick": 9122,
      "▁Veranst": 9123,
      "itect": 9124,
      "aving": 9125,
      "schließend": 9126,
      "▁date": 9127,
      "▁\"Sch": 9128,
      "iens": 9129,
      "▁choice": 9130,
      "▁rail": 9131,
      "▁Dokument": 9132,
      "▁beein": 9133,
      "▁garant": 9134,
      "-term": 9135,
      "oo": 9136,
      "wander": 9137,
      "▁suit": 9138,
      "iveness": 9139,
      "sterreich": 9140,
      "mann": 9141,
      "▁Augen": 9142,
      "▁Frankreich": 9143,
      "▁Pass": 9144,
      "▁Lux": 9145,
      "▁erheb": 9146,
      "▁Du": 9147,
      "▁Binnenmarkt": 9148,
      "▁Reise": 9149,
      "ew": 9150,
      "▁game": 9151,
      "lies": 9152,
      "▁angenommen": 9153,
      "aly": 9154,
      "len": 9155,
      "15": 9156,
      "▁grund": 9157,
      "oz": 9158,
      "▁Bad": 9159,
      "▁entsch": 9160,
      "▁Schaffung": 9161,
      "möglichkeit": 9162,
      "▁Türkei": 9163,
      "▁spac": 9164,
      "osed": 9165,
      ".,T": 9166,
      "▁vict": 9167,
      "▁correct": 9168,
      "▁received": 9169,
      "gef": 9170,
      "▁years,": 9171,
      "▁erinn": 9172,
      "▁Aber": 9173,
      "ennung": 9174,
      "▁origin": 9175,
      "▁Bre": 9176,
      "▁carry": 9177,
      "▁veh": 9178,
      "▁mittel": 9179,
      "bedingungen": 9180,
      "tliche": 9181,
      "▁Ukra": 9182,
      "▁konnte": 9183,
      "▁Angebot": 9184,
      "▁ruh": 9185,
      "▁friendly": 9186,
      "▁concerns": 9187,
      "▁\"C": 9188,
      "▁Sant": 9189,
      "ienste": 9190,
      "▁contains": 9191,
      "ourc": 9192,
      "lav": 9193,
      "▁Wirk": 9194,
      "▁treatment": 9195,
      "L)": 9196,
      "VD": 9197,
      "▁+": 9198,
      "▁Gebä": 9199,
      "ällen": 9200,
      "mehr": 9201,
      "▁highly": 9202,
      "▁konkre": 9203,
      "ny": 9204,
      "oppel": 9205,
      "pid": 9206,
      "▁frü": 9207,
      "▁users": 9208,
      "▁presented": 9209,
      "▁population": 9210,
      "este": 9211,
      ".,L": 9212,
      "...\n": 9213,
      "▁oil": 9214,
      "▁Home": 9215,
      "▁Prior": 9216,
      "▁Standard": 9217,
      "ying": 9218,
      "▁befinden": 9219,
      "▁efficient": 9220,
      "▁heut": 9221,
      "▁congratul": 9222,
      "umb": 9223,
      "will": 9224,
      "▁E-M": 9225,
      "ität,": 9226,
      "▁gelten": 9227,
      "▁(M": 9228,
      "▁scient": 9229,
      "▁Sup": 9230,
      "▁Gree": 9231,
      "▁successful": 9232,
      "▁Fach": 9233,
      "▁seems": 9234,
      "chter": 9235,
      "▁limit": 9236,
      "▁Herren": 9237,
      "▁station": 9238,
      "▁einzig": 9239,
      "reiben": 9240,
      "▁frei": 9241,
      "▁pain": 9242,
      "▁völlig": 9243,
      "▁festge": 9244,
      "▁comprom": 9245,
      "immt,": 9246,
      "▁eig": 9247,
      "ces,": 9248,
      "▁exc": 9249,
      "▁exchange": 9250,
      "▁Government": 9251,
      "▁Entschließung": 9252,
      "▁click": 9253,
      "▁image": 9254,
      "▁\"Dar": 9255,
      "istische": 9256,
      "▁commitment": 9257,
      "▁mal": 9258,
      "▁Programme": 9259,
      "▁lässt": 9260,
      "arbeitet": 9261,
      "▁direction": 9262,
      "formen": 9263,
      "▁ut": 9264,
      "alien": 9265,
      "▁kulture": 9266,
      "örper": 9267,
      "uren": 9268,
      "▁communication": 9269,
      "▁carried": 9270,
      "wertungen": 9271,
      "osen": 9272,
      "uel": 9273,
      "▁double": 9274,
      "inne": 9275,
      "▁whose": 9276,
      "▁which,": 9277,
      "▁Club": 9278,
      "▁furn": 9279,
      "apt": 9280,
      "▁block": 9281,
      "▁works": 9282,
      "▁Wochen": 9283,
      "isted": 9284,
      "atell": 9285,
      "ätigkeit": 9286,
      "▁Strand": 9287,
      "▁Council,": 9288,
      "▁sex": 9289,
      "▁instrument": 9290,
      "▁Management": 9291,
      "▁häuf": 9292,
      "▁seek": 9293,
      "▁tw": 9294,
      "▁My": 9295,
      "▁computer": 9296,
      "▁Ze": 9297,
      "organis": 9298,
      "▁fall": 9299,
      "▁Anzahl": 9300,
      "▁Verwendung": 9301,
      "▁Amster": 9302,
      "RE": 9303,
      "▁tele": 9304,
      "abor": 9305,
      "-St": 9306,
      "▁gefähr": 9307,
      "▁Zeitpunkt": 9308,
      "▁You": 9309,
      "nissen": 9310,
      "▁Imm": 9311,
      "ragen": 9312,
      "▁engine": 9313,
      "▁sent": 9314,
      "▁Behörden": 9315,
      "▁dang": 9316,
      "▁subsid": 9317,
      "\"\".\"\n": 9318,
      "OL": 9319,
      ".\",\"That": 9320,
      "ille": 9321,
      "▁coll": 9322,
      "ficient": 9323,
      "▁apartment": 9324,
      "▁\"\"\"": 9325,
      "▁Liefer": 9326,
      "astic": 9327,
      "▁Kern": 9328,
      "▁verg": 9329,
      "▁entwickelt": 9330,
      "licken": 9331,
      "▁confirm": 9332,
      "mat": 9333,
      "▁meinen": 9334,
      "▁bathroom": 9335,
      "▁simple": 9336,
      "▁Wein": 9337,
      "ón": 9338,
      "irit": 9339,
      "▁expl": 9340,
      "izien": 9341,
      "▁lif": 9342,
      "amera": 9343,
      "▁Lissabon": 9344,
      "▁Anfang": 9345,
      "▁sorg": 9346,
      "▁guten": 9347,
      "▁Gruppe": 9348,
      "▁commercial": 9349,
      "IL": 9350,
      "▁Material": 9351,
      "▁d'": 9352,
      "▁darstell": 9353,
      "ara": 9354,
      "▁objective": 9355,
      "orten": 9356,
      "▁traff": 9357,
      "PE": 9358,
      "▁großer": 9359,
      "▁Union.\"\n": 9360,
      "▁Wachstum": 9361,
      "▁performance": 9362,
      "▁six": 9363,
      "buch": 9364,
      "▁similar": 9365,
      "äst": 9366,
      "▁Produktion": 9367,
      "▁König": 9368,
      "ech": 9369,
      "▁meinem": 9370,
      "▁ground": 9371,
      "▁quickly": 9372,
      "▁hoffe,": 9373,
      "▁tell": 9374,
      "▁fehl": 9375,
      "▁code": 9376,
      "mitteln": 9377,
      "▁gestellt": 9378,
      "▁objectives": 9379,
      "▁Krieg": 9380,
      "▁Voraus": 9381,
      "ay,": 9382,
      "▁obtain": 9383,
      "spiel": 9384,
      "▁workers": 9385,
      "▁active": 9386,
      "▁Berg": 9387,
      "acc": 9388,
      "▁diskut": 9389,
      "s)": 9390,
      "▁anzu": 9391,
      "IM": 9392,
      "▁künft": 9393,
      "atast": 9394,
      "▁eigene": 9395,
      "▁Freiheit": 9396,
      "▁Eff": 9397,
      "▁border": 9398,
      "ierenden": 9399,
      "just": 9400,
      "▁500": 9401,
      "▁package": 9402,
      "mitt": 9403,
      "80": 9404,
      "▁zunächst": 9405,
      "▁hous": 9406,
      "▁higher": 9407,
      "▁mountain": 9408,
      "bie": 9409,
      "▁\"\"S": 9410,
      "▁dep": 9411,
      "▁Da": 9412,
      "▁Lauf": 9413,
      "▁export": 9414,
      "▁dre": 9415,
      "itel": 9416,
      "▁note": 9417,
      "▁gesamte": 9418,
      "okoll": 9419,
      "▁High": 9420,
      "▁society": 9421,
      "▁Jugend": 9422,
      "usion": 9423,
      "▁stress": 9424,
      "▁shown": 9425,
      "▁committee": 9426,
      "▁months": 9427,
      "ache,": 9428,
      "▁atmosph": 9429,
      "unt": 9430,
      "▁Roman": 9431,
      "system": 9432,
      "▁achieved": 9433,
      "▁Krise": 9434,
      "rimin": 9435,
      "▁floor": 9436,
      "▁former": 9437,
      "▁soziale": 9438,
      "osp": 9439,
      "flä": 9440,
      ".\",\"  ": 9441,
      "▁Nieder": 9442,
      "▁Social": 9443,
      "k,": 9444,
      "▁increased": 9445,
      "▁Ergebnisse": 9446,
      "▁nuclear": 9447,
      "med": 9448,
      "▁London": 9449,
      "ragen,": 9450,
      "▁established": 9451,
      "▁Europe.\"\n": 9452,
      "▁equipped": 9453,
      "▁Män": 9454,
      "▁pan": 9455,
      "▁bleibt": 9456,
      "▁Mitarbeiter": 9457,
      "▁dynam": 9458,
      "-Fra": 9459,
      "▁Aktion": 9460,
      "fält": 9461,
      "wart": 9462,
      ".\",\"When": 9463,
      "▁values": 9464,
      "wide": 9465,
      "▁\"Man": 9466,
      "▁Les": 9467,
      "one,": 9468,
      "▁choose": 9469,
      "▁Central": 9470,
      ".\",E": 9471,
      "▁rein": 9472,
      "-Z": 9473,
      "▁Tod": 9474,
      "folgen": 9475,
      "▁ständ": 9476,
      "rachen": 9477,
      "alu": 9478,
      "klus": 9479,
      "fragen": 9480,
      ".\",\"You": 9481,
      "▁center": 9482,
      "ügen": 9483,
      "älle": 9484,
      "ienen": 9485,
      "yd": 9486,
      "▁tatsächlich": 9487,
      "▁\"Dieses": 9488,
      "▁came": 9489,
      "▁Kommission,": 9490,
      "▁dring": 9491,
      "▁latest": 9492,
      "▁Transport": 9493,
      "▁gibt,": 9494,
      "▁possibility": 9495,
      ".\",There": 9496,
      "artige": 9497,
      "▁Lisbon": 9498,
      "▁Ho": 9499,
      "schw": 9500,
      "▁hatten": 9501,
      "▁opportunities": 9502,
      "▁eindeut": 9503,
      "▁promote": 9504,
      "▁bedeutet": 9505,
      "▁Tro": 9506,
      "▁Akt": 9507,
      "▁Mehrheit": 9508,
      "▁Balk": 9509,
      "rought": 9510,
      "onse": 9511,
      "die": 9512,
      "▁miss": 9513,
      "▁gleichen": 9514,
      "▁behind": 9515,
      "os,": 9516,
      "stellungen": 9517,
      "▁York": 9518,
      "üsse": 9519,
      "▁Beschl": 9520,
      "▁(2": 9521,
      "▁Post": 9522,
      "▁ernst": 9523,
      ".,\"For": 9524,
      "▁übr": 9525,
      "where": 9526,
      "▁Solid": 9527,
      "▁liegen": 9528,
      "li": 9529,
      "rec": 9530,
      "▁sofort": 9531,
      "legen,": 9532,
      "ühm": 9533,
      "cies": 9534,
      "merk": 9535,
      "▁non-": 9536,
      "▁Kosov": 9537,
      "▁Macht": 9538,
      "weisen,": 9539,
      "imming": 9540,
      "iglich": 9541,
      "▁practice": 9542,
      "▁phys": 9543,
      "▁nice": 9544,
      "▁depend": 9545,
      "▁zeigt": 9546,
      "▁leicht": 9547,
      "enken": 9548,
      "▁Ru": 9549,
      "▁stra": 9550,
      "▁funds": 9551,
      "▁movement": 9552,
      "▁Innov": 9553,
      "▁France": 9554,
      "▁Ham": 9555,
      "▁Themen": 9556,
      "▁bi": 9557,
      "▁leaders": 9558,
      "▁register": 9559,
      "inally,": 9560,
      "unsch": 9561,
      "ächt": 9562,
      "ape": 9563,
      "▁äußerst": 9564,
      "▁Arbeitspl": 9565,
      "▁Eigen": 9566,
      "▁Bef": 9567,
      "▁Do": 9568,
      "▁Republic": 9569,
      "▁Leg": 9570,
      "▁Aufgabe": 9571,
      "▁everyone": 9572,
      "▁komplet": 9573,
      "▁schö": 9574,
      "▁Rel": 9575,
      "▁atmosphere": 9576,
      "▁notwendig": 9577,
      "One": 9578,
      "▁Global": 9579,
      "▁asked": 9580,
      "▁Stellung": 9581,
      "▁90": 9582,
      "▁Pan": 9583,
      "▁death": 9584,
      "▁summer": 9585,
      "▁providing": 9586,
      "▁prepared": 9587,
      "▁Einführung": 9588,
      "cret": 9589,
      "▁größten": 9590,
      "igration": 9591,
      "▁af": 9592,
      "▁time.\"\n": 9593,
      "richtungen": 9594,
      "▁external": 9595,
      "va": 9596,
      "▁Mag": 9597,
      "▁Tage": 9598,
      "▁exhib": 9599,
      "ommen,": 9600,
      "itch": 9601,
      "▁somit": 9602,
      "licht": 9603,
      "▁criter": 9604,
      "icles": 9605,
      "▁schle": 9606,
      "▁Mac": 9607,
      "gene": 9608,
      "▁America": 9609,
      "idel": 9610,
      "▁words": 9611,
      "▁Woche": 9612,
      ".\",H": 9613,
      "▁196": 9614,
      "▁Golf": 9615,
      "▁deta": 9616,
      "vorschriften": 9617,
      "▁Russia": 9618,
      "▁sustainable": 9619,
      "▁Dez": 9620,
      ".\",\"G": 9621,
      "▁reduce": 9622,
      "verständlich": 9623,
      "▁year,": 9624,
      "▁elekt": 9625,
      "▁Imp": 9626,
      "arbeiten": 9627,
      "hren": 9628,
      "rehens": 9629,
      "▁à": 9630,
      "▁prob": 9631,
      "▁erfolgreich": 9632,
      "▁prepar": 9633,
      "▁Ferien": 9634,
      "nern": 9635,
      "ctors": 9636,
      "▁condu": 9637,
      "▁\"Ob": 9638,
      "▁verpflich": 9639,
      "quare": 9640,
      "▁Wettbewerb": 9641,
      "▁Convention": 9642,
      "akter": 9643,
      "ary,": 9644,
      "▁Ratspräsident": 9645,
      "▁Konfl": 9646,
      "ummer": 9647,
      "▁innovative": 9648,
      "▁series": 9649,
      "▁Tat": 9650,
      "▁hohen": 9651,
      "▁draft": 9652,
      "▁Lat": 9653,
      "cer": 9654,
      "▁beteil": 9655,
      "▁sollen": 9656,
      "onnen": 9657,
      "opping": 9658,
      "▁terra": 9659,
      "▁Wahr": 9660,
      "▁recently": 9661,
      "▁thanks": 9662,
      "▁display": 9663,
      "▁Höhe": 9664,
      "ieg": 9665,
      "▁Hostel": 9666,
      "▁submitted": 9667,
      "ibilities": 9668,
      "lace": 9669,
      "▁hom": 9670,
      "▁Spain": 9671,
      "▁70": 9672,
      "employ": 9673,
      "▁\"Daher": 9674,
      "▁Amsterdam": 9675,
      "▁zentral": 9676,
      "asons": 9677,
      "▁neigh": 9678,
      "▁gives": 9679,
      "ent,": 9680,
      "tern,": 9681,
      "▁societ": 9682,
      "▁supply": 9683,
      "▁Herzen": 9684,
      "▁Madam": 9685,
      "struments": 9686,
      "▁media": 9687,
      "▁Business": 9688,
      "xis": 9689,
      "▁regular": 9690,
      "altungs": 9691,
      "▁Vereinbar": 9692,
      "ausschuss": 9693,
      "▁Integration": 9694,
      "fonds": 9695,
      "weisen": 9696,
      "▁agreed": 9697,
      "▁vern": 9698,
      "estens": 9699,
      "▁Rot": 9700,
      "▁architect": 9701,
      "volle": 9702,
      "▁dialogue": 9703,
      "ulgar": 9704,
      "▁Standpunkt": 9705,
      "▁principles": 9706,
      "▁Log": 9707,
      "▁equipment": 9708,
      "son": 9709,
      "▁perhaps": 9710,
      "▁Hinter": 9711,
      "▁Mic": 9712,
      "▁suffer": 9713,
      "iction": 9714,
      "▁Gewalt": 9715,
      "rief": 9716,
      "▁=": 9717,
      "▁relevant": 9718,
      "▁foot": 9719,
      "▁Organisation": 9720,
      "▁zweiten": 9721,
      "▁Informations": 9722,
      "icherung": 9723,
      "roat": 9724,
      "▁Kommunik": 9725,
      "▁Sicht": 9726,
      "▁(H": 9727,
      "▁registr": 9728,
      "isch,": 9729,
      "inger": 9730,
      "ürf": 9731,
      "▁Agr": 9732,
      "▁regel": 9733,
      "industrie": 9734,
      "▁Kontakt": 9735,
      "▁beginning": 9736,
      "▁erschein": 9737,
      "ued": 9738,
      "resp": 9739,
      "fahrt": 9740,
      "▁lediglich": 9741,
      "▁Sil": 9742,
      "▁Aud": 9743,
      "▁Komprom": 9744,
      "▁Mich": 9745,
      "▁City": 9746,
      "▁meines": 9747,
      "▁berücksichtig": 9748,
      "▁28": 9749,
      "oh": 9750,
      "▁cases": 9751,
      "▁added": 9752,
      "▁announ": 9753,
      "-An": 9754,
      "zeuge": 9755,
      "oking": 9756,
      "▁Dieses": 9757,
      "▁Amend": 9758,
      "▁Bekämpfung": 9759,
      "▁Debian": 9760,
      "▁leave": 9761,
      "▁island": 9762,
      "▁Juni": 9763,
      "pose": 9764,
      "▁gross": 9765,
      "chten,": 9766,
      "adr": 9767,
      "lla": 9768,
      "▁Pers": 9769,
      "▁initiative": 9770,
      "emin": 9771,
      "▁passen": 9772,
      "▁Gefahr": 9773,
      "▁300": 9774,
      "▁Che": 9775,
      "▁enthält": 9776,
      "▁Ged": 9777,
      "adem": 9778,
      "▁discover": 9779,
      "ronic": 9780,
      "▁amer": 9781,
      "▁betreff": 9782,
      "▁ten": 9783,
      "▁\"Unsere": 9784,
      "▁bestimmte": 9785,
      "▁sense": 9786,
      "▁erforderlich": 9787,
      "▁garden": 9788,
      "▁education": 9789,
      "▁erfüll": 9790,
      "▁E-Mail": 9791,
      "einer": 9792,
      "geschlossen": 9793,
      "sy": 9794,
      "▁obwohl": 9795,
      "▁anderer": 9796,
      "▁describ": 9797,
      "▁coming": 9798,
      "▁considered": 9799,
      "▁Instrument": 9800,
      "▁East": 9801,
      "▁une": 9802,
      "▁bezie": 9803,
      ".,\"B": 9804,
      "▁fal": 9805,
      "view": 9806,
      "ately,": 9807,
      "▁bringen": 9808,
      "arity": 9809,
      "rachtens": 9810,
      "▁Erachtens": 9811,
      "rang": 9812,
      "▁task": 9813,
      "▁WTO": 9814,
      "▁decl": 9815,
      "▁wid": 9816,
      "▁independent": 9817,
      "-2": 9818,
      "▁easily": 9819,
      "▁zahlreiche": 9820,
      "ierter": 9821,
      "▁vorhanden": 9822,
      "▁Lösungen": 9823,
      "ilos": 9824,
      "iko": 9825,
      "▁age": 9826,
      "▁Eing": 9827,
      "▁bestimmten": 9828,
      "▁Änderungen": 9829,
      "ooking.com": 9830,
      "▁Col": 9831,
      "▁26": 9832,
      "ight,": 9833,
      "sprün": 9834,
      "ite,": 9835,
      "▁zweite": 9836,
      "▁Net": 9837,
      "▁highl": 9838,
      "ghan": 9839,
      "▁board": 9840,
      "ernen": 9841,
      "▁shows": 9842,
      "ctober": 9843,
      "wind": 9844,
      "-up": 9845,
      "▁ago": 9846,
      "▁decided": 9847,
      "▁Ress": 9848,
      "▁track": 9849,
      "▁ähn": 9850,
      "▁supported": 9851,
      "▁''": 9852,
      "▁\"Dieser": 9853,
      "▁Program": 9854,
      "arily": 9855,
      "▁To": 9856,
      "▁Überein": 9857,
      "ente": 9858,
      "▁\"Alle": 9859,
      "▁construction": 9860,
      ".\",You": 9861,
      "▁brought": 9862,
      "ously": 9863,
      "▁rates": 9864,
      "▁Abend": 9865,
      "▁Verkehrs": 9866,
      "inden": 9867,
      "▁IN": 9868,
      "en.\",\"S": 9869,
      "▁Vorschrif": 9870,
      "ften": 9871,
      "▁response": 9872,
      "▁außerdem": 9873,
      "ühren": 9874,
      "▁cause": 9875,
      "▁north": 9876,
      "stitute": 9877,
      "▁Article": 9878,
      "▁erweit": 9879,
      "▁British": 9880,
      "▁agreements": 9881,
      "▁Anwend": 9882,
      "▁June": 9883,
      "▁setting": 9884,
      "▁virt": 9885,
      "ism,": 9886,
      "gesetz": 9887,
      "▁stell": 9888,
      "t.": 9889,
      "▁Sektor": 9890,
      "▁Personal": 9891,
      "▁wirtschaftliche": 9892,
      "so": 9893,
      "▁(N": 9894,
      "▁December": 9895,
      "▁Mai": 9896,
      "▁Aspe": 9897,
      "▁bestät": 9898,
      "nahmen": 9899,
      "▁effe": 9900,
      "▁darin": 9901,
      "geber": 9902,
      "ournal": 9903,
      "▁Install": 9904,
      "itting": 9905,
      "▁Vertrags": 9906,
      "▁x": 9907,
      "▁Ost": 9908,
      "m,": 9909,
      "▁dadurch": 9910,
      "over,": 9911,
      "▁statement": 9912,
      "▁mentioned": 9913,
      "lekt": 9914,
      "▁ord": 9915,
      "▁Vis": 9916,
      "▁Wohl": 9917,
      "▁crim": 9918,
      "oder": 9919,
      "▁gemäß": 9920,
      "▁Initiative": 9921,
      "▁restaurants": 9922,
      "▁jen": 9923,
      "▁hours": 9924,
      "▁Develop": 9925,
      "en.\",\"This": 9926,
      "▁entscheiden": 9927,
      "endes": 9928,
      "terne": 9929,
      "▁high-": 9930,
      "▁Bra": 9931,
      "▁neuer": 9932,
      "▁Italian": 9933,
      "▁erster": 9934,
      "▁Tex": 9935,
      "aß": 9936,
      "▁lic": 9937,
      "▁repe": 9938,
      "aschinen": 9939,
      ".,Our": 9940,
      "schnitt": 9941,
      "▁remains": 9942,
      "trie": 9943,
      "▁expla": 9944,
      ".\",\"Our": 9945,
      "▁video": 9946,
      "▁March": 9947,
      "▁einzige": 9948,
      "▁französ": 9949,
      "gründ": 9950,
      "▁body": 9951,
      "▁Pap": 9952,
      "▁prot": 9953,
      "▁*": 9954,
      "▁mobile": 9955,
      "kraft": 9956,
      "▁office": 9957,
      "▁Zw": 9958,
      "▁century": 9959,
      "▁concept": 9960,
      "▁billion": 9961,
      "stag": 9962,
      "▁hohe": 9963,
      "▁pressure": 9964,
      "anner": 9965,
      "-Fraktion": 9966,
      "anzen": 9967,
      "▁creating": 9968,
      "▁Okt": 9969,
      "▁fix": 9970,
      "▁contribution": 9971,
      "merksamkeit": 9972,
      "▁Western": 9973,
      "kommens": 9974,
      "▁deep": 9975,
      "2,": 9976,
      ".\"\"": 9977,
      "itzer": 9978,
      "▁largest": 9979,
      "▁sus": 9980,
      "▁solchen": 9981,
      "▁Erfahrung": 9982,
      "isp": 9983,
      "▁became": 9984,
      "▁geschlossen": 9985,
      "▁contr": 9986,
      "▁www.": 9987,
      "1)": 9988,
      "▁them.\"\n": 9989,
      "▁produced": 9990,
      "▁exec": 9991,
      "▁instead": 9992,
      "▁accep": 9993,
      "▁allein": 9994,
      "ford": 9995,
      "▁fisher": 9996,
      "▁concerned": 9997,
      "zeugen": 9998,
      "▁renov": 9999,
      "▁scre": 10000,
      "▁reached": 10001,
      "▁Beschäftigung": 10002,
      "anischen": 10003,
      "▁thous": 10004,
      "conomic": 10005,
      "▁bra": 10006,
      "▁vergangenen": 10007,
      "▁consumer": 10008,
      "▁pleased": 10009,
      "▁Fed": 10010,
      "▁Aufmerksamkeit": 10011,
      "▁Staat": 10012,
      "▁countries.\"\n": 10013,
      "▁relationship": 10014,
      "utter": 10015,
      "▁Russland": 10016,
      "ations.\n": 10017,
      "▁schütz": 10018,
      "zustellen,": 10019,
      "▁Cal": 10020,
      "▁(G": 10021,
      "▁chem": 10022,
      "▁limited": 10023,
      "▁Transpar": 10024,
      "“,": 10025,
      "▁host": 10026,
      "▁St.": 10027,
      "▁conference": 10028,
      "▁Privat": 10029,
      "▁stability": 10030,
      "ängt": 10031,
      "reibung": 10032,
      "uis": 10033,
      "NG": 10034,
      "rechen,": 10035,
      "▁Unterk": 10036,
      "▁Dezember": 10037,
      "▁accord": 10038,
      "▁obvious": 10039,
      "▁etc.": 10040,
      "entlichkeit": 10041,
      "▁speed": 10042,
      "▁green": 10043,
      "▁firm": 10044,
      "atastrop": 10045,
      "70": 10046,
      "▁rich": 10047,
      "ounts": 10048,
      "▁Room": 10049,
      "mäßig": 10050,
      "▁1998": 10051,
      "▁u.": 10052,
      "ams": 10053,
      "▁determin": 10054,
      "5,": 10055,
      ".\",\"Wh": 10056,
      "Do": 10057,
      "▁news": 10058,
      "iately": 10059,
      "▁party": 10060,
      "yond": 10061,
      "wertung": 10062,
      "▁well-": 10063,
      "anlage": 10064,
      "▁Af": 10065,
      "▁unterst": 10066,
      "ley": 10067,
      "▁started": 10068,
      "▁Was": 10069,
      "aj": 10070,
      "bewertungen": 10071,
      "n't": 10072,
      "gesellschaft": 10073,
      "lare": 10074,
      "▁relativ": 10075,
      "▁ändern": 10076,
      "▁regards": 10077,
      "1,": 10078,
      "▁forms": 10079,
      "▁discussion": 10080,
      "ourcen": 10081,
      "uffet": 10082,
      "▁stage": 10083,
      "▁insgesamt": 10084,
      "▁sprechen": 10085,
      "▁klein": 10086,
      "▁arbeiten": 10087,
      "▁Umgebung": 10088,
      "▁places": 10089,
      "▁Folgen": 10090,
      "▁fact,": 10091,
      "gliche": 10092,
      "▁jün": 10093,
      "ev": 10094,
      "ering": 10095,
      "▁medium": 10096,
      "▁veröffentlich": 10097,
      "▁Gemeins": 10098,
      "▁Möglichkeit,": 10099,
      "sicherheit": 10100,
      "▁particular,": 10101,
      "liegen": 10102,
      "▁variety": 10103,
      "aft": 10104,
      "▁Regierungen": 10105,
      "▁size": 10106,
      "▁einschließlich": 10107,
      "▁Dan": 10108,
      "resident": 10109,
      "▁Di": 10110,
      "▁Fortschritte": 10111,
      "▁z.B.": 10112,
      "ena": 10113,
      "▁konzentr": 10114,
      "▁balance": 10115,
      "▁tun,": 10116,
[...]
