{
  "version": "1.0",
  "truncation": null,
  "padding": null,
  "added_tokens": [
    {
      "id": 0,
      "content": "[PAD]",
      "single_word": false,
      "lstrip": false,
      "rstrip": false,
      "normalized": false,
      "special": true
    },
    {
      "id": 1,
      "content": "[SOS]",
      "single_word": false,
      "lstrip": false,
      "rstrip": false,
      "normalized": false,
      "special": true
    },
    {
      "id": 2,
      "content": "[EOS]",
      "single_word": false,
      "lstrip": false,
      "rstrip": false,
      "normalized": false,
      "special": true
    },
    {
      "id": 3,
      "content": "[UNK]",
      "single_word": false,
      "lstrip": false,
      "rstrip": false,
      "normalized": false,
      "special": true
    }
  ],
  "normalizer": {
    "type": "Sequence",
    "normalizers": [
      {
        "type": "NFD"
      },
      {
        "type": "Lowercase"
      }
    ]
  },
  "pre_tokenizer": {
    "type": "Whitespace"
  },
  "post_processor": null,
  "decoder": null,
  "model": {
    "type": "BPE",
    "dropout": null,
    "unk_token": "[UNK]",
    "continuing_subword_prefix": "##",
    "end_of_word_suffix": null,
    "fuse_unk": false,
    "byte_fallback": false,
    "ignore_merges": false,
    "vocab": {
      "[PAD]": 0,
      "[SOS]": 1,
      "[EOS]": 2,
      "[UNK]": 3,
      "!": 4,
      "\"": 5,
      "#": 6,
      "$": 7,
      "%": 8,
      "&": 9,
      "'": 10,
      "(": 11,
      ")": 12,
      "*": 13,
      "+": 14,
      ",": 15,
      "-": 16,
      ".": 17,
      "/": 18,
      "0": 19,
      "1": 20,
      "2": 21,
      "3": 22,
      "4": 23,
      "5": 24,
      "6": 25,
      "7": 26,
      "8": 27,
      "9": 28,
      ":": 29,
      ";": 30,
      "<": 31,
      "=": 32,
      ">": 33,
      "?": 34,
      "@": 35,
      "[": 36,
      "\\": 37,
      "]": 38,
      "^": 39,
      "_": 40,
      "`": 41,
      "a": 42,
      "b": 43,
      "c": 44,
      "d": 45,
      "e": 46,
      "f": 47,
      "g": 48,
      "h": 49,
      "i": 50,
      "j": 51,
      "k": 52,
      "l": 53,
      "m": 54,
      "n": 55,
      "o": 56,
      "p": 57,
      "q": 58,
      "r": 59,
      "s": 60,
      "t": 61,
      "u": 62,
      "v": 63,
      "w": 64,
      "x": 65,
      "y": 66,
      "z": 67,
      "{": 68,
      "|": 69,
      "}": 70,
      "~": 71,
      "": 72,
      "": 73,
      "": 74,
      "": 75,
      "": 76,
      "": 77,
      "": 78,
      "": 79,
      "": 80,
      "": 81,
      "": 82,
      "": 83,
      "": 84,
      "": 85,
      "": 86,
      "": 87,
      "": 88,
      "": 89,
      "": 90,
      "": 91,
      "": 92,
      "": 93,
      "": 94,
      "": 95,
      "": 96,
      "": 97,
      "": 98,
      "": 99,
      "": 100,
      "¡": 101,
      "¢": 102,
      "£": 103,
      "¤": 104,
      "¥": 105,
      "¦": 106,
      "§": 107,
      "¨": 108,
      "©": 109,
      "ª": 110,
      "«": 111,
      "¬": 112,
      "­": 113,
      "®": 114,
      "¯": 115,
      "°": 116,
      "±": 117,
      "²": 118,
      "³": 119,
      "´": 120,
      "µ": 121,
      "¶": 122,
      "·": 123,
      "¸": 124,
      "¹": 125,
      "º": 126,
      "»": 127,
      "¼": 128,
      "½": 129,
      "¾": 130,
      "¿": 131,
      "×": 132,
      "ß": 133,
      "æ": 134,
      "ð": 135,
      "÷": 136,
      "ø": 137,
      "þ": 138,
      "đ": 139,
      "ħ": 140,
      "ı": 141,
      "ĳ": 142,
      "ĸ": 143,
      "ŀ": 144,
      "ł": 145,
      "ŋ": 146,
      "œ": 147,
      "ſ": 148,
      "ƒ": 149,
      "ƙ": 150,
      "ƛ": 151,
      "ƭ": 152,
      "ǝ": 153,
      "ȣ": 154,
      "ȥ": 155,
      "ȼ": 156,
      "ɐ": 157,
      "ɑ": 158,
      "ɒ": 159,
      "ɔ": 160,
      "ɕ": 161,
      "ə": 162,
      "ɚ": 163,
      "ɛ": 164,
      "ɜ": 165,
      "ɠ": 166,
      "ɡ": 167,
      "ɢ": 168,
      "ɣ": 169,
      "ɤ": 170,
      "ɨ": 171,
      "ɩ": 172,
      "ɪ": 173,
      "ɫ": 174,
      "ɬ": 175,
      "ɯ": 176,
      "ɲ": 177,
      "ɴ": 178,
      "ɵ": 179,
      "ɹ": 180,
      "ɾ": 181,
      "ʀ": 182,
      "ʁ": 183,
      "ʃ": 184,
      "ʊ": 185,
      "ʋ": 186,
      "ʌ": 187,
      "ʎ": 188,
      "ʐ": 189,
      "ʒ": 190,
      "ʔ": 191,
      "ʚ": 192,
      "ʤ": 193,
      "ʦ": 194,
      "ʰ": 195,
      "ʲ": 196,
      "ʺ": 197,
      "ʻ": 198,
      "ʼ": 199,
      "ʾ": 200,
      "ʿ": 201,
      "ˁ": 202,
      "ˆ": 203,
      "ˇ": 204,
      "ˈ": 205,
      "ˌ": 206,
      "ː": 207,
      "ˑ": 208,
      "˘": 209,
      "˙": 210,
      "˚": 211,
      "˛": 212,
      "˜": 213,
      "˝": 214,
      "ˡ": 215,
      "ˤ": 216,
      "̀": 217,
      "́": 218,
      "̂": 219,
      "̃": 220,
      "̄": 221,
      "̆": 222,
      "̇": 223,
      "̈": 224,
      "̉": 225,
      "̊": 226,
      "̋": 227,
      "̌": 228,
      "̍": 229,
      "̑": 230,
      "̓": 231,
      "̔": 232,
      "̛": 233,
      "̡": 234,
      "̣": 235,
      "̤": 236,
      "̦": 237,
      "̧": 238,
      "̨": 239,
      "̮": 240,
      "̯": 241,
      "̱": 242,
      "̶": 243,
      "̸": 244,
      "͂": 245,
      "͘": 246,
      "͡": 247,
      "΄": 248,
      "α": 249,
      "β": 250,
      "γ": 251,
      "δ": 252,
      "ε": 253,
      "ζ": 254,
      "η": 255,
      "θ": 256,
      "ι": 257,
      "κ": 258,
      "λ": 259,
      "μ": 260,
      "ν": 261,
      "ξ": 262,
      "ο": 263,
      "π": 264,
      "ρ": 265,
      "ς": 266,
      "σ": 267,
      "τ": 268,
      "υ": 269,
      "φ": 270,
      "χ": 271,
      "ψ": 272,
      "ω": 273,
      "а": 274,
      "б": 275,
      "в": 276,
      "г": 277,
      "д": 278,
      "е": 279,
      "ж": 280,
      "з": 281,
      "и": 282,
      "к": 283,
      "л": 284,
      "м": 285,
      "н": 286,
      "о": 287,
      "п": 288,
      "р": 289,
      "с": 290,
      "т": 291,
      "у": 292,
      "ф": 293,
      "х": 294,
      "ц": 295,
      "ч": 296,
      "ш": 297,
      "щ": 298,
      "ъ": 299,
      "ы": 300,
      "ь": 301,
      "э": 302,
      "ю": 303,
      "я": 304,
      "ђ": 305,
      "є": 306,
      "ѕ": 307,
      "і": 308,
      "ј": 309,
      "љ": 310,
      "њ": 311,
      "ћ": 312,
      "џ": 313,
      "ѳ": 314,
      "ґ": 315,
      "ғ": 316,
      "ҙ": 317,
      "қ": 318,
      "ҡ": 319,
      "ң": 320,
      "ү": 321,
      "ұ": 322,
      "ҳ": 323,
      "һ": 324,
      "ә": 325,
      "ө": 326,
      "ְ": 327,
      "ֲ": 328,
      "ֳ": 329,
      "ִ": 330,
      "ֵ": 331,
      "ֶ": 332,
      "ַ": 333,
      "ָ": 334,
      "ֹ": 335,
      "ּ": 336,
      "ֿ": 337,
      "ׁ": 338,
      "א": 339,
      "ב": 340,
      "ג": 341,
      "ד": 342,
      "ה": 343,
      "ו": 344,
      "ז": 345,
      "ח": 346,
      "ט": 347,
      "י": 348,
      "כ": 349,
      "ל": 350,
      "ם": 351,
      "מ": 352,
      "ן": 353,
      "נ": 354,
      "ס": 355,
      "ע": 356,
      "פ": 357,
      "ץ": 358,
      "צ": 359,
      "ק": 360,
      "ר": 361,
      "ש": 362,
      "ת": 363,
      "،": 364,
      "ؒ": 365,
      "؛": 366,
      "ء": 367,
      "ا": 368,
      "ب": 369,
      "ة": 370,
      "ت": 371,
      "ث": 372,
      "ج": 373,
      "ح": 374,
      "خ": 375,
      "د": 376,
      "ذ": 377,
      "ر": 378,
      "ز": 379,
      "س": 380,
      "ش": 381,
      "ص": 382,
      "ض": 383,
      "ط": 384,
      "ظ": 385,
      "ع": 386,
      "غ": 387,
      "ـ": 388,
      "ف": 389,
      "ق": 390,
      "ك": 391,
      "ل": 392,
      "م": 393,
      "ن": 394,
      "ه": 395,
      "و": 396,
      "ى": 397,
      "ي": 398,
      "ً": 399,
      "ٌ": 400,
      "ٍ": 401,
      "َ": 402,
      "ُ": 403,
      "ِ": 404,
      "ّ": 405,
      "ْ": 406,
      "ٓ": 407,
      "ٔ": 408,
      "ٕ": 409,
      "ٲ": 410,
      "ٹ": 411,
      "ټ": 412,
      "پ": 413,
      "ځ": 414,
      "چ": 415,
      "ڠ": 416,
      "ڤ": 417,
      "ک": 418,
      "ڬ": 419,
      "ڭ": 420,
      "گ": 421,
      "ھ": 422,
      "ہ": 423,
      "ۆ": 424,
      "ۇ": 425,
      "ی": 426,
      "ې": 427,
      "ە": 428,
      "۞": 429,
      "۩": 430,
      "۰": 431,
      "۱": 432,
      "۲": 433,
      "۳": 434,
      "۴": 435,
      "۵": 436,
      "۶": 437,
      "۷": 438,
      "۸": 439,
      "۹": 440,
      "ރ": 441,
      "ކ": 442,
      "އ": 443,
      "މ": 444,
      "ާ": 445,
      "ި": 446,
      "ެ": 447,
      "ߖ": 448,
      "ߧ": 449,
      "߮": 450,
      "ं": 451,
      "अ": 452,
      "आ": 453,
      "ई": 454,
      "उ": 455,
      "क": 456,
      "ग": 457,
      "च": 458,
      "छ": 459,
      "ज": 460,
      "ञ": 461,
      "ट": 462,
      "ड": 463,
      "ढ": 464,
      "ण": 465,
      "त": 466,
      "थ": 467,
      "द": 468,
      "ध": 469,
      "न": 470,
      "प": 471,
      "ब": 472,
      "भ": 473,
      "म": 474,
      "य": 475,
      "र": 476,
      "ल": 477,
      "व": 478,
      "श": 479,
      "ष": 480,
      "स": 481,
      "ह": 482,
      "़": 483,
      "ा": 484,
      "ि": 485,
      "ी": 486,
      "ु": 487,
      "ृ": 488,
      "े": 489,
      "ॉ": 490,
      "ो": 491,
      "्": 492,
      "ॐ": 493,
      "ॡ": 494,
      "०": 495,
      "१": 496,
      "२": 497,
      "३": 498,
      "५": 499,
      "९": 500,
      "ং": 501,
      "আ": 502,
      "ই": 503,
      "এ": 504,
      "ক": 505,
      "গ": 506,
      "ঙ": 507,
      "চ": 508,
      "ট": 509,
      "ত": 510,
      "ন": 511,
      "প": 512,
      "ব": 513,
      "ম": 514,
      "য": 515,
      "র": 516,
      "ল": 517,
      "শ": 518,
      "ষ": 519,
      "হ": 520,
      "়": 521,
      "া": 522,
      "ি": 523,
      "ু": 524,
      "ে": 525,
      "্": 526,
      "ৰ": 527,
      "ਗ": 528,
      "ਚ": 529,
      "ਡ": 530,
      "ਹ": 531,
      "ੀ": 532,
      "੍": 533,
      "ੜ": 534,
      "ੰ": 535,
      "ં": 536,
      "અ": 537,
      "ક": 538,
      "જ": 539,
      "ત": 540,
      "મ": 541,
      "ય": 542,
      "ર": 543,
      "સ": 544,
      "ા": 545,
      "િ": 546,
      "ુ": 547,
      "ે": 548,
      "્": 549,
      "૦": 550,
      "૧": 551,
      "૨": 552,
      "க": 553,
      "ங": 554,
      "ச": 555,
      "ட": 556,
      "த": 557,
      "ன": 558,
      "ப": 559,
      "ம": 560,
      "ய": 561,
      "ர": 562,
      "ல": 563,
      "வ": 564,
      "ஷ": 565,
      "ா": 566,
      "ி": 567,
      "ு": 568,
      "ூ": 569,
      "ெ": 570,
      "ே": 571,
      "ை": 572,
      "்": 573,
      "ం": 574,
      "ఆ": 575,
      "క": 576,
      "గ": 577,
      "జ": 578,
      "డ": 579,
      "ద": 580,
      "ధ": 581,
      "న": 582,
      "ప": 583,
      "ర": 584,
      "శ": 585,
      "ా": 586,
      "ు": 587,
      "ె": 588,
      "ే": 589,
      "ొ": 590,
      "్": 591,
      "ౕ": 592,
      "ಐ": 593,
      "ಯ": 594,
      "ರ": 595,
      "ವ": 596,
      "ಶ": 597,
      "ಾ": 598,
      "ೆ": 599,
      "್": 600,
      "ೖ": 601,
      "೦": 602,
      "೧": 603,
      "೨": 604,
      "೩": 605,
      "೫": 606,
      "೬": 607,
      "೮": 608,
      "೯": 609,
      "അ": 610,
      "എ": 611,
      "ക": 612,
      "ത": 613,
      "ദ": 614,
      "ന": 615,
      "പ": 616,
      "മ": 617,
      "യ": 618,
      "ല": 619,
      "വ": 620,
      "ഷ": 621,
      "സ": 622,
      "ാ": 623,
      "ി": 624,
      "ീ": 625,
      "ു": 626,
      "േ": 627,
      "്": 628,
      "න": 629,
      "ම": 630,
      "ර": 631,
      "ව": 632,
      "හ": 633,
      "ු": 634,
      "ก": 635,
      "ข": 636,
      "ค": 637,
      "ฆ": 638,
      "ง": 639,
      "จ": 640,
      "ฉ": 641,
      "ช": 642,
      "ซ": 643,
      "ญ": 644,
      "ฎ": 645,
      "ฏ": 646,
      "ฐ": 647,
      "ฑ": 648,
      "ฒ": 649,
      "ณ": 650,
      "ด": 651,
      "ต": 652,
      "ถ": 653,
      "ท": 654,
      "ธ": 655,
      "น": 656,
      "บ": 657,
      "ป": 658,
      "ผ": 659,
      "ฝ": 660,
      "พ": 661,
      "ฟ": 662,
      "ภ": 663,
      "ม": 664,
      "ย": 665,
      "ร": 666,
      "ฤ": 667,
      "ล": 668,
      "ว": 669,
      "ศ": 670,
      "ษ": 671,
      "ส": 672,
      "ห": 673,
      "อ": 674,
      "ฮ": 675,
      "ฯ": 676,
      "ะ": 677,
      "ั": 678,
      "า": 679,
      "ำ": 680,
      "ิ": 681,
      "ี": 682,
      "ึ": 683,
      "ื": 684,
      "ุ": 685,
      "ู": 686,
      "฿": 687,
      "เ": 688,
      "แ": 689,
      "โ": 690,
      "ใ": 691,
      "ไ": 692,
      "ๆ": 693,
      "็": 694,
      "่": 695,
      "้": 696,
      "๊": 697,
      "๋": 698,
      "์": 699,
      "๑": 700,
      "ຂ": 701,
      "ຄ": 702,
      "ງ": 703,
      "ຈ": 704,
      "ດ": 705,
      "ຖ": 706,
      "ນ": 707,
      "ບ": 708,
      "ມ": 709,
      "ລ": 710,
      "ວ": 711,
      "ັ": 712,
      "າ": 713,
      "ຸ": 714,
      "ົ": 715,
      "ຽ": 716,
      "ເ": 717,
      "້": 718,
      "ໜ": 719,
      "་": 720,
      "ཏ": 721,
      "ད": 722,
      "ན": 723,
      "བ": 724,
      "མ": 725,
      "ཚ": 726,
      "འ": 727,
      "ལ": 728,
      "ས": 729,
      "ཱ": 730,
      "ི": 731,
      "ོ": 732,
      "ྔ": 733,
      "ླ": 734,
      "န": 735,
      "ရ": 736,
      "ဝ": 737,
      "သ": 738,
      "ဟ": 739,
      "ေ": 740,
      "္": 741,
      "ა": 742,
      "ბ": 743,
      "გ": 744,
      "დ": 745,
      "ე": 746,
      "ვ": 747,
      "ზ": 748,
      "თ": 749,
      "ი": 750,
      "კ": 751,
      "ლ": 752,
      "მ": 753,
      "ნ": 754,
      "ო": 755,
      "პ": 756,
      "რ": 757,
      "ს": 758,
      "ტ": 759,
      "უ": 760,
      "ქ": 761,
      "ღ": 762,
      "შ": 763,
      "ც": 764,
      "ძ": 765,
      "წ": 766,
      "ხ": 767,
      "ჯ": 768,
      "ᄀ": 769,
      "ᄁ": 770,
      "ᄂ": 771,
      "ᄃ": 772,
      "ᄅ": 773,
      "ᄆ": 774,
      "ᄇ": 775,
      "ᄉ": 776,
      "ᄋ": 777,
      "ᄌ": 778,
      "ᄍ": 779,
      "ᄎ": 780,
      "ᄏ": 781,
      "ᄐ": 782,
      "ᄑ": 783,
      "ᄒ": 784,
      "ᅡ": 785,
      "ᅢ": 786,
      "ᅣ": 787,
      "ᅥ": 788,
      "ᅦ": 789,
      "ᅧ": 790,
      "ᅨ": 791,
      "ᅩ": 792,
      "ᅪ": 793,
      "ᅬ": 794,
      "ᅭ": 795,
      "ᅮ": 796,
      "ᅯ": 797,
      "ᅰ": 798,
      "ᅱ": 799,
      "ᅲ": 800,
      "ᅳ": 801,
      "ᅵ": 802,
      "ᆨ": 803,
      "ᆫ": 804,
      "ᆯ": 805,
      "ᆷ": 806,
      "ᆸ": 807,
      "ᆻ": 808,
      "ᆼ": 809,
      "ᆾ": 810,
      "ህ": 811,
      "ሊ": 812,
      "ል": 813,
      "ሓ": 814,
      "ሕ": 815,
      "መ": 816,
      "ሙ": 817,
      "ሜ": 818,
      "ም": 819,
      "ሥ": 820,
      "ረ": 821,
      "ሪ": 822,
      "ራ": 823,
      "ር": 824,
      "ሰ": 825,
      "ሴ": 826,
      "ስ": 827,
      "ሻ": 828,
      "ሽ": 829,
      "ቀ": 830,
      "ቐ": 831,
      "በ": 832,
      "ቢ": 833,
      "ባ": 834,
      "ተ": 835,
      "ት": 836,
      "ቶ": 837,
      "ነ": 838,
      "ን": 839,
      "አ": 840,
      "ኣ": 841,
      "ኤ": 842,
      "እ": 843,
      "ኦ": 844,
      "ካ": 845,
      "ክ": 846,
      "ዋ": 847,
      "ው": 848,
      "ዓ": 849,
      "ዕ": 850,
      "የ": 851,
      "ይ": 852,
      "ደ": 853,
      "ዲ": 854,
      "ድ": 855,
      "ገ": 856,
      "ጋ": 857,
      "ጨ": 858,
      "ጽ": 859,
      "ፅ": 860,
      "ፈ": 861,
      "ፍ": 862,
      "፣": 863,
      "ᐃ": 864,
      "ᐊ": 865,
      "ᑦ": 866,
      "ᑲ": 867,
      "ᒃ": 868,
      "ᒥ": 869,
      "ᓄ": 870,
      "ᓕ": 871,
      "ដ": 872,
      "ឋ": 873,
      "រ": 874,
      "ស": 875,
      "ហ": 876,
      "្": 877,
      "​": 878,
      "‌": 879,
      "‍": 880,
      "‎": 881,
      "‏": 882,
      "‐": 883,
      "‑": 884,
      "‒": 885,
      "–": 886,
      "—": 887,
      "―": 888,
      "‖": 889,
      "‘": 890,
      "’": 891,
      "‚": 892,
      "‛": 893,
      "“": 894,
      "”": 895,
      "„": 896,
      "‟": 897,
      "†": 898,
      "‡": 899,
      "•": 900,
      "…": 901,
      "‪": 902,
      "‬": 903,
      "‭": 904,
      "‰": 905,
      "′": 906,
      "″": 907,
      "‶": 908,
      "‹": 909,
      "›": 910,
      "※": 911,
      "‼": 912,
      "‽": 913,
      "⁄": 914,
      "⁴": 915,
      "ⁿ": 916,
      "₁": 917,
      "₂": 918,
      "₠": 919,
      "₣": 920,
      "₤": 921,
      "₩": 922,
      "₪": 923,
      "€": 924,
      "₴": 925,
      "₵": 926,
      "⃛": 927,
      "℃": 928,
      "ℓ": 929,
      "℔": 930,
      "№": 931,
      "™": 932,
      "℮": 933,
      "⅓": 934,
      "⅔": 935,
      "⅛": 936,
      "⅞": 937,
      "ⅱ": 938,
      "ⅲ": 939,
      "←": 940,
      "↑": 941,
      "→": 942,
      "↓": 943,
      "↔": 944,
      "↧": 945,
      "⇒": 946,
      "⇔": 947,
      "⇗": 948,
      "⇢": 949,
      "∀": 950,
      "∃": 951,
      "∈": 952,
      "∑": 953,
      "−": 954,
      "∙": 955,
      "√": 956,
      "∞": 957,
      "∫": 958,
      "∴": 959,
      "∶": 960,
      "∼": 961,
      "≈": 962,
      "≡": 963,
      "≤": 964,
      "≥": 965,
      "≪": 966,
      "≫": 967,
      "⋅": 968,
      "⌃": 969,
      "⌘": 970,
      "①": 971,
      "②": 972,
      "③": 973,
      "─": 974,
      "│": 975,
      "┌": 976,
      "┐": 977,
      "└": 978,
      "┘": 979,
      "┬": 980,
      "┴": 981,
      "╚": 982,
      "╞": 983,
      "╩": 984,
      "█": 985,
      "░": 986,
      "▒": 987,
      "■": 988,
      "□": 989,
      "▪": 990,
      "▲": 991,
      "△": 992,
      "▸": 993,
      "►": 994,
      "▼": 995,
      "◆": 996,
      "◇": 997,
      "◈": 998,
      "◊": 999,
      "○": 1000,
      "◎": 1001,
      "●": 1002,
      "◙": 1003,
      "◦": 1004,
      "★": 1005,
      "☆": 1006,
      "☎": 1007,
      "☏": 1008,
      "☑": 1009,
      "☯": 1010,
      "☺": 1011,
      "☻": 1012,
      "☼": 1013,
      "♀": 1014,
      "♂": 1015,
      "♠": 1016,
      "♣": 1017,
      "♥": 1018,
      "♦": 1019,
      "♪": 1020,
      "♫": 1021,
      "✿": 1022,
      "➔": 1023,
      "➚": 1024,
      "➟": 1025,
      "➲": 1026,
      "ⰶ": 1027,
      "ⲉ": 1028,
      "ⲟ": 1029,
      "ⲡ": 1030,
      "ⲣ": 1031,
      "ⲩ": 1032,
      "、": 1033,
      "。": 1034,
      "々": 1035,
      "《": 1036,
      "》": 1037,
      "「": 1038,
      "」": 1039,
      "『": 1040,
      "』": 1041,
      "【": 1042,
      "】": 1043,
      "〔": 1044,
      "〕": 1045,
      "〜": 1046,
      "ぁ": 1047,
      "あ": 1048,
      "ぃ": 1049,
      "い": 1050,
      "う": 1051,
      "ぇ": 1052,
      "え": 1053,
      "お": 1054,
      "か": 1055,
      "き": 1056,
      "く": 1057,
      "け": 1058,
      "こ": 1059,
      "さ": 1060,
      "し": 1061,
      "す": 1062,
      "せ": 1063,
      "そ": 1064,
      "た": 1065,
      "ち": 1066,
      "っ": 1067,
      "つ": 1068,
      "て": 1069,
      "と": 1070,
      "な": 1071,
      "に": 1072,
      "ぬ": 1073,
      "ね": 1074,
      "の": 1075,
      "は": 1076,
      "ひ": 1077,
      "ふ": 1078,
      "へ": 1079,
      "ほ": 1080,
      "ま": 1081,
      "み": 1082,
      "む": 1083,
      "め": 1084,
      "も": 1085,
      "ゃ": 1086,
      "や": 1087,
      "ゅ": 1088,
      "ゆ": 1089,
      "ょ": 1090,
      "よ": 1091,
      "ら": 1092,
      "り": 1093,
      "る": 1094,
      "れ": 1095,
      "ろ": 1096,
      "わ": 1097,
      "ゐ": 1098,
      "ゑ": 1099,
      "を": 1100,
      "ん": 1101,
      "゙": 1102,
      "゚": 1103,
      "゛": 1104,
      "゜": 1105,
      "ァ": 1106,
      "ア": 1107,
      "ィ": 1108,
      "イ": 1109,
      "ゥ": 1110,
      "ウ": 1111,
      "ェ": 1112,
      "エ": 1113,
      "ォ": 1114,
      "オ": 1115,
      "カ": 1116,
      "キ": 1117,
      "ク": 1118,
      "ケ": 1119,
      "コ": 1120,
      "サ": 1121,
      "シ": 1122,
      "ス": 1123,
      "セ": 1124,
      "ソ": 1125,
      "タ": 1126,
      "チ": 1127,
      "ッ": 1128,
      "ツ": 1129,
      "テ": 1130,
      "ト": 1131,
      "ナ": 1132,
      "ニ": 1133,
      "ヌ": 1134,
      "ネ": 1135,
      "ノ": 1136,
      "ハ": 1137,
      "ヒ": 1138,
      "フ": 1139,
      "ヘ": 1140,
      "ホ": 1141,
      "マ": 1142,
      "ミ": 1143,
      "ム": 1144,
      "メ": 1145,
      "モ": 1146,
      "ャ": 1147,
      "ヤ": 1148,
      "ュ": 1149,
      "ユ": 1150,
      "ョ": 1151,
      "ヨ": 1152,
      "ラ": 1153,
      "リ": 1154,
      "ル": 1155,
      "レ": 1156,
      "ロ": 1157,
      "ワ": 1158,
      "ン": 1159,
      "・": 1160,
      "ー": 1161,
      "ㄅ": 1162,
      "ㄆ": 1163,
      "ㄇ": 1164,
      "ㄈ": 1165,
      "ㄤ": 1166,
      "ㄧ": 1167,
      "ㅓ": 1168,
      "ㅔ": 1169,
      "ㅕ": 1170,
      "ㅖ": 1171,
      "ㅡ": 1172,
      "ㅣ": 1173,
      "㎡": 1174,
      "䟩": 1175,
      "一": 1176,
      "七": 1177,
      "万": 1178,
      "丈": 1179,
      "三": 1180,
      "上": 1181,
      "下": 1182,
      "不": 1183,
      "与": 1184,
      "专": 1185,
      "世": 1186,
      "丘": 1187,
      "业": 1188,
      "东": 1189,
      "两": 1190,
      "严": 1191,
      "丨": 1192,
      "个": 1193,
      "中": 1194,
      "丰": 1195,
      "临": 1196,
      "丸": 1197,
      "丹": 1198,
      "为": 1199,
      "主": 1200,
      "丼": 1201,
      "丽": 1202,
      "举": 1203,
      "久": 1204,
      "么": 1205,
      "义": 1206,
      "之": 1207,
      "乌": 1208,
      "乎": 1209,
      "乏": 1210,
      "乐": 1211,
      "乗": 1212,
      "乘": 1213,
      "乙": 1214,
      "九": 1215,
      "也": 1216,
      "习": 1217,
      "乡": 1218,
      "书": 1219,
      "买": 1220,
      "乱": 1221,
      "乾": 1222,
      "了": 1223,
      "争": 1224,
      "事": 1225,
      "二": 1226,
      "于": 1227,
      "云": 1228,
      "互": 1229,
      "五": 1230,
      "井": 1231,
      "亚": 1232,
      "些": 1233,
      "亜": 1234,
      "亞": 1235,
      "交": 1236,
      "产": 1237,
      "亨": 1238,
      "京": 1239,
      "人": 1240,
      "亿": 1241,
      "什": 1242,
      "仁": 1243,
      "仅": 1244,
      "今": 1245,
      "介": 1246,
      "仍": 1247,
      "从": 1248,
      "他": 1249,
      "付": 1250,
      "仙": 1251,
      "仝": 1252,
      "代": 1253,
      "以": 1254,
      "仪": 1255,
      "们": 1256,
      "仮": 1257,
      "仲": 1258,
      "件": 1259,
      "价": 1260,
      "任": 1261,
      "伊": 1262,
      "伎": 1263,
      "伏": 1264,
      "伐": 1265,
      "休": 1266,
      "众": 1267,
      "优": 1268,
      "会": 1269,
      "伝": 1270,
      "伟": 1271,
      "传": 1272,
      "伦": 1273,
      "伯": 1274,
      "估": 1275,
      "伴": 1276,
      "伸": 1277,
      "似": 1278,
      "但": 1279,
      "位": 1280,
      "低": 1281,
      "住": 1282,
      "佐": 1283,
      "佑": 1284,
      "体": 1285,
      "何": 1286,
      "佗": 1287,
      "余": 1288,
      "作": 1289,
      "你": 1290,
      "佰": 1291,
      "使": 1292,
      "例": 1293,
      "侍": 1294,
      "供": 1295,
      "依": 1296,
      "便": 1297,
      "俄": 1298,
      "俊": 1299,
      "保": 1300,
      "信": 1301,
      "修": 1302,
      "倉": 1303,
      "個": 1304,
      "倍": 1305,
      "倒": 1306,
      "候": 1307,
      "值": 1308,
      "假": 1309,
      "做": 1310,
      "健": 1311,
      "側": 1312,
      "備": 1313,
      "储": 1314,
      "傳": 1315,
      "傷": 1316,
      "働": 1317,
      "像": 1318,
      "僕": 1319,
      "儀": 1320,
      "儉": 1321,
      "元": 1322,
      "先": 1323,
      "光": 1324,
      "克": 1325,
      "免": 1326,
      "入": 1327,
      "內": 1328,
      "全": 1329,
      "兩": 1330,
      "八": 1331,
      "公": 1332,
      "六": 1333,
      "兰": 1334,
      "共": 1335,
      "关": 1336,
      "兴": 1337,
      "兵": 1338,
      "其": 1339,
      "具": 1340,
      "养": 1341,
      "兽": 1342,
      "内": 1343,
      "円": 1344,
      "冊": 1345,
      "册": 1346,
      "再": 1347,
      "写": 1348,
      "军": 1349,
      "农": 1350,
      "冤": 1351,
      "冰": 1352,
      "决": 1353,
      "况": 1354,
      "冷": 1355,
      "净": 1356,
      "凄": 1357,
      "准": 1358,
      "凉": 1359,
      "凍": 1360,
      "减": 1361,
      "几": 1362,
      "凶": 1363,
      "凸": 1364,
      "出": 1365,
      "函": 1366,
      "刀": 1367,
      "分": 1368,
      "切": 1369,
      "刑": 1370,
      "列": 1371,
      "刘": 1372,
      "则": 1373,
      "刚": 1374,
      "创": 1375,
      "判": 1376,
      "別": 1377,
      "刨": 1378,
      "利": 1379,
      "别": 1380,
      "到": 1381,
      "制": 1382,
      "刺": 1383,
      "則": 1384,
      "前": 1385,
      "剑": 1386,
      "剣": 1387,
      "剥": 1388,
      "剧": 1389,
      "剩": 1390,
      "副": 1391,
      "割": 1392,
      "創": 1393,
      "劇": 1394,
      "劉": 1395,
      "力": 1396,
      "功": 1397,
      "加": 1398,
      "务": 1399,
      "动": 1400,
      "助": 1401,
      "努": 1402,
      "劳": 1403,
      "势": 1404,
      "動": 1405,
      "勝": 1406,
      "勞": 1407,
      "勢": 1408,
      "勧": 1409,
      "勿": 1410,
      "包": 1411,
      "化": 1412,
      "北": 1413,
      "匠": 1414,
      "匡": 1415,
      "匹": 1416,
      "区": 1417,
      "医": 1418,
      "匿": 1419,
      "區": 1420,
      "十": 1421,
      "千": 1422,
      "升": 1423,
      "半": 1424,
      "卍": 1425,
      "华": 1426,
      "协": 1427,
      "卐": 1428,
      "卓": 1429,
      "单": 1430,
      "卖": 1431,
      "南": 1432,
      "博": 1433,
      "卡": 1434,
      "卦": 1435,
      "卫": 1436,
      "印": 1437,
      "危": 1438,
      "即": 1439,
      "却": 1440,
      "厂": 1441,
      "原": 1442,
      "去": 1443,
      "县": 1444,
      "参": 1445,
      "參": 1446,
      "及": 1447,
      "友": 1448,
      "双": 1449,
      "反": 1450,
      "发": 1451,
      "取": 1452,
      "受": 1453,
      "变": 1454,
      "叡": 1455,
      "口": 1456,
      "古": 1457,
      "另": 1458,
      "只": 1459,
      "叫": 1460,
      "召": 1461,
      "可": 1462,
      "台": 1463,
      "史": 1464,
      "右": 1465,
      "号": 1466,
      "司": 1467,
      "吃": 1468,
      "各": 1469,
      "合": 1470,
      "吉": 1471,
      "吊": 1472,
      "同": 1473,
      "名": 1474,
      "后": 1475,
      "向": 1476,
      "吗": 1477,
      "君": 1478,
      "否": 1479,
      "吧": 1480,
      "吨": 1481,
      "含": 1482,
      "听": 1483,
      "吳": 1484,
      "吴": 1485,
      "吸": 1486,
      "吹": 1487,
      "吾": 1488,
      "呀": 1489,
      "呂": 1490,
      "呆": 1491,
      "呉": 1492,
      "告": 1493,
      "呑": 1494,
      "员": 1495,
      "周": 1496,
      "味": 1497,
      "呼": 1498,
      "命": 1499,
      "咆": 1500,
      "和": 1501,
      "咬": 1502,
      "品": 1503,
      "哈": 1504,
      "响": 1505,
      "員": 1506,
      "哥": 1507,
      "哮": 1508,
      "哲": 1509,
      "唐": 1510,
      "售": 1511,
      "唸": 1512,
      "商": 1513,
      "問": 1514,
      "啤": 1515,
      "啦": 1516,
      "喀": 1517,
      "喂": 1518,
      "善": 1519,
      "喇": 1520,
      "喜": 1521,
      "喫": 1522,
      "嗣": 1523,
      "嘉": 1524,
      "嘛": 1525,
      "嘟": 1526,
      "噌": 1527,
      "噛": 1528,
      "器": 1529,
      "嚴": 1530,
      "四": 1531,
      "回": 1532,
      "因": 1533,
      "団": 1534,
      "囧": 1535,
      "园": 1536,
      "困": 1537,
      "固": 1538,
      "国": 1539,
      "图": 1540,
      "圆": 1541,
      "國": 1542,
      "圍": 1543,
      "圏": 1544,
      "園": 1545,
      "圓": 1546,
      "圖": 1547,
      "土": 1548,
      "在": 1549,
      "地": 1550,
      "圳": 1551,
      "场": 1552,
      "址": 1553,
      "坂": 1554,
      "均": 1555,
      "坊": 1556,
      "坐": 1557,
      "块": 1558,
      "坛": 1559,
      "坝": 1560,
      "坡": 1561,
      "坤": 1562,
      "坪": 1563,
      "型": 1564,
      "垣": 1565,
      "城": 1566,
      "埔": 1567,
      "域": 1568,
      "基": 1569,
      "堂": 1570,
      "堆": 1571,
      "堤": 1572,
      "堰": 1573,
      "報": 1574,
      "場": 1575,
      "塊": 1576,
      "塔": 1577,
      "塗": 1578,
      "塞": 1579,
      "塩": 1580,
      "塾": 1581,
      "増": 1582,
      "增": 1583,
      "墟": 1584,
      "墩": 1585,
      "壊": 1586,
      "士": 1587,
      "壮": 1588,
      "売": 1589,
      "壳": 1590,
      "壹": 1591,
      "壽": 1592,
      "处": 1593,
      "备": 1594,
      "変": 1595,
      "复": 1596,
      "夏": 1597,
      "夕": 1598,
      "外": 1599,
      "多": 1600,
      "夛": 1601,
      "夜": 1602,
      "够": 1603,
      "夢": 1604,
      "大": 1605,
      "天": 1606,
      "太": 1607,
      "夫": 1608,
      "央": 1609,
      "头": 1610,
      "夷": 1611,
      "夹": 1612,
      "奄": 1613,
      "奇": 1614,
      "奈": 1615,
      "奉": 1616,
      "套": 1617,
      "奘": 1618,
      "奚": 1619,
      "奥": 1620,
      "女": 1621,
      "奶": 1622,
      "奸": 1623,
      "好": 1624,
      "如": 1625,
      "妖": 1626,
      "妤": 1627,
      "妨": 1628,
      "妻": 1629,
      "姆": 1630,
      "始": 1631,
      "委": 1632,
      "姦": 1633,
      "威": 1634,
      "娃": 1635,
      "娄": 1636,
      "娜": 1637,
      "娣": 1638,
      "娥": 1639,
      "娱": 1640,
      "婁": 1641,
      "婦": 1642,
      "婷": 1643,
      "媛": 1644,
      "嫌": 1645,
      "子": 1646,
      "字": 1647,
      "存": 1648,
      "季": 1649,
      "学": 1650,
      "孴": 1651,
      "學": 1652,
      "宁": 1653,
      "它": 1654,
      "宇": 1655,
      "安": 1656,
      "宋": 1657,
      "完": 1658,
      "宏": 1659,
      "宗": 1660,
      "官": 1661,
      "定": 1662,
      "宜": 1663,
      "宝": 1664,
      "实": 1665,
      "実": 1666,
      "客": 1667,
      "宣": 1668,
      "室": 1669,
      "宫": 1670,
      "宮": 1671,
      "宰": 1672,
      "家": 1673,
      "容": 1674,
      "宿": 1675,
      "寄": 1676,
      "密": 1677,
      "富": 1678,
      "寤": 1679,
      "實": 1680,
      "寧": 1681,
      "寨": 1682,
      "寳": 1683,
      "寶": 1684,
      "寸": 1685,
      "对": 1686,
      "寺": 1687,
      "寻": 1688,
      "寿": 1689,
      "専": 1690,
      "将": 1691,
      "小": 1692,
      "少": 1693,
      "尔": 1694,
      "尘": 1695,
      "就": 1696,
      "尽": 1697,
      "尾": 1698,
      "尿": 1699,
      "局": 1700,
      "屄": 1701,
      "居": 1702,
      "屈": 1703,
      "届": 1704,
      "屋": 1705,
      "屏": 1706,
      "展": 1707,
      "属": 1708,
      "屯": 1709,
      "山": 1710,
      "屿": 1711,
      "岐": 1712,
      "岗": 1713,
      "岛": 1714,
      "岡": 1715,
      "岩": 1716,
      "岭": 1717,
      "岳": 1718,
      "岷": 1719,
      "岸": 1720,
      "島": 1721,
      "峻": 1722,
      "峽": 1723,
      "崎": 1724,
      "崔": 1725,
      "崖": 1726,
      "崩": 1727,
      "嵥": 1728,
      "嶺": 1729,
      "嶼": 1730,
      "川": 1731,
      "州": 1732,
      "工": 1733,
      "左": 1734,
      "巧": 1735,
      "巨": 1736,
      "差": 1737,
      "己": 1738,
      "已": 1739,
      "巴": 1740,
      "巻": 1741,
      "市": 1742,
      "布": 1743,
      "师": 1744,
      "希": 1745,
      "帝": 1746,
      "帥": 1747,
      "带": 1748,
      "師": 1749,
      "席": 1750,
      "帯": 1751,
      "常": 1752,
      "幌": 1753,
      "幡": 1754,
      "幣": 1755,
      "干": 1756,
      "平": 1757,
      "年": 1758,
      "并": 1759,
      "幸": 1760,
      "幹": 1761,
      "幾": 1762,
      "广": 1763,
      "庁": 1764,
      "広": 1765,
      "庄": 1766,
      "庆": 1767,
      "序": 1768,
      "库": 1769,
      "应": 1770,
      "底": 1771,
      "店": 1772,
      "庚": 1773,
      "府": 1774,
      "废": 1775,
      "度": 1776,
      "座": 1777,
      "庫": 1778,
      "庭": 1779,
      "康": 1780,
      "廃": 1781,
      "廣": 1782,
      "建": 1783,
      "开": 1784,
      "弁": 1785,
      "异": 1786,
      "弄": 1787,
      "式": 1788,
      "弓": 1789,
      "弔": 1790,
      "引": 1791,
      "张": 1792,
      "弦": 1793,
      "張": 1794,
      "强": 1795,
      "当": 1796,
      "形": 1797,
      "彩": 1798,
      "彭": 1799,
      "彰": 1800,
      "影": 1801,
      "役": 1802,
      "彻": 1803,
      "彼": 1804,
      "征": 1805,
      "待": 1806,
      "很": 1807,
      "律": 1808,
      "後": 1809,
      "徐": 1810,
      "徒": 1811,
      "得": 1812,
      "御": 1813,
      "復": 1814,
      "循": 1815,
      "微": 1816,
      "徳": 1817,
      "德": 1818,
      "徹": 1819,
      "徽": 1820,
      "心": 1821,
      "必": 1822,
      "忆": 1823,
      "忍": 1824,
      "志": 1825,
      "忘": 1826,
      "応": 1827,
      "忠": 1828,
      "快": 1829,
      "念": 1830,
      "忻": 1831,
      "忽": 1832,
      "态": 1833,
      "怒": 1834,
      "思": 1835,
      "怡": 1836,
      "急": 1837,
      "性": 1838,
      "怪": 1839,
      "总": 1840,
      "恋": 1841,
      "恢": 1842,
      "恩": 1843,
      "息": 1844,
      "恵": 1845,
      "悟": 1846,
      "悠": 1847,
      "患": 1848,
      "您": 1849,
      "悩": 1850,
      "悪": 1851,
      "悬": 1852,
      "情": 1853,
      "惑": 1854,
      "惠": 1855,
      "惧": 1856,
      "惯": 1857,
      "想": 1858,
      "意": 1859,
      "愛": 1860,
      "感": 1861,
      "慈": 1862,
      "態": 1863,
      "慎": 1864,
      "慢": 1865,
      "慣": 1866,
      "慶": 1867,
      "憎": 1868,
      "憨": 1869,
      "憩": 1870,
      "憶": 1871,
      "憾": 1872,
      "應": 1873,
      "成": 1874,
      "我": 1875,
      "戒": 1876,
      "或": 1877,
      "战": 1878,
      "截": 1879,
      "戴": 1880,
      "戶": 1881,
      "户": 1882,
      "戸": 1883,
      "戻": 1884,
      "房": 1885,
      "所": 1886,
      "扈": 1887,
      "手": 1888,
      "才": 1889,
      "打": 1890,
      "払": 1891,
      "找": 1892,
      "承": 1893,
      "技": 1894,
      "投": 1895,
      "抗": 1896,
      "折": 1897,
      "抜": 1898,
      "护": 1899,
      "报": 1900,
      "抵": 1901,
      "抹": 1902,
      "押": 1903,
      "担": 1904,
      "拉": 1905,
      "拒": 1906,
      "拓": 1907,
      "招": 1908,
      "拟": 1909,
      "择": 1910,
      "括": 1911,
      "拳": 1912,
      "拼": 1913,
      "拿": 1914,
      "持": 1915,
      "挂": 1916,
      "指": 1917,
      "按": 1918,
      "挑": 1919,
      "挠": 1920,
      "挡": 1921,
      "振": 1922,
      "损": 1923,
      "据": 1924,
      "捷": 1925,
      "掉": 1926,
      "排": 1927,
      "掛": 1928,
      "採": 1929,
      "探": 1930,
      "接": 1931,
      "控": 1932,
      "推": 1933,
      "措": 1934,
      "掻": 1935,
      "揂": 1936,
      "揃": 1937,
      "提": 1938,
      "揚": 1939,
      "換": 1940,
      "握": 1941,
      "援": 1942,
      "搅": 1943,
      "損": 1944,
      "搜": 1945,
      "搞": 1946,
      "携": 1947,
      "摂": 1948,
      "摆": 1949,
      "摇": 1950,
      "摩": 1951,
      "撒": 1952,
      "撤": 1953,
      "撫": 1954,
      "播": 1955,
      "撮": 1956,
      "操": 1957,
      "支": 1958,
      "收": 1959,
      "改": 1960,
      "攻": 1961,
      "放": 1962,
      "政": 1963,
      "故": 1964,
      "效": 1965,
      "敏": 1966,
      "救": 1967,
      "教": 1968,
      "散": 1969,
      "敦": 1970,
      "敬": 1971,
      "数": 1972,
      "整": 1973,
      "文": 1974,
      "斗": 1975,
      "料": 1976,
      "斯": 1977,
      "新": 1978,
      "方": 1979,
      "施": 1980,
      "旅": 1981,
      "旋": 1982,
      "族": 1983,
      "无": 1984,
      "日": 1985,
      "旧": 1986,
      "旨": 1987,
      "旭": 1988,
      "旱": 1989,
      "时": 1990,
      "昇": 1991,
      "昌": 1992,
      "明": 1993,
      "易": 1994,
      "星": 1995,
      "映": 1996,
      "春": 1997,
      "昭": 1998,
      "是": 1999,
      "显": 2000,
      "時": 2001,
      "晏": 2002,
      "晨": 2003,
      "普": 2004,
      "景": 2005,
      "智": 2006,
      "暂": 2007,
      "暨": 2008,
      "暫": 2009,
      "暴": 2010,
      "曌": 2011,
      "曝": 2012,
      "更": 2013,
      "書": 2014,
      "曹": 2015,
      "曾": 2016,
      "最": 2017,
      "會": 2018,
      "月": 2019,
      "有": 2020,
      "服": 2021,
      "朔": 2022,
      "朗": 2023,
      "望": 2024,
      "朝": 2025,
      "期": 2026,
      "木": 2027,
      "未": 2028,
      "末": 2029,
      "本": 2030,
      "札": 2031,
      "术": 2032,
      "朱": 2033,
      "机": 2034,
      "杂": 2035,
      "李": 2036,
      "杏": 2037,
      "材": 2038,
      "村": 2039,
      "束": 2040,
      "条": 2041,
      "来": 2042,
      "杨": 2043,
      "杭": 2044,
      "東": 2045,
      "松": 2046,
      "板": 2047,
      "极": 2048,
      "构": 2049,
      "析": 2050,
      "林": 2051,
      "枚": 2052,
      "果": 2053,
      "枡": 2054,
      "枫": 2055,
      "架": 2056,
      "某": 2057,
      "染": 2058,
      "柔": 2059,
      "查": 2060,
      "柱": 2061,
      "柴": 2062,
      "标": 2063,
      "树": 2064,
      "校": 2065,
      "株": 2066,
      "样": 2067,
      "核": 2068,
      "根": 2069,
      "格": 2070,
      "栽": 2071,
      "桂": 2072,
      "桃": 2073,
      "框": 2074,
      "案": 2075,
      "桓": 2076,
      "桜": 2077,
      "桥": 2078,
      "桩": 2079,
      "桶": 2080,
      "梁": 2081,
      "梅": 2082,
      "梨": 2083,
      "械": 2084,
      "检": 2085,
      "棒": 2086,
      "森": 2087,
      "棲": 2088,
      "椅": 2089,
      "植": 2090,
      "検": 2091,
      "楠": 2092,
      "業": 2093,
      "極": 2094,
      "楼": 2095,
      "楽": 2096,
      "樓": 2097,
      "標": 2098,
      "模": 2099,
      "横": 2100,
      "樱": 2101,
      "樹": 2102,
      "橋": 2103,
      "機": 2104,
      "橿": 2105,
      "檀": 2106,
      "次": 2107,
      "欢": 2108,
      "欧": 2109,
      "款": 2110,
      "歌": 2111,
      "止": 2112,
      "正": 2113,
      "此": 2114,
      "步": 2115,
      "武": 2116,
      "歩": 2117,
      "歳": 2118,
      "歸": 2119,
      "死": 2120,
      "殊": 2121,
      "段": 2122,
      "殷": 2123,
      "殻": 2124,
      "殿": 2125,
      "毁": 2126,
      "母": 2127,
      "毎": 2128,
      "每": 2129,
      "毓": 2130,
      "比": 2131,
      "毛": 2132,
      "氏": 2133,
      "民": 2134,
      "气": 2135,
      "気": 2136,
      "氣": 2137,
      "氧": 2138,
      "氮": 2139,
      "水": 2140,
      "氷": 2141,
      "永": 2142,
      "汁": 2143,
      "求": 2144,
      "汇": 2145,
      "汉": 2146,
      "汕": 2147,
      "江": 2148,
      "池": 2149,
      "汤": 2150,
      "汴": 2151,
      "決": 2152,
      "沈": 2153,
      "沌": 2154,
      "沙": 2155,
      "沛": 2156,
      "没": 2157,
      "沢": 2158,
      "沪": 2159,
      "沱": 2160,
      "河": 2161,
      "油": 2162,
      "治": 2163,
      "沿": 2164,
      "況": 2165,
      "泄": 2166,
      "泉": 2167,
      "泊": 2168,
      "法": 2169,
      "波": 2170,
      "泥": 2171,
      "注": 2172,
      "泰": 2173,
      "泽": 2174,
      "洁": 2175,
      "洋": 2176,
      "洒": 2177,
      "洗": 2178,
      "洛": 2179,
      "洞": 2180,
      "洪": 2181,
      "洲": 2182,
      "活": 2183,
      "派": 2184,
      "流": 2185,
      "浄": 2186,
      "测": 2187,
      "济": 2188,
      "浙": 2189,
      "浜": 2190,
      "浦": 2191,
      "浮": 2192,
      "浴": 2193,
      "海": 2194,
      "涂": 2195,
      "消": 2196,
      "涌": 2197,
      "涩": 2198,
      "淡": 2199,
      "淫": 2200,
      "深": 2201,
      "混": 2202,
      "淹": 2203,
      "清": 2204,
      "済": 2205,
      "渋": 2206,
      "渐": 2207,
      "減": 2208,
      "渝": 2209,
      "渡": 2210,
      "温": 2211,
      "港": 2212,
      "渲": 2213,
      "渴": 2214,
      "游": 2215,
      "湄": 2216,
      "湖": 2217,
      "湘": 2218,
      "湯": 2219,
      "湾": 2220,
      "満": 2221,
      "溉": 2222,
      "源": 2223,
      "溜": 2224,
      "溝": 2225,
      "溢": 2226,
      "溥": 2227,
      "溪": 2228,
      "溫": 2229,
      "溯": 2230,
      "溶": 2231,
      "滇": 2232,
      "滞": 2233,
      "滨": 2234,
      "滬": 2235,
      "漢": 2236,
      "漫": 2237,
      "潜": 2238,
      "潟": 2239,
      "潢": 2240,
      "潭": 2241,
      "潮": 2242,
      "澄": 2243,
      "澎": 2244,
      "澤": 2245,
      "澳": 2246,
      "激": 2247,
      "濟": 2248,
      "濱": 2249,
      "灌": 2250,
      "灣": 2251,
      "火": 2252,
      "灯": 2253,
      "灰": 2254,
      "灾": 2255,
      "炎": 2256,
      "炯": 2257,
      "点": 2258,
      "為": 2259,
      "烈": 2260,
      "烏": 2261,
      "烦": 2262,
      "烧": 2263,
      "热": 2264,
      "無": 2265,
      "焦": 2266,
      "然": 2267,
      "焼": 2268,
      "煙": 2269,
      "照": 2270,
      "煩": 2271,
      "煮": 2272,
      "熊": 2273,
      "熟": 2274,
      "熨": 2275,
      "熱": 2276,
      "燃": 2277,
      "燕": 2278,
      "燗": 2279,
      "爆": 2280,
      "爛": 2281,
      "爪": 2282,
      "爱": 2283,
      "父": 2284,
      "爻": 2285,
      "爾": 2286,
      "片": 2287,
      "版": 2288,
      "牌": 2289,
      "牙": 2290,
      "牛": 2291,
      "物": 2292,
      "特": 2293,
      "状": 2294,
      "狐": 2295,
      "狗": 2296,
      "独": 2297,
      "狭": 2298,
      "猛": 2299,
      "猪": 2300,
      "献": 2301,
      "獄": 2302,
      "獲": 2303,
      "玄": 2304,
      "率": 2305,
      "玉": 2306,
      "王": 2307,
      "环": 2308,
      "现": 2309,
      "玲": 2310,
      "珈": 2311,
      "珍": 2312,
      "珠": 2313,
      "班": 2314,
      "球": 2315,
      "理": 2316,
      "琢": 2317,
      "琲": 2318,
      "瑠": 2319,
      "瑩": 2320,
      "璃": 2321,
      "璐": 2322,
      "環": 2323,
      "瓊": 2324,
      "瓶": 2325,
      "甜": 2326,
      "生": 2327,
      "用": 2328,
      "田": 2329,
      "由": 2330,
      "甲": 2331,
      "申": 2332,
      "电": 2333,
      "男": 2334,
      "甸": 2335,
      "町": 2336,
      "画": 2337,
      "界": 2338,
      "留": 2339,
      "畢": 2340,
      "略": 2341,
      "番": 2342,
      "畿": 2343,
      "疆": 2344,
      "疏": 2345,
      "疑": 2346,
      "疗": 2347,
      "疫": 2348,
      "病": 2349,
      "痛": 2350,
      "痴": 2351,
      "瘤": 2352,
      "癌": 2353,
      "癪": 2354,
      "発": 2355,
      "登": 2356,
      "白": 2357,
      "百": 2358,
      "的": 2359,
      "皇": 2360,
      "皮": 2361,
      "盆": 2362,
      "益": 2363,
      "盐": 2364,
      "监": 2365,
      "盖": 2366,
      "盗": 2367,
      "盛": 2368,
      "監": 2369,
      "盧": 2370,
      "目": 2371,
      "直": 2372,
      "相": 2373,
      "省": 2374,
      "看": 2375,
      "県": 2376,
      "真": 2377,
      "眩": 2378,
      "眼": 2379,
      "着": 2380,
      "睛": 2381,
      "睦": 2382,
      "瞎": 2383,
      "瞳": 2384,
      "瞻": 2385,
      "矢": 2386,
      "知": 2387,
      "短": 2388,
      "石": 2389,
      "矿": 2390,
      "码": 2391,
      "砂": 2392,
      "砕": 2393,
      "破": 2394,
      "硝": 2395,
      "硬": 2396,
      "确": 2397,
      "碁": 2398,
      "碍": 2399,
      "碧": 2400,
      "碳": 2401,
      "確": 2402,
      "磁": 2403,
      "磨": 2404,
      "磷": 2405,
      "礱": 2406,
      "示": 2407,
      "礼": 2408,
      "社": 2409,
      "祖": 2410,
      "祝": 2411,
      "神": 2412,
      "票": 2413,
      "祭": 2414,
      "祸": 2415,
      "祿": 2416,
      "禁": 2417,
      "禅": 2418,
      "福": 2419,
      "禪": 2420,
      "禹": 2421,
      "禽": 2422,
      "秀": 2423,
      "私": 2424,
      "秉": 2425,
      "秋": 2426,
      "种": 2427,
      "科": 2428,
      "租": 2429,
      "秦": 2430,
      "积": 2431,
      "称": 2432,
      "移": 2433,
      "稀": 2434,
      "稅": 2435,
      "程": 2436,
      "税": 2437,
      "稱": 2438,
      "稲": 2439,
      "稳": 2440,
      "稻": 2441,
      "稼": 2442,
      "稿": 2443,
      "穷": 2444,
      "空": 2445,
      "立": 2446,
      "站": 2447,
      "竜": 2448,
      "竞": 2449,
      "章": 2450,
      "端": 2451,
      "競": 2452,
      "竹": 2453,
      "笠": 2454,
      "第": 2455,
      "筆": 2456,
      "等": 2457,
      "筑": 2458,
      "答": 2459,
      "策": 2460,
      "签": 2461,
      "简": 2462,
      "箍": 2463,
      "箕": 2464,
      "管": 2465,
      "箱": 2466,
      "節": 2467,
      "篇": 2468,
      "簡": 2469,
      "米": 2470,
      "类": 2471,
      "粉": 2472,
      "粤": 2473,
      "粮": 2474,
      "粵": 2475,
      "精": 2476,
      "糖": 2477,
      "糸": 2478,
      "系": 2479,
      "紀": 2480,
      "紂": 2481,
      "紅": 2482,
      "紋": 2483,
      "納": 2484,
      "純": 2485,
      "紙": 2486,
      "級": 2487,
      "素": 2488,
      "索": 2489,
      "紧": 2490,
      "細": 2491,
      "紹": 2492,
      "終": 2493,
      "経": 2494,
      "結": 2495,
      "絞": 2496,
      "統": 2497,
      "經": 2498,
      "継": 2499,
      "続": 2500,
      "網": 2501,
      "綺": 2502,
      "総": 2503,
      "線": 2504,
      "縣": 2505,
      "縮": 2506,
      "繁": 2507,
      "織": 2508,
      "红": 2509,
      "约": 2510,
      "级": 2511,
      "纪": 2512,
      "纷": 2513,
      "纸": 2514,
      "纹": 2515,
      "纽": 2516,
      "线": 2517,
      "组": 2518,
      "细": 2519,
      "终": 2520,
      "绍": 2521,
      "经": 2522,
      "绝": 2523,
      "绞": 2524,
      "统": 2525,
      "绪": 2526,
      "续": 2527,
      "维": 2528,
      "缓": 2529,
      "缩": 2530,
      "缺": 2531,
      "网": 2532,
      "罗": 2533,
      "罪": 2534,
      "置": 2535,
      "署": 2536,
      "羅": 2537,
      "美": 2538,
      "群": 2539,
      "義": 2540,
      "羲": 2541,
      "羽": 2542,
      "翁": 2543,
      "習": 2544,
      "翠": 2545,
      "翻": 2546,
      "翼": 2547,
      "耀": 2548,
      "老": 2549,
      "考": 2550,
      "者": 2551,
      "而": 2552,
      "耐": 2553,
      "耕": 2554,
      "耳": 2555,
      "耶": 2556,
      "耸": 2557,
      "联": 2558,
      "聖": 2559,
      "聞": 2560,
      "聼": 2561,
      "肉": 2562,
      "股": 2563,
      "肥": 2564,
      "育": 2565,
      "胁": 2566,
      "背": 2567,
      "胖": 2568,
      "胜": 2569,
      "胞": 2570,
      "胡": 2571,
      "能": 2572,
      "脑": 2573,
      "脖": 2574,
      "脚": 2575,
      "脱": 2576,
      "腔": 2577,
      "腕": 2578,
      "腰": 2579,
      "腹": 2580,
      "腺": 2581,
      "膚": 2582,
      "臂": 2583,
      "臈": 2584,
      "臓": 2585,
      "臘": 2586,
      "臣": 2587,
      "臧": 2588,
      "臨": 2589,
      "自": 2590,
      "至": 2591,
      "致": 2592,
      "臺": 2593,
      "舁": 2594,
      "舅": 2595,
      "興": 2596,
      "舊": 2597,
      "舍": 2598,
      "舐": 2599,
      "舖": 2600,
      "舞": 2601,
      "舣": 2602,
      "舩": 2603,
      "航": 2604,
      "舫": 2605,
      "般": 2606,
      "艮": 2607,
      "良": 2608,
      "色": 2609,
      "艳": 2610,
      "节": 2611,
      "芋": 2612,
      "芝": 2613,
      "芦": 2614,
      "花": 2615,
      "苏": 2616,
      "苑": 2617,
      "若": 2618,
      "英": 2619,
      "茂": 2620,
      "茜": 2621,
      "茨": 2622,
      "茶": 2623,
      "草": 2624,
      "荣": 2625,
      "荷": 2626,
      "莉": 2627,
      "莞": 2628,
      "莨": 2629,
      "莲": 2630,
      "获": 2631,
      "莹": 2632,
      "菜": 2633,
      "菩": 2634,
      "華": 2635,
      "菱": 2636,
      "萄": 2637,
      "营": 2638,
      "萧": 2639,
      "萬": 2640,
      "落": 2641,
      "葉": 2642,
      "著": 2643,
      "葡": 2644,
      "董": 2645,
      "蒋": 2646,
      "蒸": 2647,
      "蓋": 2648,
      "蓟": 2649,
      "蓮": 2650,
      "蔓": 2651,
      "蔚": 2652,
      "蔣": 2653,
      "蕭": 2654,
      "蕴": 2655,
      "薇": 2656,
      "薊": 2657,
      "薔": 2658,
      "薬": 2659,
      "薯": 2660,
      "藍": 2661,
      "藏": 2662,
      "藕": 2663,
      "藤": 2664,
      "蘇": 2665,
      "虑": 2666,
      "號": 2667,
      "虫": 2668,
      "蛋": 2669,
      "蜀": 2670,
      "蝦": 2671,
      "融": 2672,
      "螨": 2673,
      "螳": 2674,
      "螺": 2675,
      "蟲": 2676,
      "血": 2677,
      "衆": 2678,
      "行": 2679,
      "術": 2680,
      "街": 2681,
      "衡": 2682,
      "衣": 2683,
      "表": 2684,
      "裂": 2685,
      "装": 2686,
      "裕": 2687,
      "製": 2688,
      "西": 2689,
      "要": 2690,
      "見": 2691,
      "視": 2692,
      "覧": 2693,
      "親": 2694,
      "観": 2695,
      "覺": 2696,
      "见": 2697,
      "观": 2698,
      "视": 2699,
      "觉": 2700,
      "角": 2701,
      "解": 2702,
      "触": 2703,
      "言": 2704,
      "訃": 2705,
      "訊": 2706,
      "討": 2707,
      "訓": 2708,
      "記": 2709,
      "設": 2710,
      "許": 2711,
      "訳": 2712,
      "詠": 2713,
      "試": 2714,
      "詩": 2715,
      "詰": 2716,
      "話": 2717,
      "詳": 2718,
      "詹": 2719,
      "誓": 2720,
      "語": 2721,
      "說": 2722,
      "説": 2723,
      "読": 2724,
      "調": 2725,
      "談": 2726,
      "請": 2727,
      "論": 2728,
      "諸": 2729,
      "謑": 2730,
      "證": 2731,
      "警": 2732,
      "譯": 2733,
      "護": 2734,
      "讃": 2735,
      "變": 2736,
      "计": 2737,
      "讣": 2738,
      "认": 2739,
      "讨": 2740,
      "让": 2741,
      "议": 2742,
      "讯": 2743,
      "记": 2744,
      "讲": 2745,
      "许": 2746,
      "论": 2747,
      "讼": 2748,
      "设": 2749,
      "证": 2750,
      "评": 2751,
      "识": 2752,
      "诉": 2753,
      "译": 2754,
      "试": 2755,
      "诘": 2756,
      "话": 2757,
      "该": 2758,
      "详": 2759,
      "语": 2760,
      "说": 2761,
      "请": 2762,
      "诺": 2763,
      "课": 2764,
      "调": 2765,
      "谈": 2766,
      "谋": 2767,
      "谢": 2768,
      "谷": 2769,
      "豆": 2770,
      "豊": 2771,
      "豐": 2772,
      "豫": 2773,
      "貌": 2774,
      "負": 2775,
      "財": 2776,
      "貢": 2777,
      "販": 2778,
      "貮": 2779,
      "貰": 2780,
      "貴": 2781,
      "貸": 2782,
      "費": 2783,
      "賀": 2784,
      "資": 2785,
      "賈": 2786,
      "賢": 2787,
      "贊": 2788,
      "贞": 2789,
      "负": 2790,
      "贡": 2791,
      "贤": 2792,
      "货": 2793,
      "质": 2794,
      "贫": 2795,
      "购": 2796,
      "贱": 2797,
      "贳": 2798,
      "贷": 2799,
      "贸": 2800,
      "费": 2801,
      "资": 2802,
      "赌": 2803,
      "赖": 2804,
      "赛": 2805,
      "赞": 2806,
      "赤": 2807,
      "赵": 2808,
      "赶": 2809,
      "起": 2810,
      "超": 2811,
      "越": 2812,
      "趋": 2813,
      "趙": 2814,
      "足": 2815,
      "跆": 2816,
      "跋": 2817,
      "跟": 2818,
      "跨": 2819,
      "路": 2820,
      "跳": 2821,
      "踌": 2822,
      "蹟": 2823,
      "躇": 2824,
      "躊": 2825,
      "躍": 2826,
      "身": 2827,
      "車": 2828,
      "軍": 2829,
      "転": 2830,
      "較": 2831,
      "載": 2832,
      "輪": 2833,
      "车": 2834,
      "转": 2835,
      "轮": 2836,
      "轻": 2837,
      "载": 2838,
      "较": 2839,
      "辑": 2840,
      "辛": 2841,
      "辞": 2842,
      "辭": 2843,
      "辱": 2844,
      "農": 2845,
      "込": 2846,
      "达": 2847,
      "迅": 2848,
      "过": 2849,
      "迎": 2850,
      "运": 2851,
      "近": 2852,
      "返": 2853,
      "还": 2854,
      "这": 2855,
      "进": 2856,
      "远": 2857,
      "连": 2858,
      "迫": 2859,
      "述": 2860,
      "迷": 2861,
      "追": 2862,
      "送": 2863,
      "适": 2864,
      "逃": 2865,
      "逆": 2866,
      "选": 2867,
      "透": 2868,
      "途": 2869,
      "通": 2870,
      "速": 2871,
      "造": 2872,
      "逢": 2873,
      "連": 2874,
      "逸": 2875,
      "遇": 2876,
      "遊": 2877,
      "運": 2878,
      "過": 2879,
      "道": 2880,
      "達": 2881,
      "遗": 2882,
      "遝": 2883,
      "遠": 2884,
      "遣": 2885,
      "適": 2886,
      "遪": 2887,
      "遭": 2888,
      "遲": 2889,
      "遷": 2890,
      "遽": 2891,
      "避": 2892,
      "還": 2893,
      "邊": 2894,
      "邑": 2895,
      "那": 2896,
      "邱": 2897,
      "郎": 2898,
      "郑": 2899,
      "郝": 2900,
      "郡": 2901,
      "部": 2902,
      "郷": 2903,
      "都": 2904,
      "鄂": 2905,
      "鄉": 2906,
      "鄭": 2907,
      "酉": 2908,
      "配": 2909,
      "酎": 2910,
      "酒": 2911,
      "酸": 2912,
      "采": 2913,
      "釉": 2914,
      "里": 2915,
      "重": 2916,
      "野": 2917,
      "量": 2918,
      "金": 2919,
      "釣": 2920,
      "鈍": 2921,
      "鈴": 2922,
      "鉄": 2923,
      "鉋": 2924,
      "銀": 2925,
      "銭": 2926,
      "鋍": 2927,
      "鋑": 2928,
      "鋒": 2929,
      "鋓": 2930,
      "鋖": 2931,
      "鋘": 2932,
      "鋜": 2933,
      "鋝": 2934,
      "鋞": 2935,
      "鋟": 2936,
      "録": 2937,
      "鍋": 2938,
      "鎚": 2939,
      "鏡": 2940,
      "鐵": 2941,
      "针": 2942,
      "钓": 2943,
      "钟": 2944,
      "钢": 2945,
      "钦": 2946,
      "钧": 2947,
      "钱": 2948,
      "铁": 2949,
      "铃": 2950,
      "铭": 2951,
      "银": 2952,
      "链": 2953,
      "销": 2954,
      "锈": 2955,
      "锋": 2956,
      "错": 2957,
      "锦": 2958,
      "键": 2959,
      "镜": 2960,
      "長": 2961,
      "长": 2962,
      "門": 2963,
      "開": 2964,
      "間": 2965,
      "関": 2966,
      "閣": 2967,
      "閥": 2968,
      "閩": 2969,
      "關": 2970,
      "门": 2971,
      "问": 2972,
      "间": 2973,
      "闵": 2974,
      "闻": 2975,
      "闽": 2976,
      "阜": 2977,
      "队": 2978,
      "阪": 2979,
      "防": 2980,
      "阳": 2981,
      "阶": 2982,
      "阻": 2983,
      "阿": 2984,
      "陀": 2985,
      "际": 2986,
      "陈": 2987,
      "降": 2988,
      "限": 2989,
      "院": 2990,
      "除": 2991,
      "险": 2992,
      "陰": 2993,
      "陳": 2994,
      "陵": 2995,
      "陶": 2996,
      "陽": 2997,
      "隆": 2998,
      "隊": 2999,
      "階": 3000,
      "際": 3001,
      "障": 3002,
      "难": 3003,
      "雄": 3004,
      "雅": 3005,
      "集": 3006,
      "雙": 3007,
      "雛": 3008,
      "離": 3009,
      "難": 3010,
      "雨": 3011,
      "雪": 3012,
      "雲": 3013,
      "雷": 3014,
      "電": 3015,
      "需": 3016,
      "霊": 3017,
      "霖": 3018,
      "霜": 3019,
      "露": 3020,
      "青": 3021,
      "静": 3022,
      "非": 3023,
      "靠": 3024,
      "面": 3025,
      "革": 3026,
      "靳": 3027,
      "韓": 3028,
      "音": 3029,
      "韻": 3030,
      "頂": 3031,
      "項": 3032,
      "順": 3033,
      "須": 3034,
      "頑": 3035,
      "領": 3036,
      "頭": 3037,
      "題": 3038,
      "顗": 3039,
      "顯": 3040,
      "页": 3041,
      "顶": 3042,
      "顷": 3043,
      "须": 3044,
      "顾": 3045,
      "预": 3046,
      "颐": 3047,
      "颖": 3048,
      "题": 3049,
      "颜": 3050,
      "额": 3051,
      "風": 3052,
      "风": 3053,
      "飛": 3054,
      "飞": 3055,
      "食": 3056,
      "飯": 3057,
      "飲": 3058,
      "飼": 3059,
      "館": 3060,
      "饮": 3061,
      "饲": 3062,
      "馆": 3063,
      "首": 3064,
      "香": 3065,
      "馬": 3066,
      "駄": 3067,
      "駅": 3068,
      "験": 3069,
      "騙": 3070,
      "騜": 3071,
      "驗": 3072,
      "马": 3073,
      "验": 3074,
      "骨": 3075,
      "髄": 3076,
      "體": 3077,
      "高": 3078,
      "鬼": 3079,
      "魔": 3080,
      "鮨": 3081,
      "鮮": 3082,
      "鯨": 3083,
      "鰀": 3084,
      "鰃": 3085,
      "鰄": 3086,
      "鰈": 3087,
      "鰊": 3088,
      "鰎": 3089,
      "鱲": 3090,
      "鱼": 3091,
      "鲁": 3092,
      "鲞": 3093,
      "鳩": 3094,
      "鳳": 3095,
      "鴻": 3096,
      "鵜": 3097,
      "鷹": 3098,
      "鸡": 3099,
      "鸭": 3100,
      "鸯": 3101,
      "鸳": 3102,
      "鹅": 3103,
      "鹈": 3104,
      "鹤": 3105,
      "鹿": 3106,
      "麗": 3107,
      "麩": 3108,
      "麺": 3109,
      "黃": 3110,
      "黄": 3111,
      "黎": 3112,
      "黒": 3113,
      "黚": 3114,
      "點": 3115,
      "黡": 3116,
      "黨": 3117,
      "黮": 3118,
      "黵": 3119,
      "黷": 3120,
      "鼻": 3121,
      "齋": 3122,
      "齡": 3123,
      "龍": 3124,
      "龙": 3125,
      "ꭰ": 3126,
      "ꭲ": 3127,
      "ꮊ": 3128,
      "": 3129,
      "": 3130,
      "": 3131,
      "": 3132,
      "": 3133,
      "": 3134,
      "": 3135,
      "": 3136,
      "": 3137,
      "": 3138,
      "": 3139,
      "": 3140,
      "": 3141,
      "": 3142,
      "": 3143,
      "": 3144,
      "": 3145,
      "": 3146,
      "": 3147,
      "": 3148,
      "": 3149,
      "": 3150,
      "": 3151,
      "": 3152,
      "": 3153,
      "": 3154,
      "": 3155,
      "": 3156,
      "ﬁ": 3157,
      "ﬂ": 3158,
      "ﷲ": 3159,
      "︰": 3160,
      "ﺍ": 3161,
      "ﺏ": 3162,
      "ﺤ": 3163,
      "ﺩ": 3164,
      "ﻁ": 3165,
      "ﻙ": 3166,
      "ﻫ": 3167,
      "﻿": 3168,
      "！": 3169,
      "＄": 3170,
      "（": 3171,
      "）": 3172,
      "＊": 3173,
      "，": 3174,
      "－": 3175,
      "．": 3176,
      "１": 3177,
      "２": 3178,
      "７": 3179,
      "９": 3180,
      "：": 3181,
      "；": 3182,
      "？": 3183,
      "［": 3184,
      "］": 3185,
      "ｂ": 3186,
      "ｄ": 3187,
      "ｅ": 3188,
      "ｈ": 3189,
      "ｉ": 3190,
      "ｌ": 3191,
      "ｏ": 3192,
      "ｐ": 3193,
      "ｓ": 3194,
      "ｔ": 3195,
      "ｕ": 3196,
      "ｖ": 3197,
      "､": 3198,
      "･": 3199,
      "ｫ": 3200,
      "ｲ": 3201,
      "ｻ": 3202,
      "ｿ": 3203,
      "ﾜ": 3204,
      "ﾟ": 3205,
      "￠": 3206,
      "￡": 3207,
      "￥": 3208,
      "￼": 3209,
      "�": 3210,
      "𐌰": 3211,
      "𐌴": 3212,
      "𐌸": 3213,
      "𐌼": 3214,
      "𐌽": 3215,
      "𐍃": 3216,
      "𐍉": 3217,
      "𠐄": 3218,
      "𢥲": 3219,
      "𧵮": 3220,
      "𲠄": 3221,
      "𲠤": 3222,
      "򮬩": 3223,
      "򮮥": 3224,
      "򲤥": 3225,
      "򲵮": 3226,
      "򴩧": 3227,
      "##.": 3228,
      "##\"": 3229,
      "##v": 3230,
      "##e": 3231,
      "##r": 3232,
      "##d": 3233,
      "##a": 3234,
      "##g": 3235,
      "##u": 3236,
      "##s": 3237,
      "##t": 3238,
      "##n": 3239,
      "##h": 3240,
      "##i": 3241,
      "##l": 3242,
      "##f": 3243,
      "##b": 3244,
      "##c": 3245,
      "##w": 3246,
      "##m": 3247,
      "##p": 3248,
      "##o": 3249,
      "##̈": 3250,
      "##k": 3251,
      "##y": 3252,
      "##z": 3253,
      "##̀": 3254,
      "##ß": 3255,
      "##̌": 3256,
      "##́": 3257,
      "##j": 3258,
      "##2": 3259,
      "##0": 3260,
      "##9": 3261,
      "##q": 3262,
      "##̂": 3263,
      "##1": 3264,
      "##е": 3265,
      "##в": 3266,
      "##р": 3267,
      "##x": 3268,
      "##_": 3269,
      "##и": 3270,
      "##л": 3271,
      "##ь": 3272,
      "##я": 3273,
      "##т": 3274,
      "##о": 3275,
      "##п": 3276,
      "##а": 3277,
      "##к": 3278,
      "##д": 3279,
      "##本": 3280,
      "##大": 3281,
      "##通": 3282,
      "##り": 3283,
      "##…": 3284,
      "##“": 3285,
      "##̄": 3286,
      "##7": 3287,
      "###": 3288,
      "##ł": 3289,
      "##̇": 3290,
      "##г": 3291,
      "##ю": 3292,
      "##6": 3293,
      "##:": 3294,
      "##3": 3295,
      "##5": 3296,
      "##4": 3297,
      "##̆": 3298,
      "##̧": 3299,
      "##ø": 3300,
      "##β": 3301,
      "##ч": 3302,
      "##с": 3303,
      "##х": 3304,
      "##8": 3305,
      "##ð": 3306,
      "##®": 3307,
      "##ј": 3308,
      "##н": 3309,
      "##ц": 3310,
      "##у": 3311,
      "##ı": 3312,
      "##і": 3313,
      "##ф": 3314,
      "##ы": 3315,
      "##м": 3316,
      "##б": 3317,
      "##щ": 3318,
      "##̨": 3319,
      "##(": 3320,
      "##+": 3321,
      "##)": 3322,
      "##,": 3323,
      "##น": 3324,
      "##ม": 3325,
      "##ο": 3326,
      "##υ": 3327,
      "##æ": 3328,
      "##]": 3329,
      "##;": 3330,
      "##ﬁ": 3331,
      "##̊": 3332,
      "##þ": 3333,
      "##ρ": 3334,
      "##σ": 3335,
      "##ω": 3336,
      "##π": 3337,
      "##ι": 3338,
      "##κ": 3339,
      "##τ": 3340,
      "##η": 3341,
      "##α": 3342,
      "##̃": 3343,
      "##ە": 3344,
      "##ر": 3345,
      "##ن": 3346,
      "##ب": 3347,
      "##ۇ": 3348,
      "##ل": 3349,
      "##ا": 3350,
      "##ق": 3351,
      "##„": 3352,
      "##[": 3353,
      "##ﬂ": 3354,
      "##゙": 3355,
      "##θ": 3356,
      "##ε": 3357,
      "##’": 3358,
      "##λ": 3359,
      "##º": 3360,
      "##/": 3361,
      "##@": 3362,
      "##ɔ": 3363,
      "##ː": 3364,
      "##ɪ": 3365,
      "##统": 3366,
      "##吴": 3367,
      "##志": 3368,
      "##宁": 3369,
      "##-": 3370,
      "##护": 3371,
      "##主": 3372,
      "##义": 3373,
      "##威": 3374,
      "##胁": 3375,
      "##着": 3376,
      "##开": 3377,
      "##放": 3378,
      "##市": 3379,
      "##场": 3380,
      "##和": 3381,
      "##增": 3382,
      "##长": 3383,
      "##ш": 3384,
      "##ψ": 3385,
      "##?": 3386,
      "##ก": 3387,
      "##า": 3388,
      "##ะ": 3389,
      "##ช": 3390,
      "##้": 3391,
      "##ง": 3392,
      "##龍": 3393,
      "##γ": 3394,
      "##μ": 3395,
      "##з": 3396,
      "##$": 3397,
      "##!": 3398,
      "##ζ": 3399,
      "##ς": 3400,
      "##京": 3401,
      "##欢": 3402,
      "##迎": 3403,
      "##你": 3404,
      "##�": 3405,
      "##ж": 3406,
      "##箱": 3407,
      "##>": 3408,
      "##灣": 3409,
      "##桃": 3410,
      "##園": 3411,
      "##國": 3412,
      "##際": 3413,
      "##機": 3414,
      "##場": 3415,
      "##đ": 3416,
      "##̋": 3417,
      "##€": 3418,
      "##џ": 3419,
      "##ћ": 3420,
      "##™": 3421,
      "##δ": 3422,
      "##ي": 3423,
      "##و": 3424,
      "##ت": 3425,
      "##'": 3426,
      "##”": 3427,
      "##务": 3428,
      "##头": 3429,
      "##ґ": 3430,
      "##œ": 3431,
      "##ร": 3432,
      "##ส": 3433,
      "##่": 3434,
      "##ข": 3435,
      "##ว": 3436,
      "##ห": 3437,
      "##เ": 3438,
      "##ื": 3439,
      "##อ": 3440,
      "##ั": 3441,
      "##บ": 3442,
      "##張": 3443,
      "##̣": 3444,
      "##石": 3445,
      "##ν": 3446,
      "##ˈ": 3447,
      "##ɑ": 3448,
      "##χ": 3449,
      "##ف": 3450,
      "##ع": 3451,
      "##̔": 3452,
      "##も": 3453,
      "##の": 3454,
      "##َ": 3455,
      "##ْ": 3456,
      "##﻿": 3457,
      "##ो": 3458,
      "##}": 3459,
      "##—": 3460,
      "##ص": 3461,
      "##ه": 3462,
      "##´": 3463,
      "##田": 3464,
      "##区": 3465,
      "##华": 3466,
      "##强": 3467,
      "##北": 3468,
      "##路": 3469,
      "##": 3470,
      "##国": 3471,
      "##*": 3472,
      "##鋘": 3473,
      "##<": 3474,
      "##食": 3475,
      "##‭": 3476,
      "##テ": 3477,
      "##ィ": 3478,
      "##フ": 3479,
      "##ァ": 3480,
      "##イ": 3481,
      "##ア": 3482,
      "##ン": 3483,
      "##ト": 3484,
      "##皇": 3485,
      "##س": 3486,
      "##م": 3487,
      "##φ": 3488,
      "##加": 3489,
      "##化": 3490,
      "##燃": 3491,
      "##料": 3492,
      "##使": 3493,
      "##用": 3494,
      "##越": 3495,
      "##ѕ": 3496,
      "##ƒ": 3497,
      "##̱": 3498,
      "##ע": 3499,
      "##ו": 3500,
      "##ב": 3501,
      "##ד": 3502,
      "##י": 3503,
      "##ם": 3504,
      "##持": 3505,
      "##歩": 3506,
      "##ʊ": 3507,
      "##上": 3508,
      "##申": 3509,
      "##њ": 3510,
      "##ᅥ": 3511,
      "##ᄅ": 3512,
      "##ᅡ": 3513,
      "##د": 3514,
      "##ح": 3515,
      "##母": 3516,
      "##子": 3517,
      "##乱": 3518,
      "##伦": 3519,
      "##免": 3520,
      "##费": 3521,
      "##电": 3522,
      "##影": 3523,
      "##下": 3524,
      "##载": 3525,
      "##工": 3526,
      "##房": 3527,
      "##ዲ": 3528,
      "##נ": 3529,
      "##ק": 3530,
      "##א": 3531,
      "##ט": 3532,
      "##ש": 3533,
      "##魔": 3534,
      "##城": 3535,
      "##ラ": 3536,
      "##キ": 3537,
      "##ュ": 3538,
      "##♀": 3539,
      "##«": 3540,
      "##ъ": 3541,
      "##˚": 3542,
      "##鋍": 3543,
      "##ђ": 3544,
      "##ל": 3545,
      "##ר": 3546,
      "##є": 3547,
      "##车": 3548,
      "##海": 3549,
      "##老": 3550,
      "##废": 3551,
      "##中": 3552,
      "##提": 3553,
      "##取": 3554,
      "##营": 3555,
      "##养": 3556,
      "##素": 3557,
      "##的": 3558,
      "##技": 3559,
      "##术": 3560,
      "##已": 3561,
      "##经": 3562,
      "##发": 3563,
      "##明": 3564,
      "##岭": 3565,
      "##山": 3566,
      "##": 3567,
      "##{": 3568,
      "##ك": 3569,
      "##ᄂ": 3570,
      "##ᅧ": 3571,
      "##ᆫ": 3572,
      "##ِ": 3573,
      "##ุ": 3574,
      "##ᅮ": 3575,
      "##ᆼ": 3576,
      "##ᄆ": 3577,
      "##ᅩ": 3578,
      "##律": 3579,
      "##德": 3580,
      "##光": 3581,
      "##易": 3582,
      "##之": 3583,
      "##若": 3584,
      "##妻": 3585,
      "##מ": 3586,
      "##茶": 3587,
      "##ة": 3588,
      "##ח": 3589,
      "##昇": 3590,
      "##ธ": 3591,
      "##ɐ": 3592,
      "##ɾ": 3593,
      "##ʃ": 3594,
      "##э": 3595,
      "##ה": 3596,
      "##是": 3597,
      "##=": 3598,
      "##^": 3599,
      "##ᅢ": 3600,
      "##ᄇ": 3601,
      "##ᆨ": 3602,
      "##ᄉ": 3603,
      "##字": 3604,
      "##于": 3605,
      "##疫": 3606,
      "##球": 3607,
      "##蛋": 3608,
      "##白": 3609,
      "##": 3610,
      "##问": 3611,
      "##题": 3612,
      "##­": 3613,
      "##済": 3614,
      "##ˆ": 3615,
      "##̛": 3616,
      "##ی": 3617,
      "##ک": 3618,
      "##呆": 3619,
      "##而": 3620,
      "##刨": 3621,
      "##纹": 3622,
      "##賢": 3623,
      "##约": 3624,
      "##时": 3625,
      "##报": 3626,
      "##消": 3627,
      "##息": 3628,
      "##ณ": 3629,
      "##ู": 3630,
      "##ต": 3631,
      "##ค": 3632,
      "##ไ": 3633,
      "##訓": 3634,
      "##": 3635,
      "##&": 3636,
      "##立": 3637,
      "##故": 3638,
      "##宫": 3639,
      "##博": 3640,
      "##物": 3641,
      "##院": 3642,
      "##ض": 3643,
      "##か": 3644,
      "##\\": 3645,
      "##ล": 3646,
      "##ใ": 3647,
      "##๊": 3648,
      "##讯": 3649,
      "##ξ": 3650,
      "##王": 3651,
      "##娃": 3652,
      "##ย": 3653,
      "##ท": 3654,
      "##ี": 3655,
      "##غ": 3656,
      "##ן": 3657,
      "##凄": 3658,
      "##正": 3659,
      "##体": 3660,
      "##文": 3661,
      "##ิ": 3662,
      "##ى": 3663,
      "##れ": 3664,
      "##ﻁ": 3665,
      "##ُ": 3666,
      "##育": 3667,
      "##館": 3668,
      "##师": 3669,
      "##分": 3670,
      "##析": 3671,
      "##出": 3672,
      "##这": 3673,
      "##桩": 3674,
      "##可": 3675,
      "##能": 3676,
      "##卓": 3677,
      "##钧": 3678,
      "##人": 3679,
      "##·": 3680,
      "##帝": 3681,
      "##内": 3682,
      "##經": 3683,
      "##−": 3684,
      "##小": 3685,
      "##说": 3686,
      "##幾": 3687,
      "##照": 3688,
      "##元": 3689,
      "##情": 3690,
      "##報": 3691,
      "##~": 3692,
      "##気": 3693,
      "##方": 3694,
      "##根": 3695,
      "##૦": 3696,
      "##૧": 3697,
      "##网": 3698,
      "##站": 3699,
      "##衆": 3700,
      "##電": 3701,
      "##話": 3702,
      "##ٔ": 3703,
      "##ำ": 3704,
      "##ผ": 3705,
      "##管": 3706,
      "##得": 3707,
      "##了": 3708,
      "##肥": 3709,
      "##כ": 3710,
      "##西": 3711,
      "##援": 3712,
      "##交": 3713,
      "##හ": 3714,
      "##ᅦ": 3715,
      "##ᄌ": 3716,
      "##ᅵ": 3717,
      "##科": 3718,
      "##ʼ": 3719,
      "##ल": 3720,
      "##्": 3721,
      "##क": 3722,
      "##ि": 3723,
      "##न": 3724,
      "##也": 3725,
      "##始": 3726,
      "##›": 3727,
      "##江": 3728,
      "##を": 3729,
      "##す": 3730,
      "##ま": 3731,
      "##せ": 3732,
      "##は": 3733,
      "##┐": 3734,
      "##▒": 3735,
      "##┌": 3736,
      "##噛": 3737,
      "##み": 3738,
      "##酒": 3739,
      "##手": 3740,
      "##線": 3741,
      "##ᄃ": 3742,
      "##孴": 3743,
      "##鰄": 3744,
      "##พ": 3745,
      "##告": 3746,
      "##片": 3747,
      "##µ": 3748,
      "##サ": 3749,
      "##ー": 3750,
      "##ス": 3751,
      "##ɛ": 3752,
      "##読": 3753,
      "##қ": 3754,
      "##ң": 3755,
      "##厂": 3756,
      "##ら": 3757,
      "##き": 3758,
      "##鋖": 3759,
      "##–": 3760,
      "##查": 3761,
      "##显": 3762,
      "##示": 3763,
      "##普": 3764,
      "##及": 3765,
      "##率": 3766,
      "##谷": 3767,
      "##歌": 3768,
      "##倍": 3769,
      "##寿": 3770,
      "##‬": 3771,
      "##¥": 3772,
      "##گ": 3773,
      "##价": 3774,
      "##格": 3775,
      "##收": 3776,
      "##购": 3777,
      "##ᆯ": 3778,
      "##ᅳ": 3779,
      "##位": 3780,
      "##検": 3781,
      "##索": 3782,
      "##ツ": 3783,
      "##ル": 3784,
      "##ጨ": 3785,
      "##ረ": 3786,
      "##ሻ": 3787,
      "##|": 3788,
      "##ሊ": 3789,
      "##ን": 3790,
      "##ተ": 3791,
      "##¦": 3792,
      "##ّ": 3793,
      "##舖": 3794,
      "##姦": 3795,
      "##荣": 3796,
      "##島": 3797,
      "##列": 3798,
      "##ด": 3799,
      "##寤": 3800,
      "##ֹ": 3801,
      "##細": 3802,
      "##亜": 3803,
      "##ת": 3804,
      "##媛": 3805,
      "##県": 3806,
      "##ׁ": 3807,
      "##ش": 3808,
      "##‘": 3809,
      "##¬": 3810,
      "##̉": 3811,
      "##年": 3812,
      "##叫": 3813,
      "##派": 3814,
      "##甜": 3815,
      "##心": 3816,
      "##%": 3817,
      "##该": 3818,
      "##千": 3819,
      "##三": 3820,
      "##号": 3821,
      "##な": 3822,
      "##い": 3823,
      "##て": 3824,
      "##し": 3825,
      "##ょ": 3826,
      "##ط": 3827,
      "##別": 3828,
      "##漢": 3829,
      "##配": 3830,
      "##当": 3831,
      "##表": 3832,
      "##ִ": 3833,
      "##ְ": 3834,
      "##ָ": 3835,
      "##§": 3836,
      "##ج": 3837,
      "##禅": 3838,
      "##©": 3839,
      "##道": 3840,
      "##淹": 3841,
      "##过": 3842,
      "##‑": 3843,
      "##赤": 3844,
      "##嶺": 3845,
      "##界": 3846,
      "##狭": 3847,
      "##っ": 3848,
      "##ゆ": 3849,
      "##く": 3850,
      "##落": 3851,
      "##徒": 3852,
      "##然": 3853,
      "##録": 3854,
      "##商": 3855,
      "##標": 3856,
      "##»": 3857,
      "##ሽ": 3858,
      "##信": 3859,
      "##广": 3860,
      "##•": 3861,
      "##民": 3862,
      "##共": 3863,
      "##―": 3864,
      "##堆": 3865,
      "##๋": 3866,
      "##木": 3867,
      "##町": 3868,
      "##駅": 3869,
      "##ถ": 3870,
      "##狐": 3871,
      "##定": 3872,
      "##席": 3873,
      "##ּ": 3874,
      "##什": 3875,
      "##̓": 3876,
      "##華": 3877,
      "##相": 3878,
      "##机": 3879,
      "##客": 3880,
      "##危": 3881,
      "##惧": 3882,
      "##¹": 3883,
      "##ा": 3884,
      "##म": 3885,
      "##司": 3886,
      "##¡": 3887,
      "##خ": 3888,
      "##量": 3889,
      "##带": 3890,
      "##来": 3891,
      "##四": 3892,
      "##粮": 3893,
      "##总": 3894,
      "##产": 3895,
      "##驗": 3896,
      "##香": 3897,
      "##所": 3898,
      "##採": 3899,
      "##口": 3900,
      "##號": 3901,
      "##ز": 3902,
      "##鰈": 3903,
      "##楽": 3904,
      "##器": 3905,
      "##製": 3906,
      "##造": 3907,
      "##株": 3908,
      "##式": 3909,
      "##会": 3910,
      "##社": 3911,
      "##保": 3912,
      "##太": 3913,
      "##監": 3914,
      "##洋": 3915,
      "##松": 3916,
      "##岛": 3917,
      "##枫": 3918,
      "##ᄒ": 3919,
      "##ᅬ": 3920,
      "##鉋": 3921,
      "##紋": 3922,
      "##樓": 3923,
      "##劇": 3924,
      "##知": 3925,
      "##们": 3926,
      "##品": 3927,
      "##比": 3928,
      "##以": 3929,
      "##前": 3930,
      "##更": 3931,
      "##安": 3932,
      "##全": 3933,
      "##些": 3934,
      "##进": 3935,
      "##步": 3936,
      "##深": 3937,
      "##感": 3938,
      "##疑": 3939,
      "##温": 3940,
      "##度": 3941,
      "##升": 3942,
      "##高": 3943,
      "##让": 3944,
      "##较": 3945,
      "##冷": 3946,
      "##地": 3947,
      "##适": 3948,
      "##合": 3949,
      "##农": 3950,
      "##业": 3951,
      "##生": 3952,
      "##แ": 3953,
      "##萧": 3954,
      "##洒": 3955,
      "##実": 3956,
      "##无": 3957,
      "##慢": 3958,
      "##た": 3959,
      "##ね": 3960,
      "##称": 3961,
      "##龙": 3962,
      "##臈": 3963,
      "##汇": 3964,
      "##竹": 3965,
      "##浦": 3966,
      "##医": 3967,
      "##透": 3968,
      "##行": 3969,
      "##销": 3970,
      "##目": 3971,
      "##应": 3972,
      "##达": 3973,
      "##到": 3974,
      "##武": 3975,
      "##航": 3976,
      "##員": 3977,
      "##切": 3978,
      "##腹": 3979,
      "##ል": 3980,
      "##ə": 3981,
      "##ٕ": 3982,
      "##": 3983,
      "##新": 3984,
      "##有": 3985,
      "##一": 3986,
      "##功": 3987,
      "##革": 3988,
      "##ᅪ": 3989,
      "##ᄋ": 3990,
      "##": 3991,
      "##学": 3992,
      "##极": 3993,
      "##利": 3994,
      "##税": 3995,
      "##姆": 3996,
      "##斯": 3997,
      "##特": 3998,
      "##丹": 3999,
      "##戴": 4000,
      "##狗": 4001,
      "##谢": 4002,
      "##滞": 4003,
      "##在": 4004,
      "##十": 4005,
      "##部": 4006,
      "##屋": 4007,
      "##広": 4008,
      "##さ": 4009,
      "##と": 4010,
      "##設": 4011,
      "##備": 4012,
      "##角": 4013,
      "##戸": 4014,
      "##水": 4015,
      "##舞": 4016,
      "##台": 4017,
      "##飛": 4018,
      "##ひ": 4019,
      "##降": 4020,
      "##る": 4021,
      "##ふ": 4022,
      "##刑": 4023,
      "##事": 4024,
      "##ס": 4025,
      "##頂": 4026,
      "##承": 4027,
      "##恩": 4028,
      "##̑": 4029,
      "##​": 4030,
      "##』": 4031,
      "##礱": 4032,
      "##ℓ": 4033,
      "##鲞": 4034,
      "##ٌ": 4035,
      "##东": 4036,
      "##¿": 4037,
      "##์": 4038,
      "##庫": 4039,
      "##要": 4040,
      "##£": 4041,
      "##野": 4042,
      "##俊": 4043,
      "##": 4044,
      "##ா": 4045,
      "##ஷ": 4046,
      "##ி": 4047,
      "##ங": 4048,
      "##்": 4049,
      "##ட": 4050,
      "##ன": 4051,
      "##န": 4052,
      "##္": 4053,
      "##‌": 4054,
      "##ֳ": 4055,
      "##─": 4056,
      "##游": 4057,
      "##记": 4058,
      "##望": 4059,
      "##": 4060,
      "##仪": 4061,
      "##五": 4062,
      "##郎": 4063,
      "##²": 4064,
      "##核": 4065,
      "##月": 4066,
      "##あ": 4067,
      "##こ": 4068,
      "##ち": 4069,
      "##ん": 4070,
      "##见": 4071,
      "##习": 4072,
      "##家": 4073,
      "##±": 4074,
      "##辑": 4075,
      "##联": 4076,
      "##花": 4077,
      "##̦": 4078,
      "##井": 4079,
      "##伸": 4080,
      "##จ": 4081,
      "##蔚": 4082,
      "##ฒ": 4083,
      "##ภ": 4084,
      "##波": 4085,
      "##动": 4086,
      "##都": 4087,
      "##吗": 4088,
      "##二": 4089,
      "##氧": 4090,
      "##碳": 4091,
      "##刺": 4092,
      "##激": 4093,
      "##植": 4094,
      "##黨": 4095,
      "##括": 4096,
      "##・": 4097,
      "##沢": 4098,
      "##振": 4099,
      "##込": 4100,
      "##ศ": 4101,
      "##โ": 4102,
      "##°": 4103,
      "##热": 4104,
      "##耐": 4105,
      "##親": 4106,
      "##ナ": 4107,
      "##ミ": 4108,
      "##タ": 4109,
      "##个": 4110,
      "##敦": 4111,
      "##级": 4112,
      "##召": 4113,
      "##女": 4114,
      "##ª": 4115,
      "##ह": 4116,
      "##द": 4117,
      "##ब": 4118,
      "##ฤ": 4119,
      "##ษ": 4120,
      "##സ": 4121,
      "##്": 4122,
      "##幌": 4123,
      "##钱": 4124,
      "##ެ": 4125,
      "##މ": 4126,
      "##ރ": 4127,
      "##ި": 4128,
      "##ކ": 4129,
      "##ާ": 4130,
      "##ץ": 4131,
      "##ˌ": 4132,
      "##†": 4133,
      "##寺": 4134,
      "##空": 4135,
      "##港": 4136,
      "##舣": 4137,
      "##撮": 4138,
      "##打": 4139,
      "##座": 4140,
      "##書": 4141,
      "##ﾟ": 4142,
      "##¤": 4143,
      "##雪": 4144,
      "##齋": 4145,
      "##": 4146,
      "##": 4147,
      "##濟": 4148,
      "##ฎ": 4149,
      "##ｔ": 4150,
      "##鴻": 4151,
      "##章": 4152,
      "##名": 4153,
      "##脑": 4154,
      "##终": 4155,
      "##专": 4156,
      "##稿": 4157,
      "##¢": 4158,
      "##崔": 4159,
      "##庆": 4160,
      "##锋": 4161,
      "##ᆷ": 4162,
      "##日": 4163,
      "##塩": 4164,
      "##常": 4165,
      "##精": 4166,
      "##致": 4167,
      "##ء": 4168,
      "##塔": 4169,
      "##音": 4170,
      "##图": 4171,
      "##ٹ": 4172,
      "##鋒": 4173,
      "##鋜": 4174,
      "##同": 4175,
      "##ᄀ": 4176,
      "##疗": 4177,
      "##」": 4178,
      "##敏": 4179,
      "##難": 4180,
      "##自": 4181,
      "##治": 4182,
      "##县": 4183,
      "##減": 4184,
      "##に": 4185,
      "##指": 4186,
      "##廣": 4187,
      "##赖": 4188,
      "##喇": 4189,
      "##嘛": 4190,
      "##传": 4191,
      "##每": 4192,
      "##股": 4193,
      "##入": 4194,
      "##建": 4195,
      "##黃": 4196,
      "##→": 4197,
      "##`": 4198,
      "##ɫ": 4199,
      "##۶": 4200,
      "##ג": 4201,
      "##札": 4202,
      "##鰊": 4203,
      "##泽": 4204,
      "##集": 4205,
      "##舅": 4206,
      "##宿": 4207,
      "##儀": 4208,
      "##南": 4209,
      "##回": 4210,
      "##天": 4211,
      "##乏": 4212,
      "##需": 4213,
      "##支": 4214,
      "##付": 4215,
      "##金": 4216,
      "##额": 4217,
      "##减": 4218,
      "##少": 4219,
      "##ᄏ": 4220,
      "##如": 4221,
      "##此": 4222,
      "##ச": 4223,
      "##ை": 4224,
      "##多": 4225,
      "##选": 4226,
      "##ঙ": 4227,
      "##্": 4228,
      "##ক": 4229,
      "##র": 4230,
      "##黄": 4231,
      "##隆": 4232,
      "##ு": 4233,
      "##★": 4234,
      "##┴": 4235,
      "##┘": 4236,
      "##耕": 4237,
      "##土": 4238,
      "##数": 4239,
      "##先": 4240,
      "##估": 4241,
      "##计": 4242,
      "##干": 4243,
      "##ʿ": 4244,
      "##見": 4245,
      "##求": 4246,
      "##将": 4247,
      "##翻": 4248,
      "##番": 4249,
      "##۲": 4250,
      "##辭": 4251,
      "##郷": 4252,
      "##平": 4253,
      "##八": 4254,
      "##蒋": 4255,
      "##重": 4256,
      "##便": 4257,
      "##丨": 4258,
      "##‹": 4259,
      "##ហ": 4260,
      "##រ": 4261,
      "##ដ": 4262,
      "##្": 4263,
      "##ឋ": 4264,
      "##め": 4265,
      "##љ": 4266,
      "##差": 4267,
      "##异": 4268,
      "##避": 4269,
      "##途": 4270,
      "##ɹ": 4271,
      "##ა": 4272,
      "##ნ": 4273,
      "##川": 4274,
      "##流": 4275,
      "##メ": 4276,
      "##泉": 4277,
      "##成": 4278,
      "##系": 4279,
      "##忻": 4280,
      "##र": 4281,
      "##ण": 4282,
      "##य": 4283,
      "##ヘ": 4284,
      "##゚": 4285,
      "##シ": 4286,
      "##へ": 4287,
      "##唸": 4288,
      "##今": 4289,
      "##届": 4290,
      "##甸": 4291,
      "##趋": 4292,
      "##势": 4293,
      "##还": 4294,
      "##续": 4295,
      "##去": 4296,
      "##岗": 4297,
      "##村": 4298,
      "##街": 4299,
      "##浴": 4300,
      "##言": 4301,
      "##え": 4302,
      "##鏡": 4303,
      "##止": 4304,
      "##ә": 4305,
      "##ં": 4306,
      "##ય": 4307,
      "##ુ": 4308,
      "##ક": 4309,
      "##્": 4310,
      "##ત": 4311,
      "##ᄎ": 4312,
      "##ᆸ": 4313,
      "##記": 4314,
      "##栽": 4315,
      "##ึ": 4316,
      "##ป": 4317,
      "##็": 4318,
      "##½": 4319,
      "##ַ": 4320,
      "##ֲ": 4321,
      "##ז": 4322,
      "##◆": 4323,
      "##ტ": 4324,
      "##ე": 4325,
      "##გ": 4326,
      "##ო": 4327,
      "##რ": 4328,
      "##ი": 4329,
      "##仲": 4330,
      "##遪": 4331,
      "##￼": 4332,
      "##納": 4333,
      "##瓶": 4334,
      "##洲": 4335,
      "##稻": 4336,
      "##租": 4337,
      "##け": 4338,
      "##《": 4339,
      "##贊": 4340,
      "##ს": 4341,
      "##菱": 4342,
      "##⁴": 4343,
      "##訃": 4344,
      "##颖": 4345,
      "##性": 4346,
      "##爱": 4347,
      "##克": 4348,
      "##赛": 4349,
      "##钦": 4350,
      "##清": 4351,
      "##飞": 4352,
      "##動": 4353,
      "##改": 4354,
      "##リ": 4355,
      "##カ": 4356,
      "##ፍ": 4357,
      "##ዓ": 4358,
      "##በ": 4359,
      "##ት": 4360,
      "##蔓": 4361,
      "##藤": 4362,
      "##耶": 4363,
      "##च": 4364,
      "##急": 4365,
      "##男": 4366,
      "##靳": 4367,
      "##晨": 4368,
      "##眼": 4369,
      "##睛": 4370,
      "##צ": 4371,
      "##后": 4372,
      "##设": 4373,
      "##您": 4374,
      "##票": 4375,
      "##否": 4376,
      "##决": 4377,
      "##制": 4378,
      "##亿": 4379,
      "##摆": 4380,
      "##脱": 4381,
      "##贫": 4382,
      "##困": 4383,
      "##ం": 4384,
      "##ధ": 4385,
      "##్": 4386,
      "##ర": 4387,
      "##身": 4388,
      "##‚": 4389,
      "##受": 4390,
      "##エ": 4391,
      "##美": 4392,
      "##味": 4393,
      "##豆": 4394,
      "##諸": 4395,
      "##۷": 4396,
      "##×": 4397,
      "##仮": 4398,
      "##寳": 4399,
      "##语": 4400,
      "##庁": 4401,
      "##ذ": 4402,
      "##毎": 4403,
      "##オ": 4404,
      "##換": 4405,
      "##載": 4406,
      "##壊": 4407,
      "##ホ": 4408,
      "##ᅰ": 4409,
      "##宮": 4410,
      "##笠": 4411,
      "##原": 4412,
      "##除": 4413,
      "##依": 4414,
      "##周": 4415,
      "##末": 4416,
      "##陶": 4417,
      "##板": 4418,
      "##作": 4419,
      "##霖": 4420,
      "##几": 4421,
      "##乎": 4422,
      "##就": 4423,
      "##巧": 4424,
      "##夹": 4425,
      "##ғ": 4426,
      "##辱": 4427,
      "##欧": 4428,
      "##世": 4429,
      "##纪": 4430,
      "##盧": 4431,
      "##¯": 4432,
      "##为": 4433,
      "##限": 4434,
      "##公": 4435,
      "##解": 4436,
      "##没": 4437,
      "##屏": 4438,
      "##פ": 4439,
      "##ֵ": 4440,
      "##ბ": 4441,
      "##ٓ": 4442,
      "##ി": 4443,
      "##ന": 4444,
      "##ക": 4445,
      "##േ": 4446,
      "##ാ": 4447,
      "##യ": 4448,
      "##臧": 4449,
      "##丽": 4450,
      "##士": 4451,
      "##引": 4452,
      "##挂": 4453,
      "##陈": 4454,
      "##铭": 4455,
      "##政": 4456,
      "##朝": 4457,
      "##語": 4458,
      "##版": 4459,
      "##ֿ": 4460,
      "##ष": 4461,
      "##才": 4462,
      "##真": 4463,
      "##ഷ": 4464,
      "##ദ": 4465,
      "##വ": 4466,
      "##ീ": 4467,
      "##പ": 4468,
      "##宜": 4469,
      "##从": 4470,
      "##面": 4471,
      "##拉": 4472,
      "##间": 4473,
      "##永": 4474,
      "##遠": 4475,
      "##³": 4476,
      "##¨": 4477,
      "##想": 4478,
      "##赶": 4479,
      "##踌": 4480,
      "##躇": 4481,
      "##̶": 4482,
      "##寧": 4483,
      "##奇": 4484,
      "##蹟": 4485,
      "##送": 4486,
      "##ハ": 4487,
      "##̤": 4488,
      "##薇": 4489,
      "##架": 4490,
      "##积": 4491,
      "##黡": 4492,
      "##湄": 4493,
      "##河": 4494,
      "##君": 4495,
      "##儉": 4496,
      "##库": 4497,
      "##门": 4498,
      "##菜": 4499,
      "##御": 4500,
      "##苑": 4501,
      "##样": 4502,
      "##潜": 4503,
      "##死": 4504,
      "##不": 4505,
      "##屈": 4506,
      "##̮": 4507,
      "##２": 4508,
      "##１": 4509,
      "##色": 4510,
      "##瞳": 4511,
      "##া": 4512,
      "##ন": 4513,
      "##ু": 4514,
      "##য": 4515,
      "##়": 4516,
      "##ি": 4517,
      "##ಶ": 4518,
      "##್": 4519,
      "##ವ": 4520,
      "##ರ": 4521,
      "##ಯ": 4522,
      "##ಾ": 4523,
      "##風": 4524,
      "##呂": 4525,
      "##遝": 4526,
      "##观": 4527,
      "##念": 4528,
      "##很": 4529,
      "##赞": 4530,
      "##涩": 4531,
      "##̍": 4532,
      "##ญ": 4533,
      "##尔": 4534,
      "##滨": 4535,
      "##推": 4536,
      "##溪": 4537,
      "##筆": 4538,
      "##談": 4539,
      "##𐍃": 4540,
      "##𐌰": 4541,
      "##𐌽": 4542,
      "##𐌼": 4543,
      "##𐌴": 4544,
      "##𐍉": 4545,
      "##𐌸": 4546,
      "##吹": 4547,
      "##质": 4548,
      "##艳": 4549,
      "##种": 4550,
      "##ु": 4551,
      "##त": 4552,
      "##雄": 4553,
      "##舫": 4554,
      "##伎": 4555,
      "##思": 4556,
      "##阜": 4557,
      "##亚": 4558,
      "##康": 4559,
      "##ฮ": 4560,
      "##پ": 4561,
      "##躊": 4562,
      "##ˁ": 4563,
      "##力": 4564,
      "##反": 4565,
      "##ɣ": 4566,
      "##州": 4567,
      "##装": 4568,
      "##视": 4569,
      "##室": 4570,
      "##与": 4571,
      "##友": 4572,
      "##洗": 4573,
      "##鸳": 4574,
      "##鸯": 4575,
      "##む": 4576,
      "##举": 4577,
      "##牌": 4578,
      "##帥": 4579,
      "##仙": 4580,
      "##抜": 4581,
      "##禽": 4582,
      "##理": 4583,
      "##处": 4584,
      "##者": 4585,
      "##卦": 4586,
      "##ネ": 4587,
      "##鋝": 4588,
      "##佗": 4589,
      "##ፈ": 4590,
      "##寸": 4591,
      "##檀": 4592,
      "##樹": 4593,
      "##つ": 4594,
      "##左": 4595,
      "##": 4596,
      "##ظ": 4597,
      "##顶": 4598,
      "##黵": 4599,
      "##裂": 4600,
      "##釉": 4601,
      "##储": 4602,
      "##容": 4603,
      "##则": 4604,
      "##貮": 4605,
      "##其": 4606,
      "##氏": 4607,
      "##ज": 4608,
      "##़": 4609,
      "##云": 4610,
      "##͡": 4611,
      "##प": 4612,
      "##啦": 4613,
      "##洁": 4614,
      "##效": 4615,
      "##鋓": 4616,
      "##舐": 4617,
      "##ɤ": 4618,
      "##截": 4619,
      "##拳": 4620,
      "##ث": 4621,
      "##ฉ": 4622,
      "##≈": 4623,
      "##堂": 4624,
      "##园": 4625,
      "##店": 4626,
      "##憎": 4627,
      "##თ": 4628,
      "##უ": 4629,
      "##ლ": 4630,
      "##坐": 4631,
      "##候": 4632,
      "##变": 4633,
      "##未": 4634,
      "##确": 4635,
      "##源": 4636,
      "##刘": 4637,
      "##耀": 4638,
      "##仁": 4639,
      "##ླ": 4640,
      "##ﻫ": 4641,
      "##存": 4642,
      "##风": 4643,
      "##险": 4644,
      "##ᄑ": 4645,
      "##ᅨ": 4646,
      "##刚": 4647,
      "##布": 4648,
      "##套": 4649,
      "##溢": 4650,
      "##馬": 4651,
      "##": 4652,
      "##簡": 4653,
      "##灯": 4654,
      "##苏": 4655,
      "##寶": 4656,
      "##͂": 4657,
      "##局": 4658,
      "##并": 4659,
      "##非": 4660,
      "##福": 4661,
      "##措": 4662,
      "##施": 4663,
      "##¾": 4664,
      "##躍": 4665,
      "##法": 4666,
      "##統": 4667,
      "##車": 4668,
      "##円": 4669,
      "##教": 4670,
      "##ʔ": 4671,
      "##意": 4672,
      "##ウ": 4673,
      "##ェ": 4674,
      "##酎": 4675,
      "##泰": 4676,
      "##齡": 4677,
      "##稱": 4678,
      "##溜": 4679,
      "##兴": 4680,
      "##ャ": 4681,
      "##ッ": 4682,
      "##ク": 4683,
      "##ˇ": 4684,
      "##ɕ": 4685,
      "##鰃": 4686,
      "##役": 4687,
      "##速": 4688,
      "##坂": 4689,
      "##純": 4690,
      "##": 4691,
      "##☆": 4692,
      "##夛": 4693,
      "##良": 4694,
      "##识": 4695,
      "##别": 4696,
      "##哈": 4697,
      "##搅": 4698,
      "##听": 4699,
      "##况": 4700,
      "##仍": 4701,
      "##巨": 4702,
      "##庭": 4703,
      "##湖": 4704,
      "##李": 4705,
      "##械": 4706,
      "##鲁": 4707,
      "##棒": 4708,
      "##剥": 4709,
      "##轻": 4710,
      "##♦": 4711,
      "##ັ": 4712,
      "##ດ": 4713,
      "##ຖ": 4714,
      "##ຸ": 4715,
      "##ມ": 4716,
      "##ງ": 4717,
      "##ຄ": 4718,
      "##ນ": 4719,
      "##。": 4720,
      "##怪": 4721,
      "##≤": 4722,
      "##ੰ": 4723,
      "##ਡ": 4724,
      "##ੀ": 4725,
      "##ਗ": 4726,
      "##ੜ": 4727,
      "##੍": 4728,
      "##ਹ": 4729,
      "##盗": 4730,
      "##専": 4731,
      "##門": 4732,
      "##レ": 4733,
      "##神": 4734,
      "##¶": 4735,
      "##代": 4736,
      "##々": 4737,
      "##競": 4738,
      "##点": 4739,
      "##終": 4740,
      "##验": 4741,
      "##丰": 4742,
      "##富": 4743,
      "##实": 4744,
      "##ɨ": 4745,
      "##疆": 4746,
      "##悩": 4747,
      "##ฆ": 4748,
      "##众": 4749,
      "##羽": 4750,
      "##】": 4751,
      "##郑": 4752,
      "##汉": 4753,
      "##留": 4754,
      "##米": 4755,
      "##ຂ": 4756,
      "##ົ": 4757,
      "##້": 4758,
      "##າ": 4759,
      "##ໜ": 4760,
      "##ຽ": 4761,
      "##ວ": 4762,
      "##『": 4763,
      "##摩": 4764,
      "##羅": 4765,
      "##认": 4766,
      "##件": 4767,
      "##ֶ": 4768,
      "##業": 4769,
      "##ྔ": 4770,
      "##ོ": 4771,
      "##ན": 4772,
      "##ゃ": 4773,
      "##焼": 4774,
      "##找": 4775,
      "##˝": 4776,
      "##氣": 4777,
      "##弁": 4778,
      "##戻": 4779,
      "##モ": 4780,
      "##₠": 4781,
      "##琲": 4782,
      "##向": 4783,
      "##開": 4784,
      "##勢": 4785,
      "##ニ": 4786,
      "##柱": 4787,
      "##ユ": 4788,
      "##ロ": 4789,
      "##憩": 4790,
      "##適": 4791,
      "##過": 4792,
      "##必": 4793,
      "##注": 4794,
      "##һ": 4795,
      "##達": 4796,
      "##由": 4797,
      "##贸": 4798,
      "##洪": 4799,
      "##猛": 4800,
      "##兽": 4801,
      "##只": 4802,
      "##わ": 4803,
      "##乐": 4804,
      "##旅": 4805,
      "##获": 4806,
      "##阿": 4807,
      "##里": 4808,
      "##巴": 4809,
      "##等": 4810,
      "##构": 4811,
      "##投": 4812,
      "##资": 4813,
      "##谈": 4814,
      "##判": 4815,
      "##破": 4816,
      "##它": 4817,
      "##供": 4818,
      "##乘": 4819,
      "##央": 4820,
      "##‽": 4821,
      "##冰": 4822,
      "##ټ": 4823,
      "##看": 4824,
      "##短": 4825,
      "##缺": 4826,
      "##芝": 4827,
      "##│": 4828,
      "##ጽ": 4829,
      "##ত": 4830,
      "##ষ": 4831,
      "##ট": 4832,
      "##ལ": 4833,
      "##འ": 4834,
      "##ི": 4835,
      "##尽": 4836,
      "##（": 4837,
      "##ڤ": 4838,
      "##覧": 4839,
      "##応": 4840,
      "##拼": 4841,
      "##‍": 4842,
      "##陽": 4843,
      "##ᅱ": 4844,
      "##伝": 4845,
      "##垣": 4846,
      "##ट": 4847,
      "##ी": 4848,
      "##भ": 4849,
      "##長": 4850,
      "##包": 4851,
      "##圍": 4852,
      "##網": 4853,
      "##ـ": 4854,
      "##娜": 4855,
      "##∙": 4856,
      "##殊": 4857,
      "##湾": 4858,
      "##尘": 4859,
      "##螨": 4860,
      "##˜": 4861,
      "##騙": 4862,
      "##，": 4863,
      "##ც": 4864,
      "##ვ": 4865,
      "##膚": 4866,
      "##飲": 4867,
      "##印": 4868,
      "##स": 4869,
      "##校": 4870,
      "##う": 4871,
      "##ద": 4872,
      "##ె": 4873,
      "##ౕ": 4874,
      "##శ": 4875,
      "##鹤": 4876,
      "##楼": 4877,
      "##販": 4878,
      "##売": 4879,
      "##痛": 4880,
      "##起": 4881,
      "##诺": 4882,
      "##靠": 4883,
      "##ບ": 4884,
      "##彩": 4885,
      "##哥": 4886,
      "##コ": 4887,
      "##ʒ": 4888,
      "##坊": 4889,
      "##翠": 4890,
      "##衣": 4891,
      "##": 4892,
      "##直": 4893,
      "##临": 4894,
      "##近": 4895,
      "##湯": 4896,
      "##師": 4897,
      "##圏": 4898,
      "##०": 4899,
      "##१": 4900,
      "##柴": 4901,
      "##秀": 4902,
      "##吉": 4903,
      "##吊": 4904,
      "##": 4905,
      "##‟": 4906,
      "##ं": 4907,
      "##ृ": 4908,
      "##ᅯ": 4909,
      "##吸": 4910,
      "##任": 4911,
      "##何": 4912,
      "##疏": 4913,
      "##忽": 4914,
      "##复": 4915,
      "##杂": 4916,
      "##互": 4917,
      "##关": 4918,
      "##链": 4919,
      "##远": 4920,
      "##果": 4921,
      "##第": 4922,
      "##丸": 4923,
      "##ҳ": 4924,
      "##ध": 4925,
      "##脖": 4926,
      "##遣": 4927,
      "##林": 4928,
      "##‰": 4929,
      "##爾": 4930,
      "##濱": 4931,
      "##沌": 4932,
      "##●": 4933,
      "##婷": 4934,
      "##季": 4935,
      "##饲": 4936,
      "##好": 4937,
      "##服": 4938,
      "##均": 4939,
      "##牛": 4940,
      "##奶": 4941,
      "##紧": 4942,
      "##迫": 4943,
      "##标": 4944,
      "##妨": 4945,
      "##碍": 4946,
      "##焦": 4947,
      "##遽": 4948,
      "##ᆾ": 4949,
      "##觉": 4950,
      "##罗": 4951,
      "##প": 4952,
      "##ฯ": 4953,
      "##ᒥ": 4954,
      "##ᐊ": 4955,
      "##ᓕ": 4956,
      "##ᑲ": 4957,
      "##ٍ": 4958,
      "##）": 4959,
      "##萄": 4960,
      "##牙": 4961,
      "##雅": 4962,
      "##揃": 4963,
      "##ရ": 4964,
      "##ဝ": 4965,
      "##ဟ": 4966,
      "##": 4967,
      "##许": 4968,
      "##ｲ": 4969,
      "##娱": 4970,
      "##̯": 4971,
      "##ǝ": 4972,
      "##课": 4973,
      "##乗": 4974,
      "##≪": 4975,
      "##ᅣ": 4976,
      "##¼": 4977,
      "##№": 4978,
      "##棲": 4979,
      "##宏": 4980,
      "##超": 4981,
      "##快": 4982,
      "##捷": 4983,
      "##ฝ": 4984,
      "##夕": 4985,
      "##节": 4986,
      "##愛": 4987,
      "##检": 4988,
      "##测": 4989,
      "##、": 4990,
      "##婦": 4991,
      "##介": 4992,
      "##逃": 4993,
      "##盖": 4994,
      "##呀": 4995,
      "##े": 4996,
      "##圆": 4997,
      "##セ": 4998,
      "##無": 4999,
      "##鄉": 5000,
      "##श": 5001,
      "##碧": 5002,
      "##益": 5003,
      "##鱼": 5004,
      "##雷": 5005,
      "##亞": 5006,
      "##實": 5007,
      "##損": 5008,
      "##ʀ": 5009,
      "##‎": 5010,
      "##ʲ": 5011,
      "##♥": 5012,
      "##ฑ": 5013,
      "##慶": 5014,
      "##¸": 5015,
      "##३": 5016,
      "##维": 5017,
      "##灌": 5018,
      "##溉": 5019,
      "##稳": 5020,
      "##斗": 5021,
      "##瘤": 5022,
      "##圳": 5023,
      "##惑": 5024,
      "##星": 5025,
      "##ʁ": 5026,
      "##ฐ": 5027,
      "##拟": 5028,
      "##据": 5029,
      "##铁": 5030,
      "##难": 5031,
      "##宝": 5032,
      "##玉": 5033,
      "##春": 5034,
      "##陵": 5035,
      "##ৰ": 5036,
      "##হ": 5037,
      "##ম": 5038,
      "##墩": 5039,
      "##鐵": 5040,
      "##预": 5041,
      "##期": 5042,
      "##低": 5043,
      "##静": 5044,
      "##怡": 5045,
      "##雲": 5046,
      "##圓": 5047,
      "##悟": 5048,
      "##考": 5049,
      "##ɩ": 5050,
      "##ɲ": 5051,
      "##ɠ": 5052,
      "##ƭ": 5053,
      "##ȥ": 5054,
      "##ᅲ": 5055,
      "##堰": 5056,
      "##族": 5057,
      "##復": 5058,
      "##節": 5059,
      "##吧": 5060,
      "##ې": 5061,
      "##喜": 5062,
      "##ే": 5063,
      "##般": 5064,
      "##缓": 5065,
      "##草": 5066,
      "##跳": 5067,
      "##ゥ": 5068,
      "##ケ": 5069,
      "##足": 5070,
      "##握": 5071,
      "##炯": 5072,
      "##ヒ": 5073,
      "##მ": 5074,
      "##კ": 5075,
      "##奸": 5076,
      "##漫": 5077,
      "##画": 5078,
      "##线": 5079,
      "##澳": 5080,
      "##逢": 5081,
      "##賈": 5082,
      "##胡": 5083,
      "##晏": 5084,
      "##莉": 5085,
      "##迅": 5086,
      "##ᄐ": 5087,
      "##ɚ": 5088,
      "##ً": 5089,
      "##ォ": 5090,
      "##経": 5091,
      "##父": 5092,
      "##．": 5093,
      "##梨": 5094,
      "##論": 5095,
      "##纷": 5096,
      "##涌": 5097,
      "##朱": 5098,
      "##煙": 5099,
      "##澤": 5100,
      "##⇒": 5101,
      "##チ": 5102,
      "##ろ": 5103,
      "##術": 5104,
      "##麗": 5105,
      "##对": 5106,
      "##采": 5107,
      "##矿": 5108,
      "##ᄁ": 5109,
      "##ᆻ": 5110,
      "##恢": 5111,
      "##區": 5112,
      "##繁": 5113,
      "##潟": 5114,
      "##ヨ": 5115,
      "##银": 5116,
      "##献": 5117,
      "##ɒ": 5118,
      "##ʌ": 5119,
      "##や": 5120,
      "##梁": 5121,
      "##委": 5122,
      "##员": 5123,
      "##駄": 5124,
      "##宗": 5125,
      "##创": 5126,
      "##证": 5127,
      "##即": 5128,
      "##监": 5129,
      "##烈": 5130,
      "##整": 5131,
      "##值": 5132,
      "##担": 5133,
      "##ே": 5134,
      "##ய": 5135,
      "##ம": 5136,
      "##ப": 5137,
      "##த": 5138,
      "##ூ": 5139,
      "##ர": 5140,
      "##潢": 5141,
      "##际": 5142,
      "##穷": 5143,
      "##买": 5144,
      "##备": 5145,
      "##伊": 5146,
      "##优": 5147,
      "##讨": 5148,
      "##论": 5149,
      "##ॉ": 5150,
      "##葉": 5151,
      "##挑": 5152,
      "##爆": 5153,
      "##ム": 5154,
      "##甲": 5155,
      "##策": 5156,
      "##努": 5157,
      "##试": 5158,
      "##鉄": 5159,
      "##沿": 5160,
      "##９": 5161,
      "##７": 5162,
      "##署": 5163,
      "##紙": 5164,
      "##罪": 5165,
      "##追": 5166,
      "##饮": 5167,
      "##皮": 5168,
      "##调": 5169,
      "##冊": 5170,
      "##輪": 5171,
      "##聖": 5172,
      "##ʻ": 5173,
      "##ワ": 5174,
      "##鸡": 5175,
      "##缩": 5176,
      "##傳": 5177,
      "##乌": 5178,
      "##修": 5179,
      "##極": 5180,
      "##圖": 5181,
      "##右": 5182,
      "##他": 5183,
      "##类": 5184,
      "##吨": 5185,
      "##紀": 5186,
      "##血": 5187,
      "##背": 5188,
      "##負": 5189,
      "##ŀ": 5190,
      "##舩": 5191,
      "##翁": 5192,
      "##珠": 5193,
      "##ү": 5194,
      "##古": 5195,
      "##具": 5196,
      "##骨": 5197,
      "##董": 5198,
      "##祭": 5199,
      "##黮": 5200,
      "##凶": 5201,
      "##♫": 5202,
      "##⃛": 5203,
      "##损": 5204,
      "##よ": 5205,
      "##払": 5206,
      "##警": 5207,
      "##ड": 5208,
      "##ग": 5209,
      "##ढ": 5210,
      "##伯": 5211,
      "##卡": 5212,
      "##够": 5213,
      "##或": 5214,
      "##ে": 5215,
      "##મ": 5216,
      "##ે": 5217,
      "##ર": 5218,
      "##િ": 5219,
      "##ા": 5220,
      "##ŋ": 5221,
      "##筑": 5222,
      "##ノ": 5223,
      "##桶": 5224,
      "##弔": 5225,
      "##独": 5226,
      "##腕": 5227,
      "##癪": 5228,
      "##障": 5229,
      "##运": 5230,
      "##胖": 5231,
      "##ɡ": 5232,
      "##鵜": 5233,
      "##呑": 5234,
      "##战": 5235,
      "##÷": 5236,
      "##覺": 5237,
      "##鋑": 5238,
      "##義": 5239,
      "##": 5240,
      "##参": 5241,
      "##ہ": 5242,
      "##汤": 5243,
      "##鈍": 5244,
      "##材": 5245,
      "##𧵮": 5246,
      "##揚": 5247,
      "##埔": 5248,
      "##负": 5249,
      "##像": 5250,
      "##": 5251,
      "##峽": 5252,
      "##佰": 5253,
      "##ſ": 5254,
      "##写": 5255,
      "##答": 5256,
      "##थ": 5257,
      "##व": 5258,
      "##ቀ": 5259,
      "##ም": 5260,
      "##ሓ": 5261,
      "##刀": 5262,
      "##济": 5263,
      "##景": 5264,
      "##气": 5265,
      "##最": 5266,
      "##შ": 5267,
      "##塞": 5268,
      "##徳": 5269,
      "##形": 5270,
      "##傷": 5271,
      "##頭": 5272,
      "##屿": 5273,
      "##荷": 5274,
      "##̡": 5275,
      "##ҡ": 5276,
      "##ฟ": 5277,
      "##囧": 5278,
      "##體": 5279,
      "##": 5280,
      "##夫": 5281,
      "##密": 5282,
      "##呼": 5283,
      "##英": 5284,
      "##著": 5285,
      "##卖": 5286,
      "##冤": 5287,
      "##ˡ": 5288,
      "##胞": 5289,
      "##逸": 5290,
      "##ღ": 5291,
      "##જ": 5292,
      "##惯": 5293,
      "##含": 5294,
      "##ʋ": 5295,
      "##群": 5296,
      "##聞": 5297,
      "##淫": 5298,
      "##我": 5299,
      "##嶼": 5300,
      "##ব": 5301,
      "##蓮": 5302,
      "##ዋ": 5303,
      "##": 5304,
      "##۵": 5305,
      "##題": 5306,
      "##ｓ": 5307,
      "##鷹": 5308,
      "##爪": 5309,
      "##۸": 5310,
      "##ይ": 5311,
      "##ሕ": 5312,
      "##辛": 5313,
      "##黷": 5314,
      "##严": 5315,
      "##潭": 5316,
      "##縣": 5317,
      "##磨": 5318,
      "##ხ": 5319,
      "##დ": 5320,
      "##案": 5321,
      "##仅": 5322,
      "##余": 5323,
      "##গ": 5324,
      "##則": 5325,
      "##款": 5326,
      "##莞": 5327,
      "##屄": 5328,
      "##烏": 5329,
      "##活": 5330,
      "##贞": 5331,
      "##固": 5332,
      "##坡": 5333,
      "##₩": 5334,
      "##ল": 5335,
      "##因": 5336,
      "##错": 5337,
      "##お": 5338,
      "##資": 5339,
      "##߮": 5340,
      "##糸": 5341,
      "##乾": 5342,
      "##臓": 5343,
      "##ұ": 5344,
      "##": 5345,
      "##咬": 5346,
      "##枚": 5347,
      "##佑": 5348,
      "##羲": 5349,
      "##壮": 5350,
      "##護": 5351,
      "##府": 5352,
      "##舍": 5353,
      "##池": 5354,
      "##۞": 5355,
      "##۩": 5356,
      "##匡": 5357,
      "##岸": 5358,
      "##墟": 5359,
      "##浄": 5360,
      "##瑠": 5361,
      "##璃": 5362,
      "##希": 5363,
      "##ሰ": 5364,
      "##ነ": 5365,
      "##奚": 5366,
      "##撤": 5367,
      "##ซ": 5368,
      "##ⲉ": 5369,
      "##ⲣ": 5370,
      "##ⲟ": 5371,
      "##ⲩ": 5372,
      "##臂": 5373,
      "##挡": 5374,
      "##氷": 5375,
      "##満": 5376,
      "##书": 5377,
      "##桥": 5378,
      "##堤": 5379,
      "##態": 5380,
      "##油": 5381,
      "##應": 5382,
      "##熊": 5383,
      "##剩": 5384,
      "##熨": 5385,
      "##纸": 5386,
      "##詳": 5387,
      "##紹": 5388,
      "##秉": 5389,
      "##官": 5390,
      "##玄": 5391,
      "##夜": 5392,
      "##崩": 5393,
      "##ር": 5394,
      "##ካ": 5395,
      "##寻": 5396,
      "##娣": 5397,
      "##麩": 5398,
      "##娥": 5399,
      "##۹": 5400,
      "##۴": 5401,
      "##ཚ": 5402,
      "##序": 5403,
      "##智": 5404,
      "##旭": 5405,
      "##阳": 5406,
      "##臘": 5407,
      "##亨": 5408,
      "##藏": 5409,
      "##運": 5410,
      "##የ": 5411,
      "##ው": 5412,
      "##ᅭ": 5413,
      "##マ": 5414,
      "##ძ": 5415,
      "##命": 5416,
      "##映": 5417,
      "##顷": 5418,
      "##染": 5419,
      "##病": 5420,
      "##播": 5421,
      "##馆": 5422,
      "##跋": 5423,
      "##扈": 5424,
      "##瞎": 5425,
      "##搞": 5426,
      "##防": 5427,
      "##硬": 5428,
      "##马": 5429,
      "##鋞": 5430,
      "##束": 5431,
      "##峻": 5432,
      "##劳": 5433,
      "##闻": 5434,
      "##篇": 5435,
      "##述": 5436,
      "##坛": 5437,
      "##杭": 5438,
      "##磁": 5439,
      "##悬": 5440,
      "##浮": 5441,
      "##触": 5442,
      "##旱": 5443,
      "##杏": 5444,
      "##址": 5445,
      "##順": 5446,
      "##摇": 5447,
      "##尾": 5448,
      "##ህ": 5449,
      "##现": 5450,
      "##財": 5451,
      "##閥": 5452,
      "##畿": 5453,
      "##ぃ": 5454,
      "##貌": 5455,
      "##続": 5456,
      "##ɵ": 5457,
      "##͘": 5458,
      "##ħ": 5459,
      "##喫": 5460,
      "##剣": 5461,
      "##泥": 5462,
      "##粉": 5463,
      "##梅": 5464,
      "##九": 5465,
      "##ሜ": 5466,
      "##ሪ": 5467,
      "##两": 5468,
      "##ھ": 5469,
      "##ຈ": 5470,
      "##贤": 5471,
      "##痴": 5472,
      "##۰": 5473,
      "##徽": 5474,
      "##殻": 5475,
      "##隊": 5476,
      "##鹅": 5477,
      "##○": 5478,
      "##遊": 5479,
      "##跟": 5480,
      "##尿": 5481,
      "##凸": 5482,
      "##微": 5483,
      "##住": 5484,
      "##೯": 5485,
      "##೮": 5486,
      "##೩": 5487,
      "##曌": 5488,
      "##ҙ": 5489,
      "##മ": 5490,
      "##ത": 5491,
      "##奈": 5492,
      "##条": 5493,
      "##項": 5494,
      "##外": 5495,
      "##ු": 5496,
      "##ව": 5497,
      "##ර": 5498,
      "##倉": 5499,
      "##ڭ": 5500,
      "##ገ": 5501,
      "##ስ": 5502,
      "##潮": 5503,
      "##摂": 5504,
      "##鹈": 5505,
      "##夷": 5506,
      "##慎": 5507,
      "##誓": 5508,
      "##幡": 5509,
      "##۳": 5510,
      "##遷": 5511,
      "##假": 5512,
      "##居": 5513,
      "##锈": 5514,
      "##钢": 5515,
      "##舁": 5516,
      "##岐": 5517,
      "##熟": 5518,
      "##習": 5519,
      "##祖": 5520,
      "##個": 5521,
      "##關": 5522,
      "##稅": 5523,
      "##領": 5524,
      "##域": 5525,
      "##酸": 5526,
      "##盐": 5527,
      "##叡": 5528,
      "##✿": 5529,
      "##離": 5530,
      "##逆": 5531,
      "##℃": 5532,
      "##壳": 5533,
      "##砂": 5534,
      "##属": 5535,
      "##ই": 5536,
      "##准": 5537,
      "##煮": 5538,
      "##詰": 5539,
      "##ョ": 5540,
      "##ꮊ": 5541,
      "##ꭲ": 5542,
      "##東": 5543,
      "##剧": 5544,
      "##砕": 5545,
      "##": 5546,
      "##≥": 5547,
      "##久": 5548,
      "##殿": 5549,
      "##私": 5550,
      "##稀": 5551,
      "##树": 5552,
      "##ሥ": 5553,
      "##መ": 5554,
      "##ራ": 5555,
      "##茂": 5556,
      "##楠": 5557,
      "##ई": 5558,
      "##勝": 5559,
      "##詠": 5560,
      "##那": 5561,
      "##顯": 5562,
      "##掛": 5563,
      "##ほ": 5564,
      "##展": 5565,
      "##各": 5566,
      "##ⁿ": 5567,
      "##！": 5568,
      "##框": 5569,
      "##證": 5570,
      "##签": 5571,
      "##贷": 5572,
      "##协": 5573,
      "##议": 5574,
      "##模": 5575,
      "##問": 5576,
      "##朔": 5577,
      "##參": 5578,
      "##団": 5579,
      "##勿": 5580,
      "##崎": 5581,
      "##玲": 5582,
      "##೦": 5583,
      "##೧": 5584,
      "##嵥": 5585,
      "##ᓄ": 5586,
      "##ᐃ": 5587,
      "##ᑦ": 5588,
      "##森": 5589,
      "##↑": 5590,
      "##卫": 5591,
      "##鮮": 5592,
      "##坪": 5593,
      "##坝": 5594,
      "##响": 5595,
      "##患": 5596,
      "##伟": 5597,
      "##溝": 5598,
      "##婁": 5599,
      "##阶": 5600,
      "##段": 5601,
      "##半": 5602,
      "##ു": 5603,
      "##ヌ": 5604,
      "##鰀": 5605,
      "##პ": 5606,
      "##暫": 5607,
      "##页": 5608,
      "##程": 5609,
      "##码": 5610,
      "##伐": 5611,
      "##庚": 5612,
      "##鍋": 5613,
      "##ぁ": 5614,
      "##浜": 5615,
      "##學": 5616,
      "##返": 5617,
      "##某": 5618,
      "##吾": 5619,
      "##ʦ": 5620,
      "##翼": 5621,
      "##←": 5622,
      "##健": 5623,
      "##秋": 5624,
      "##ɜ": 5625,
      "##側": 5626,
      "##環": 5627,
      "##状": 5628,
      "##镜": 5629,
      "##竜": 5630,
      "##綺": 5631,
      "##割": 5632,
      "##勧": 5633,
      "##锦": 5634,
      "##丘": 5635,
      "##訊": 5636,
      "##そ": 5637,
      "##髄": 5638,
      "##徹": 5639,
      "##底": 5640,
      "##暴": 5641,
      "##另": 5642,
      "##么": 5643,
      "##ქ": 5644,
      "##♂": 5645,
      "##屯": 5646,
      "##韻": 5647,
      "##净": 5648,
      "##万": 5649,
      "##๑": 5650,
      "##ባ": 5651,
      "##省": 5652,
      "##ད": 5653,
      "##ெ": 5654,
      "##ɬ": 5655,
      "##册": 5656,
      "##ڠ": 5657,
      "##ڬ": 5658,
      "##腔": 5659,
      "##►": 5660,
      "##鰎": 5661,
      "##队": 5662,
      "##讣": 5663,
      "##绪": 5664,
      "##嘟": 5665,
      "##ۆ": 5666,
      "##ĸ": 5667,
      "##例": 5668,
      "##薯": 5669,
      "##抗": 5670,
      "##虫": 5671,
      "##": 5672,
      "##ﺤ": 5673,
      "##閣": 5674,
      "##须": 5675,
      "##抵": 5676,
      "##控": 5677,
      "##键": 5678,
      "##转": 5679,
      "##移": 5680,
      "##耳": 5681,
      "##須": 5682,
      "##賀": 5683,
      "##遭": 5684,
      "##话": 5685,
      "##費": 5686,
      "##幣": 5687,
      "##融": 5688,
      "##循": 5689,
      "##环": 5690,
      "##次": 5691,
      "##彻": 5692,
      "##會": 5693,
      "##遗": 5694,
      "##憾": 5695,
      "##似": 5696,
      "##黒": 5697,
      "##ๆ": 5698,
      "##态": 5699,
      "##盛": 5700,
      "##暂": 5701,
      "##ｫ": 5702,
      "##；": 5703,
      "##妖": 5704,
      "##ல": 5705,
      "##旋": 5706,
      "##階": 5707,
      "##再": 5708,
      "##招": 5709,
      "##討": 5710,
      "##兵": 5711,
      "##噌": 5712,
      "##「": 5713,
      "##灾": 5714,
      "##祸": 5715,
      "##臣": 5716,
      "##货": 5717,
      "##【": 5718,
      "##譯": 5719,
      "##咆": 5720,
      "##哮": 5721,
      "##決": 5722,
      "##沙": 5723,
      "##ƛ": 5724,
      "##ƙ": 5725,
      "##۱": 5726,
      "##珍": 5727,
      "##೬": 5728,
      "##೫": 5729,
      "##鱲": 5730,
      "##転": 5731,
      "##喂": 5732,
      "##₤": 5733,
      "##茜": 5734,
      "##岡": 5735,
      "##ｅ": 5736,
      "##ፅ": 5737,
      "##ዕ": 5738,
      "##橋": 5739,
      "##興": 5740,
      "##奘": 5741,
      "##匠": 5742,
      "##却": 5743,
      "##√": 5744,
      "##ٲ": 5745,
      "##ぇ": 5746,
      "##゜": 5747,
      "##飼": 5748,
      "##诘": 5749,
      "##译": 5750,
      "##ా": 5751,
      "##గ": 5752,
      "##జ": 5753,
      "##ు": 5754,
      "##న": 5755,
      "##క": 5756,
      "##ొ": 5757,
      "##డ": 5758,
      "##ሴ": 5759,
      "##ᄍ": 5760,
      "##間": 5761,
      "##巻": 5762,
      "##顗": 5763,
      "##乙": 5764,
      "##╚": 5765,
      "##汁": 5766,
      "##䟩": 5767,
      "##争": 5768,
      "##完": 5769,
      "##ೆ": 5770,
      "##ೖ": 5771,
      "##帯": 5772,
      "##寨": 5773,
      "##排": 5774,
      "##泄": 5775,
      "##颐": 5776,
      "##燗": 5777,
      "##组": 5778,
      "##军": 5779,
      "##烧": 5780,
      "##肉": 5781,
      "##毁": 5782,
      "##掉": 5783,
      "##凉": 5784,
      "##臺": 5785,
      "##讼": 5786,
      "##阻": 5787,
      "##挠": 5788,
      "##゛": 5789,
      "##└": 5790,
      "##昌": 5791,
      "##基": 5792,
      "##蓋": 5793,
      "##班": 5794,
      "##ञ": 5795,
      "##宰": 5796,
      "##曝": 5797,
      "##竞": 5798,
      "##鎚": 5799,
      "##渡": 5800,
      "##瞻": 5801,
      "##幸": 5802,
      "##妤": 5803,
      "##ং": 5804,
      "##∀": 5805,
      "##露": 5806,
      "##": 5807,
      "##单": 5808,
      "##遲": 5809,
      "##較": 5810,
      "##請": 5811,
      "##谋": 5812,
      "##洛": 5813,
      "##拒": 5814,
      "##绝": 5815,
      "##置": 5816,
      "##评": 5817,
      "##慣": 5818,
      "##ｖ": 5819,
      "##ｉ": 5820,
      "##ｐ": 5821,
      "##ზ": 5822,
      "##娄": 5823,
      "##灰": 5824,
      "##ʰ": 5825,
      "##ˑ": 5826,
      "##璐": 5827,
      "##ᒃ": 5828,
      "##虑": 5829,
      "##許": 5830,
      "##獄": 5831,
      "##☯": 5832,
      "##ክ": 5833,
      "##ቶ": 5834,
      "##礼": 5835,
      "##阪": 5836,
      "##侍": 5837,
      "##兰": 5838,
      "##幹": 5839,
      "##試": 5840,
      "##験": 5841,
      "##朗": 5842,
      "##┬": 5843,
      "##″": 5844,
      "##澄": 5845,
      "##況": 5846,
      "##ฏ": 5847,
      "##迷": 5848,
      "##鈴": 5849,
      "##桂": 5850,
      "##渐": 5851,
      "##眩": 5852,
      "##寄": 5853,
      "##择": 5854,
      "##渲": 5855,
      "##溯": 5856,
      "##善": 5857,
      "##宣": 5858,
      "##莹": 5859,
      "##轮": 5860,
      "##調": 5861,
      "##還": 5862,
      "##火": 5863,
      "##農": 5864,
      "##९": 5865,
      "##५": 5866,
      "##ㄆ": 5867,
      "##ㄇ": 5868,
      "##ㄈ": 5869,
      "##ｈ": 5870,
      "##ｏ": 5871,
      "##ｕ": 5872,
      "##ｌ": 5873,
      "##ｄ": 5874,
      "##崖": 5875,
      "##郡": 5876,
      "##en": 5877,
      "##er": 5878,
      "##ch": 5879,
      "##in": 5880,
      "th": 5881,
      "##es": 5882,
      "##on": 5883,
      "##nd": 5884,
      "##it": 5885,
      "the": 5886,
      "##at": 5887,
      "##ie": 5888,
      "##or": 5889,
      "##is": 5890,
      "##an": 5891,
      "in": 5892,
      "##ar": 5893,
      "##st": 5894,
      "##al": 5895,
      "##ur": 5896,
      "##ion": 5897,
      "##ich": 5898,
      "##un": 5899,
      "##el": 5900,
      "##re": 5901,
      "##as": 5902,
      "##ed": 5903,
      "of": 5904,
      "##om": 5905,
      "die": 5906,
      "##ent": 5907,
      "##le": 5908,
      "##ing": 5909,
      "to": 5910,
      "and": 5911,
      "##ung": 5912,
      "der": 5913,
      "##ä": 5914,
      "##ü": 5915,
      "##et": 5916,
      "und": 5917,
      "##ig": 5918,
      "##ro": 5919,
      "##us": 5920,
      "##em": 5921,
      "##il": 5922,
      "ein": 5923,
      "be": 5924,
      "##ic": 5925,
      "##ut": 5926,
      "##ol": 5927,
      "##ir": 5928,
      "##te": 5929,
      "##ra": 5930,
      "##ter": 5931,
      "st": 5932,
      "al": 5933,
      "re": 5934,
      "an": 5935,
      "##ation": 5936,
      "##eit": 5937,
      "##ten": 5938,
      "un": 5939,
      "ver": 5940,
      "##am": 5941,
      "##ts": 5942,
      "au": 5943,
      "is": 5944,
      "##ge": 5945,
      "zu": 5946,
      "##ot": 5947,
      "##hr": 5948,
      "##ies": 5949,
      "##ul": 5950,
      "##id": 5951,
      "for": 5952,
      "##op": 5953,
      "##ct": 5954,
      "##ber": 5955,
      "##iv": 5956,
      "das": 5957,
      "##lich": 5958,
      "pro": 5959,
      "ha": 5960,
      "##den": 5961,
      "on": 5962,
      "##der": 5963,
      "##ö": 5964,
      "##ür": 5965,
      "##isch": 5966,
      "##im": 5967,
      "##ier": 5968,
      "er": 5969,
      "##gen": 5970,
      "##sch": 5971,
      "##icht": 5972,
      "den": 5973,
      "wir": 5974,
      "that": 5975,
      "##ly": 5976,
      "wh": 5977,
      "se": 5978,
      "we": 5979,
      "##est": 5980,
      "im": 5981,
      "en": 5982,
      "##ess": 5983,
      "##os": 5984,
      "mit": 5985,
      "##ere": 5986,
      "##omm": 5987,
      "von": 5988,
      "##ce": 5989,
      "auf": 5990,
      "##ow": 5991,
      "##ach": 5992,
      "con": 5993,
      "##and": 5994,
      "##um": 5995,
      "de": 5996,
      "##ab": 5997,
      "ge": 5998,
      "##de": 5999,
      "##ith": 6000,
      "eur": 6001,
      "##ort": 6002,
      "##ell": 6003,
      "as": 6004,
      "##ver": 6005,
      "##kt": 6006,
      "##ff": 6007,
      "with": 6008,
      "ist": 6009,
      "für": 6010,
      "dies": 6011,
      "ne": 6012,
      "des": 6013,
      "pr": 6014,
      "sie": 6015,
      "##ben": 6016,
      "##ou": 6017,
      "##ay": 6018,
      "sch": 6019,
      "europ": 6020,
      "##ill": 6021,
      "it": 6022,
      "are": 6023,
      "##ers": 6024,
      "aus": 6025,
      "this": 6026,
      "##ve": 6027,
      "##ind": 6028,
      "##ck": 6029,
      "par": 6030,
      "so": 6031,
      "##ein": 6032,
      "co": 6033,
      "sp": 6034,
      "##iss": 6035,
      "##ad": 6036,
      "fr": 6037,
      "##ft": 6038,
      "or": 6039,
      "ex": 6040,
      "##pp": 6041,
      "es": 6042,
      "##ist": 6043,
      "##ik": 6044,
      "ab": 6045,
      "##ate": 6046,
      "##men": 6047,
      "##ag": 6048,
      "##und": 6049,
      "als": 6050,
      "eine": 6051,
      "dem": 6052,
      "##ungen": 6053,
      "su": 6054,
      "##th": 6055,
      "##ischen": 6056,
      "##nen": 6057,
      "wer": 6058,
      "le": 6059,
      "##ant": 6060,
      "all": 6061,
      "ma": 6062,
      "##ment": 6063,
      "##ien": 6064,
      "##for": 6065,
      "sich": 6066,
      "ch": 6067,
      "not": 6068,
      "##au": 6069,
      "##ity": 6070,
      "vor": 6071,
      "##ah": 6072,
      "##ib": 6073,
      "ü": 6074,
      "##ive": 6075,
      "##ial": 6076,
      "at": 6077,
      "nicht": 6078,
      "##ust": 6079,
      "com": 6080,
      "##ern": 6081,
      "über": 6082,
      "##ann": 6083,
      "um": 6084,
      "sh": 6085,
      "ich": 6086,
      "##00": 6087,
      "you": 6088,
      "me": 6089,
      "by": 6090,
      "ar": 6091,
      "werden": 6092,
      "##all": 6093,
      "##our": 6094,
      "##end": 6095,
      "##iel": 6096,
      "have": 6097,
      "dass": 6098,
      "uns": 6099,
      "us": 6100,
      "comm": 6101,
      "##eh": 6102,
      "##we": 6103,
      "##igh": 6104,
      "##igen": 6105,
      "##if": 6106,
      "##ass": 6107,
      "will": 6108,
      "##uld": 6109,
      "##tern": 6110,
      "##oll": 6111,
      "##ak": 6112,
      "##od": 6113,
      "was": 6114,
      "auch": 6115,
      "her": 6116,
      "##ions": 6117,
      "##ungs": 6118,
      "which": 6119,
      "da": 6120,
      "##ain": 6121,
      "from": 6122,
      "##ru": 6123,
      "##ast": 6124,
      "he": 6125,
      "reg": 6126,
      "##pt": 6127,
      "##ze": 6128,
      "##qu": 6129,
      "europe": 6130,
      "am": 6131,
      "##ahr": 6132,
      "wor": 6133,
      "##ect": 6134,
      "man": 6135,
      "##ission": 6136,
      "pl": 6137,
      "ges": 6138,
      "##ard": 6139,
      "res": 6140,
      "##age": 6141,
      "##och": 6142,
      "wie": 6143,
      "sind": 6144,
      "##ould": 6145,
      "##ang": 6146,
      "##ine": 6147,
      "te": 6148,
      "ber": 6149,
      "##og": 6150,
      "##pl": 6151,
      "##etz": 6152,
      "##aus": 6153,
      "##ure": 6154,
      "##pr": 6155,
      "##ens": 6156,
      "wird": 6157,
      "##hal": 6158,
      "gro": 6159,
      "bes": 6160,
      "unter": 6161,
      "has": 6162,
      "##be": 6163,
      "##iz": 6164,
      "##ans": 6165,
      "ih": 6166,
      "##du": 6167,
      "can": 6168,
      "ad": 6169,
      "pol": 6170,
      "##ön": 6171,
      "##ug": 6172,
      "##ert": 6173,
      "##ident": 6174,
      "nach": 6175,
      "tr": 6176,
      "##uss": 6177,
      "our": 6178,
      "##uch": 6179,
      "##port": 6180,
      "qu": 6181,
      "mo": 6182,
      "di": 6183,
      "##ische": 6184,
      "##ick": 6185,
      "##ous": 6186,
      "##ok": 6187,
      "ent": 6188,
      "dur": 6189,
      "##ät": 6190,
      "##lie": 6191,
      "##form": 6192,
      "##gr": 6193,
      "##oc": 6194,
      "##ise": 6195,
      "##enn": 6196,
      "hat": 6197,
      "oder": 6198,
      "##ss": 6199,
      "##her": 6200,
      "##keit": 6201,
      "##ap": 6202,
      "bet": 6203,
      "comp": 6204,
      "zur": 6205,
      "##cc": 6206,
      "##ament": 6207,
      "##ia": 6208,
      "komm": 6209,
      "##ip": 6210,
      "##änd": 6211,
      "##art": 6212,
      "also": 6213,
      "##able": 6214,
      "##otel": 6215,
      "200": 6216,
      "part": 6217,
      "##ige": 6218,
      "##ations": 6219,
      "##ore": 6220,
      "##eren": 6221,
      "cont": 6222,
      "##me": 6223,
      "fra": 6224,
      "european": 6225,
      "##beit": 6226,
      "##rit": 6227,
      "##ac": 6228,
      "there": 6229,
      "haben": 6230,
      "##ult": 6231,
      "kon": 6232,
      "hotel": 6233,
      "coun": 6234,
      "##mer": 6235,
      "kön": 6236,
      "europä": 6237,
      "##ational": 6238,
      "##ue": 6239,
      "##ical": 6240,
      "##heit": 6241,
      "##ud": 6242,
      "bei": 6243,
      "mar": 6244,
      "##tsch": 6245,
      "##ank": 6246,
      "##lichen": 6247,
      "ind": 6248,
      "ser": 6249,
      "##ition": 6250,
      "##ated": 6251,
      "##ec": 6252,
      "fin": 6253,
      "##ice": 6254,
      "##fü": 6255,
      "einer": 6256,
      "tra": 6257,
      "but": 6258,
      "##out": 6259,
      "##hen": 6260,
      "go": 6261,
      "ag": 6262,
      "##aft": 6263,
      "do": 6264,
      "durch": 6265,
      "parl": 6266,
      "gen": 6267,
      "##ke": 6268,
      "pres": 6269,
      "##ome": 6270,
      "mö": 6271,
      "cl": 6272,
      "gr": 6273,
      "##per": 6274,
      "##aten": 6275,
      "##elt": 6276,
      "fre": 6277,
      "war": 6278,
      "##ord": 6279,
      "sein": 6280,
      "diese": 6281,
      "dar": 6282,
      "##ieren": 6283,
      "##iert": 6284,
      "your": 6285,
      "ihr": 6286,
      "##ish": 6287,
      "##ction": 6288,
      "##af": 6289,
      "off": 6290,
      "its": 6291,
      "##ight": 6292,
      "ro": 6293,
      "##ember": 6294,
      "##ement": 6295,
      "einen": 6296,
      "produ": 6297,
      "app": 6298,
      "union": 6299,
      "##ub": 6300,
      "##tr": 6301,
      "##ign": 6302,
      "##ges": 6303,
      "intern": 6304,
      "##ance": 6305,
      "##sten": 6306,
      "##ates": 6307,
      "##vel": 6308,
      "##är": 6309,
      "##ear": 6310,
      "##yst": 6311,
      "##cht": 6312,
      "##erm": 6313,
      "##anz": 6314,
      "##ele": 6315,
      "##are": 6316,
      "dis": 6317,
      "##ht": 6318,
      "##ne": 6319,
      "##chen": 6320,
      "##ite": 6321,
      "##se": 6322,
      "##ide": 6323,
      "19": 6324,
      "no": 6325,
      "wur": 6326,
      "inter": 6327,
      "pre": 6328,
      "##ystem": 6329,
      "herr": 6330,
      "##ely": 6331,
      "können": 6332,
      "inc": 6333,
      "more": 6334,
      "wenn": 6335,
      "##ary": 6336,
      "mr": 6337,
      "##ose": 6338,
      "##liche": 6339,
      "new": 6340,
      "##he": 6341,
      "##ger": 6342,
      "zum": 6343,
      "commission": 6344,
      "##äs": 6345,
      "##gt": 6346,
      "inst": 6347,
      "##ther": 6348,
      "one": 6349,
      "fa": 6350,
      "##än": 6351,
      "acc": 6352,
      "would": 6353,
      "##zu": 6354,
      "po": 6355,
      "alle": 6356,
      "ob": 6357,
      "if": 6358,
      "##..": 6359,
      "their": 6360,
      "##ime": 6361,
      "str": 6362,
      "##hl": 6363,
      "##ör": 6364,
      "##zen": 6365,
      "##lo": 6366,
      "ihre": 6367,
      "##ack": 6368,
      "##con": 6369,
      "##ble": 6370,
      "einem": 6371,
      "ste": 6372,
      "inform": 6373,
      "been": 6374,
      "nur": 6375,
      "pos": 6376,
      "##dern": 6377,
      "##ese": 6378,
      "##chn": 6379,
      "up": 6380,
      "##reat": 6381,
      "##ellen": 6382,
      "em": 6383,
      "##che": 6384,
      "bed": 6385,
      "##ase": 6386,
      "##sp": 6387,
      "##imm": 6388,
      "##glich": 6389,
      "kann": 6390,
      "##ild": 6391,
      "##ram": 6392,
      "per": 6393,
      "##itt": 6394,
      "##fen": 6395,
      "##chte": 6396,
      "eu": 6397,
      "they": 6398,
      "zw": 6399,
      "polit": 6400,
      "dieser": 6401,
      "work": 6402,
      "##ück": 6403,
      "##ong": 6404,
      "ev": 6405,
      "int": 6406,
      "##üss": 6407,
      "##ste": 6408,
      "jed": 6409,
      "out": 6410,
      "la": 6411,
      "should": 6412,
      "mon": 6413,
      "##ame": 6414,
      "##ian": 6415,
      "trans": 6416,
      "##ile": 6417,
      "##ally": 6418,
      "mein": 6419,
      "gem": 6420,
      "weit": 6421,
      "##ute": 6422,
      "pers": 6423,
      "aber": 6424,
      "br": 6425,
      "mehr": 6426,
      "##gan": 6427,
      "pe": 6428,
      "soll": 6429,
      "##ahl": 6430,
      "serv": 6431,
      "europäischen": 6432,
      "min": 6433,
      "##ution": 6434,
      "##ike": 6435,
      "##tra": 6436,
      "sol": 6437,
      "##ner": 6438,
      "hin": 6439,
      "##pf": 6440,
      "verb": 6441,
      "system": 6442,
      "jahr": 6443,
      "tak": 6444,
      "##wer": 6445,
      "best": 6446,
      "member": 6447,
      "##ail": 6448,
      "##pro": 6449,
      "##ied": 6450,
      "##ierung": 6451,
      "##land": 6452,
      "countr": 6453,
      "very": 6454,
      "##ün": 6455,
      "##äsident": 6456,
      "other": 6457,
      "##ld": 6458,
      "##igkeit": 6459,
      "##ace": 6460,
      "fl": 6461,
      "fe": 6462,
      "who": 6463,
      "must": 6464,
      "cons": 6465,
      "zus": 6466,
      "##bar": 6467,
      "##ähr": 6468,
      "noch": 6469,
      "##reich": 6470,
      "##olle": 6471,
      "##üt": 6472,
      "these": 6473,
      "##gram": 6474,
      "fir": 6475,
      "bo": 6476,
      "##ings": 6477,
      "##geb": 6478,
      "arbeit": 6479,
      "men": 6480,
      "daß": 6481,
      "##ient": 6482,
      "rel": 6483,
      "##ktion": 6484,
      "##ommen": 6485,
      "gew": 6486,
      "##ll": 6487,
      "only": 6488,
      "proble": 6489,
      "##ks": 6490,
      "##ities": 6491,
      "how": 6492,
      "kein": 6493,
      "year": 6494,
      "##iet": 6495,
      "##bs": 6496,
      "##anc": 6497,
      "supp": 6498,
      "kommission": 6499,
      "##alt": 6500,
      "president": 6501,
      "dire": 6502,
      "need": 6503,
      "##lic": 6504,
      "hand": 6505,
      "lo": 6506,
      "bec": 6507,
      "##ater": 6508,
      "##one": 6509,
      "time": 6510,
      "like": 6511,
      "##ire": 6512,
      "sa": 6513,
      "##schaft": 6514,
      "prov": 6515,
      "...": 6516,
      "##utz": 6517,
      "##ors": 6518,
      "wurde": 6519,
      "##ple": 6520,
      "eff": 6521,
      "unser": 6522,
      "##wo": 6523,
      "aut": 6524,
      "gegen": 6525,
      "them": 6526,
      "##ph": 6527,
      "##int": 6528,
      "##pos": 6529,
      "gesch": 6530,
      "any": 6531,
      "information": 6532,
      "##schen": 6533,
      "ins": 6534,
      "##ßen": 6535,
      "entw": 6536,
      "about": 6537,
      "##olog": 6538,
      "##up": 6539,
      "rec": 6540,
      "sehr": 6541,
      "international": 6542,
      "##io": 6543,
      "präsident": 6544,
      "ä": 6545,
      "bel": 6546,
      "##glie": 6547,
      "sit": 6548,
      "##üssen": 6549,
      "vie": 6550,
      "af": 6551,
      "bis": 6552,
      "cent": 6553,
      "##auf": 6554,
      "##sib": 6555,
      "what": 6556,
      "##ehmen": 6557,
      "ho": 6558,
      "##führ": 6559,
      "##get": 6560,
      "sow": 6561,
      "kl": 6562,
      "sel": 6563,
      "my": 6564,
      "viel": 6565,
      "##ious": 6566,
      "##assen": 6567,
      "hier": 6568,
      "##leich": 6569,
      "##schl": 6570,
      "##ffen": 6571,
      "nat": 6572,
      "inv": 6573,
      "müssen": 6574,
      "##velop": 6575,
      "art": 6576,
      "bas": 6577,
      "parlament": 6578,
      "dam": 6579,
      "##uen": 6580,
      "##ität": 6581,
      "##ments": 6582,
      "dec": 6583,
      "develop": 6584,
      "wo": 6585,
      "when": 6586,
      "##sta": 6587,
      "mitglie": 6588,
      "##xt": 6589,
      "mark": 6590,
      "##rie": 6591,
      "program": 6592,
      "techn": 6593,
      "##nah": 6594,
      "gu": 6595,
      "20": 6596,
      "spe": 6597,
      "##iament": 6598,
      "ele": 6599,
      "land": 6600,
      "lie": 6601,
      "parliament": 6602,
      "##sen": 6603,
      "rat": 6604,
      "##als": 6605,
      "##arbeit": 6606,
      "##onder": 6607,
      "end": 6608,
      "##ammen": 6609,
      "et": 6610,
      "##rat": 6611,
      "##iden": 6612,
      "sc": 6613,
      "##fahr": 6614,
      "##ism": 6615,
      "##cess": 6616,
      "import": 6617,
      "form": 6618,
      "vers": 6619,
      "##ular": 6620,
      "over": 6621,
      "peop": 6622,
      "##ents": 6623,
      "##ange": 6624,
      "entwick": 6625,
      "##ility": 6626,
      "act": 6627,
      "zeit": 6628,
      "##ibt": 6629,
      "person": 6630,
      "##fore": 6631,
      "well": 6632,
      "seit": 6633,
      "##ink": 6634,
      "##eln": 6635,
      "##wn": 6636,
      "ph": 6637,
      "##atz": 6638,
      "resp": 6639,
      ").": 6640,
      "diesem": 6641,
      "##fol": 6642,
      "kn": 6643,
      "##wend": 6644,
      "bl": 6645,
      "##els": 6646,
      "states": 6647,
      "some": 6648,
      "first": 6649,
      "##ures": 6650,
      "problem": 6651,
      "##etzt": 6652,
      "##igt": 6653,
      "zusammen": 6654,
      "##ause": 6655,
      "people": 6656,
      "##att": 6657,
      "high": 6658,
      "conc": 6659,
      "stand": 6660,
      "##ri": 6661,
      "##own": 6662,
      "such": 6663,
      "ben": 6664,
      "gemein": 6665,
      "##hn": 6666,
      "##lin": 6667,
      "geb": 6668,
      "##ays": 6669,
      "just": 6670,
      "##erg": 6671,
      "##fl": 6672,
      "dieses": 6673,
      "##ds": 6674,
      "##ual": 6675,
      "ass": 6676,
      "##stell": 6677,
      "##iger": 6678,
      "wel": 6679,
      "##iven": 6680,
      "##ject": 6681,
      "use": 6682,
      "##ov": 6683,
      "##ateg": 6684,
      "##ett": 6685,
      "mach": 6686,
      "loc": 6687,
      "##dition": 6688,
      "report": 6689,
      "##ale": 6690,
      "world": 6691,
      "##ry": 6692,
      "##äl": 6693,
      "##ific": 6694,
      "sub": 6695,
      "spec": 6696,
      "##unden": 6697,
      "eing": 6698,
      "into": 6699,
      "were": 6700,
      "hel": 6701,
      "##oy": 6702,
      "##gest": 6703,
      "##uß": 6704,
      "son": 6705,
      "##ative": 6706,
      "##fer": 6707,
      "##ek": 6708,
      "##cy": 6709,
      "room": 6710,
      "##ices": 6711,
      "rest": 6712,
      "##act": 6713,
      "##av": 6714,
      "ihnen": 6715,
      "now": 6716,
      "national": 6717,
      "ever": 6718,
      "diff": 6719,
      "med": 6720,
      "##ken": 6721,
      "##par": 6722,
      "most": 6723,
      "qual": 6724,
      "ö": 6725,
      "möchte": 6726,
      "his": 6727,
      "##agen": 6728,
      "##elle": 6729,
      "##vor": 6730,
      "sta": 6731,
      "sicher": 6732,
      "ko": 6733,
      "##unt": 6734,
      "##zeit": 6735,
      "besch": 6736,
      "##kl": 6737,
      "##ces": 6738,
      "wicht": 6739,
      "vom": 6740,
      "##lung": 6741,
      "##isten": 6742,
      "eines": 6743,
      "incl": 6744,
      "region": 6745,
      "mitglied": 6746,
      "unsere": 6747,
      "support": 6748,
      "econ": 6749,
      "polic": 6750,
      "grund": 6751,
      "econom": 6752,
      "##ugh": 6753,
      "##ced": 6754,
      "##ound": 6755,
      "kom": 6756,
      "bar": 6757,
      "leg": 6758,
      "under": 6759,
      "entsch": 6760,
      "unterst": 6761,
      "##enden": 6762,
      "##cil": 6763,
      "##stand": 6764,
      "##wor": 6765,
      "##ider": 6766,
      "many": 6767,
      "op": 6768,
      "av": 6769,
      "möglich": 6770,
      "red": 6771,
      "countries": 6772,
      "deb": 6773,
      "pub": 6774,
      "car": 6775,
      "organ": 6776,
      "market": 6777,
      "than": 6778,
      "partic": 6779,
      "##ory": 6780,
      "bus": 6781,
      "),": 6782,
      "soc": 6783,
      "##ention": 6784,
      "get": 6785,
      "met": 6786,
      "##itte": 6787,
      "ger": 6788,
      "##los": 6789,
      "##erung": 6790,
      "council": 6791,
      "##ages": 6792,
      "cre": 6793,
      "mus": 6794,
      "ac": 6795,
      "zwe": 6796,
      "agre": 6797,
      "welt": 6798,
      "##ful": 6799,
      "menschen": 6800,
      "##über": 6801,
      "##sicht": 6802,
      "##teil": 6803,
      "again": 6804,
      "gel": 6805,
      "##ards": 6806,
      "##net": 6807,
      "##mitt": 6808,
      "##entr": 6809,
      "bereit": 6810,
      "make": 6811,
      "zwischen": 6812,
      "direct": 6813,
      "##gh": 6814,
      "sowie": 6815,
      "bef": 6816,
      "situ": 6817,
      "because": 6818,
      "gener": 6819,
      "unterstüt": 6820,
      "important": 6821,
      "##hand": 6822,
      "gibt": 6823,
      "einz": 6824,
      "gl": 6825,
      "may": 6826,
      "##dit": 6827,
      "##rei": 6828,
      "##ights": 6829,
      "##ating": 6830,
      "##tschaft": 6831,
      "##äch": 6832,
      "##ween": 6833,
      "fam": 6834,
      "between": 6835,
      "sm": 6836,
      "cle": 6837,
      "##ument": 6838,
      "##halt": 6839,
      "real": 6840,
      "take": 6841,
      "##halten": 6842,
      "##abl": 6843,
      "bu": 6844,
      "requ": 6845,
      "group": 6846,
      "##essen": 6847,
      "every": 6848,
      "##ues": 6849,
      "##ehen": 6850,
      "fun": 6851,
      "##ühr": 6852,
      "##kommen": 6853,
      "dr": 6854,
      "sin": 6855,
      "##ict": 6856,
      "richt": 6857,
      "propos": 6858,
      "conf": 6859,
      "bericht": 6860,
      "find": 6861,
      "rem": 6862,
      "great": 6863,
      "##ster": 6864,
      "##rä": 6865,
      "erw": 6866,
      "##fe": 6867,
      "good": 6868,
      "##halb": 6869,
      "teil": 6870,
      "##sible": 6871,
      "bere": 6872,
      "where": 6873,
      "even": 6874,
      "beg": 6875,
      "##issen": 6876,
      "##ler": 6877,
      "commun": 6878,
      "##ives": 6879,
      "disc": 6880,
      "10": 6881,
      "mitgliedsta": 6882,
      "energ": 6883,
      "cour": 6884,
      "europäische": 6885,
      "##ho": 6886,
      "wieder": 6887,
      "##ließ": 6888,
      "groß": 6889,
      "##tre": 6890,
      "eng": 6891,
      "thro": 6892,
      "##oth": 6893,
      "##ware": 6894,
      "##ural": 6895,
      "ra": 6896,
      "bez": 6897,
      "##cept": 6898,
      "pra": 6899,
      "##wir": 6900,
      "after": 6901,
      "two": 6902,
      "##ieden": 6903,
      "##ever": 6904,
      "versch": 6905,
      "##ständ": 6906,
      "muss": 6907,
      "weiter": 6908,
      "jo": 6909,
      "##ister": 6910,
      "char": 6911,
      "##dem": 6912,
      "##abe": 6913,
      "ke": 6914,
      "made": 6915,
      "199": 6916,
      "ter": 6917,
      "keine": 6918,
      "vis": 6919,
      "ir": 6920,
      "ide": 6921,
      "schw": 6922,
      "ihrer": 6923,
      "##day": 6924,
      "mod": 6925,
      "##ats": 6926,
      "fest": 6927,
      "##zial": 6928,
      "##yp": 6929,
      "damit": 6930,
      "akt": 6931,
      "gleich": 6932,
      "haus": 6933,
      "länd": 6934,
      "##ath": 6935,
      "far": 6936,
      "deut": 6937,
      "##igung": 6938,
      "del": 6939,
      "##pre": 6940,
      "##atter": 6941,
      "mitt": 6942,
      "those": 6943,
      "through": 6944,
      "##str": 6945,
      "policy": 6946,
      "##vern": 6947,
      "##ekt": 6948,
      "ur": 6949,
      "##bst": 6950,
      "dann": 6951,
      "air": 6952,
      "exp": 6953,
      "##nis": 6954,
      "##urn": 6955,
      "had": 6956,
      "see": 6957,
      "europa": 6958,
      "val": 6959,
      "gra": 6960,
      "##rauch": 6961,
      "way": 6962,
      "years": 6963,
      "indust": 6964,
      "service": 6965,
      "bre": 6966,
      "anderen": 6967,
      "##ved": 6968,
      "hum": 6969,
      "el": 6970,
      "prof": 6971,
      "here": 6972,
      "mitgliedstaaten": 6973,
      "schl": 6974,
      "untern": 6975,
      "iss": 6976,
      "num": 6977,
      "instit": 6978,
      "##ession": 6979,
      "##ünd": 6980,
      "##amen": 6981,
      "know": 6982,
      "order": 6983,
      "def": 6984,
      "##any": 6985,
      "##chten": 6986,
      "view": 6987,
      "term": 6988,
      "##ium": 6989,
      "immer": 6990,
      "verfü": 6991,
      "sim": 6992,
      "fund": 6993,
      "##enz": 6994,
      "sec": 6995,
      "##geben": 6996,
      "##ischer": 6997,
      "##gel": 6998,
      "##forder": 6999,
      "##mal": 7000,
      "eben": 7001,
      "##ina": 7002,
      "##urr": 7003,
      "##rib": 7004,
      "##kte": 7005,
      "ganz": 7006,
      "##olit": 7007,
      "##ital": 7008,
      "right": 7009,
      "fol": 7010,
      "being": 7011,
      "##ote": 7012,
      "##ep": 7013,
      "##ichts": 7014,
      "however": 7015,
      "priv": 7016,
      "leben": 7017,
      "##gung": 7018,
      "beste": 7019,
      "mill": 7020,
      "##orts": 7021,
      "gest": 7022,
      "##äm": 7023,
      "##king": 7024,
      "##weise": 7025,
      "##eut": 7026,
      "##acht": 7027,
      "##sel": 7028,
      "##inn": 7029,
      "famil": 7030,
      "##immer": 7031,
      "##adt": 7032,
      "##ellt": 7033,
      "includ": 7034,
      "##fort": 7035,
      "bereich": 7036,
      "##let": 7037,
      "gar": 7038,
      "##unkt": 7039,
      "sk": 7040,
      "appro": 7041,
      "det": 7042,
      "gut": 7043,
      "selbst": 7044,
      "public": 7045,
      "##rol": 7046,
      "##wort": 7047,
      "##ält": 7048,
      "cr": 7049,
      "##ower": 7050,
      "diesen": 7051,
      "##innen": 7052,
      "##gend": 7053,
      "opt": 7054,
      "##isation": 7055,
      "belie": 7056,
      "dat": 7057,
      "star": 7058,
      "process": 7059,
      "##ivers": 7060,
      "##alls": 7061,
      "govern": 7062,
      "##setz": 7063,
      "particular": 7064,
      "##hör": 7065,
      "##isen": 7066,
      "änd": 7067,
      "führ": 7068,
      "##ited": 7069,
      "quest": 7070,
      "##ough": 7071,
      "##ont": 7072,
      "own": 7073,
      "##chts": 7074,
      "finanz": 7075,
      "play": 7076,
      "##bal": 7077,
      "strateg": 7078,
      "human": 7079,
      "ant": 7080,
      "ref": 7081,
      "##hne": 7082,
      "##nahmen": 7083,
      "mich": 7084,
      "##ös": 7085,
      "prote": 7086,
      "##ax": 7087,
      "want": 7088,
      "##ows": 7089,
      "fact": 7090,
      "heute": 7091,
      "##aut": 7092,
      "##ffent": 7093,
      "wurden": 7094,
      "kont": 7095,
      "seine": 7096,
      "cor": 7097,
      "area": 7098,
      "development": 7099,
      "stud": 7100,
      "##az": 7101,
      "dist": 7102,
      "##ior": 7103,
      "lin": 7104,
      "design": 7105,
      "est": 7106,
      "exc": 7107,
      "##ingen": 7108,
      "last": 7109,
      "##ects": 7110,
      "economic": 7111,
      "invest": 7112,
      "rights": 7113,
      "respon": 7114,
      "sur": 7115,
      "ful": 7116,
      "##part": 7117,
      "##nung": 7118,
      "rep": 7119,
      "lang": 7120,
      "##uf": 7121,
      "frau": 7122,
      "ihren": 7123,
      "##isse": 7124,
      "therefore": 7125,
      "bedeut": 7126,
      "denn": 7127,
      "att": 7128,
      "##iness": 7129,
      "##erv": 7130,
      "situation": 7131,
      "free": 7132,
      "##br": 7133,
      "maß": 7134,
      "social": 7135,
      "var": 7136,
      "wür": 7137,
      "##stru": 7138,
      "##ys": 7139,
      "##bes": 7140,
      "##zt": 7141,
      "##zeich": 7142,
      "kle": 7143,
      "glo": 7144,
      "lu": 7145,
      "sign": 7146,
      "unserer": 7147,
      "hol": 7148,
      "währ": 7149,
      "oper": 7150,
      "##iff": 7151,
      "technolog": 7152,
      "##uer": 7153,
      "vorschl": 7154,
      "bür": 7155,
      "##ants": 7156,
      "eigen": 7157,
      "add": 7158,
      "unternehmen": 7159,
      "then": 7160,
      "##fra": 7161,
      "bro": 7162,
      "##ision": 7163,
      "##aur": 7164,
      "lar": 7165,
      "place": 7166,
      "15": 7167,
      "##fach": 7168,
      "##ree": 7169,
      "clear": 7170,
      "jedoch": 7171,
      "stra": 7172,
      "##itä": 7173,
      "hous": 7174,
      "##bl": 7175,
      "political": 7176,
      "##ßer": 7177,
      "##ix": 7178,
      "##amp": 7179,
      "bek": 7180,
      "##ade": 7181,
      "neue": 7182,
      "opp": 7183,
      "habe": 7184,
      "exper": 7185,
      "##gesch": 7186,
      "down": 7187,
      "12": 7188,
      "services": 7189,
      "##ady": 7190,
      "##afts": 7191,
      "sondern": 7192,
      "##richt": 7193,
      "##ets": 7194,
      "incre": 7195,
      "verein": 7196,
      "manag": 7197,
      "##trag": 7198,
      "etw": 7199,
      "##round": 7200,
      "##ests": 7201,
      "gemeins": 7202,
      "##alten": 7203,
      "webs": 7204,
      "business": 7205,
      "ple": 7206,
      "equ": 7207,
      "tour": 7208,
      "curr": 7209,
      "wen": 7210,
      "##piel": 7211,
      "concern": 7212,
      "##mar": 7213,
      "contin": 7214,
      "produc": 7215,
      "inte": 7216,
      "ang": 7217,
      "within": 7218,
      "##ruck": 7219,
      "hist": 7220,
      "both": 7221,
      "could": 7222,
      "##ons": 7223,
      "fil": 7224,
      "possible": 7225,
      "does": 7226,
      "##ently": 7227,
      "same": 7228,
      "##zung": 7229,
      "point": 7230,
      "ze": 7231,
      "level": 7232,
      "proj": 7233,
      "##rag": 7234,
      "stat": 7235,
      "soft": 7236,
      "germ": 7237,
      "##ete": 7238,
      "number": 7239,
      "je": 7240,
      "##hin": 7241,
      "##mö": 7242,
      "sozial": 7243,
      "kolle": 7244,
      "ents": 7245,
      "sw": 7246,
      "offer": 7247,
      "ohne": 7248,
      "restaur": 7249,
      "18": 7250,
      "integr": 7251,
      "rev": 7252,
      "call": 7253,
      "zahl": 7254,
      "##ving": 7255,
      "bereits": 7256,
      "grö": 7257,
      "inn": 7258,
      "env": 7259,
      "say": 7260,
      "##ma": 7261,
      "##esent": 7262,
      "nor": 7263,
      "financ": 7264,
      "##tens": 7265,
      "recht": 7266,
      "##wert": 7267,
      "##polit": 7268,
      "provid": 7269,
      "sollte": 7270,
      "li": 7271,
      "##eten": 7272,
      "spiel": 7273,
      "open": 7274,
      "wichtig": 7275,
      "tre": 7276,
      "du": 7277,
      "internet": 7278,
      "country": 7279,
      "##ount": 7280,
      "exam": 7281,
      "avail": 7282,
      "agreement": 7283,
      "init": 7284,
      "euro": 7285,
      "##min": 7286,
      "verl": 7287,
      "amer": 7288,
      "##satz": 7289,
      "besonder": 7290,
      "201": 7291,
      "cert": 7292,
      "much": 7293,
      "##ierte": 7294,
      "against": 7295,
      "mil": 7296,
      "zwei": 7297,
      "##ude": 7298,
      "##ziel": 7299,
      "##ritt": 7300,
      "ange": 7301,
      "programm": 7302,
      "##gar": 7303,
      "port": 7304,
      "##les": 7305,
      "##raft": 7306,
      "stru": 7307,
      "##line": 7308,
      "##gang": 7309,
      "differ": 7310,
      "dazu": 7311,
      "today": 7312,
      "back": 7313,
      "arbeits": 7314,
      "##sche": 7315,
      "andere": 7316,
      "##urs": 7317,
      "##ics": 7318,
      "##kehr": 7319,
      "used": 7320,
      "viele": 7321,
      "without": 7322,
      "city": 7323,
      "##lex": 7324,
      "committe": 7325,
      "erst": 7326,
      "##reichen": 7327,
      "bud": 7328,
      "##iver": 7329,
      "erfol": 7330,
      "##oper": 7331,
      "##ähl": 7332,
      "aller": 7333,
      "fac": 7334,
      "##üh": 7335,
      "prin": 7336,
      "##ollen": 7337,
      "neuen": 7338,
      "##iron": 7339,
      "che": 7340,
      "som": 7341,
      "still": 7342,
      "fo": 7343,
      "amen": 7344,
      "access": 7345,
      "cap": 7346,
      "adv": 7347,
      "bal": 7348,
      "##bt": 7349,
      "##für": 7350,
      "##icult": 7351,
      "##utions": 7352,
      "start": 7353,
      "##licher": 7354,
      "net": 7355,
      "special": 7356,
      "##fahren": 7357,
      "help": 7358,
      "cust": 7359,
      "sollten": 7360,
      "long": 7361,
      "entsche": 7362,
      "sy": 7363,
      "##ivid": 7364,
      "global": 7365,
      "pat": 7366,
      "##its": 7367,
      "fur": 7368,
      "frage": 7369,
      "##ierten": 7370,
      "pass": 7371,
      "wirtschaft": 7372,
      "##äre": 7373,
      "environ": 7374,
      "jahren": 7375,
      "ausge": 7376,
      "##ised": 7377,
      "##hip": 7378,
      "sicherheit": 7379,
      "##ulation": 7380,
      "fut": 7381,
      "##ploy": 7382,
      "##ines": 7383,
      "main": 7384,
      "custom": 7385,
      "ens": 7386,
      "since": 7387,
      "able": 7388,
      "foll": 7389,
      "##äng": 7390,
      "verw": 7391,
      "bürger": 7392,
      "beis": 7393,
      "fall": 7394,
      "ru": 7395,
      "aussch": 7396,
      "meas": 7397,
      "kr": 7398,
      "##hing": 7399,
      "present": 7400,
      "##alen": 7401,
      "look": 7402,
      "##ically": 7403,
      "think": 7404,
      "##eng": 7405,
      "doch": 7406,
      "##ilt": 7407,
      "wissen": 7408,
      "entwicklung": 7409,
      "30": 7410,
      "har": 7411,
      "daten": 7412,
      "treat": 7413,
      "##ietet": 7414,
      "jetzt": 7415,
      "state": 7416,
      "dank": 7417,
      "committee": 7418,
      "voll": 7419,
      "hö": 7420,
      "prom": 7421,
      "different": 7422,
      "außer": 7423,
      "pal": 7424,
      "finden": 7425,
      "environment": 7426,
      "aw": 7427,
      "during": 7428,
      "before": 7429,
      "set": 7430,
      "amend": 7431,
      "verschieden": 7432,
      "00": 7433,
      "denen": 7434,
      "##immt": 7435,
      "mir": 7436,
      "software": 7437,
      "##urch": 7438,
      "vol": 7439,
      "##erungs": 7440,
      "rechts": 7441,
      "gef": 7442,
      "typ": 7443,
      "##ieten": 7444,
      "einige": 7445,
      "dien": 7446,
      "small": 7447,
      "mor": 7448,
      "mittel": 7449,
      "day": 7450,
      "ziel": 7451,
      "##fern": 7452,
      "##ob": 7453,
      "sl": 7454,
      "available": 7455,
      "##äh": 7456,
      "kommiss": 7457,
      "##air": 7458,
      "##hol": 7459,
      "bank": 7460,
      "##rupp": 7461,
      "russ": 7462,
      "data": 7463,
      "##ope": 7464,
      "weil": 7465,
      "einfach": 7466,
      "##ize": 7467,
      "##lichkeit": 7468,
      "##ists": 7469,
      "auth": 7470,
      "saf": 7471,
      "thank": 7472,
      "##press": 7473,
      "meine": 7474,
      "position": 7475,
      "##lage": 7476,
      "##zeug": 7477,
      "mot": 7478,
      "letz": 7479,
      "aff": 7480,
      "##que": 7481,
      "require": 7482,
      "##kun": 7483,
      "consider": 7484,
      "##ene": 7485,
      "##work": 7486,
      "##ife": 7487,
      "##ktur": 7488,
      "##iß": 7489,
      "dah": 7490,
      "house": 7491,
      "redu": 7492,
      "secur": 7493,
      "000": 7494,
      "während": 7495,
      "##ination": 7496,
      "kur": 7497,
      "##ness": 7498,
      "##esse": 7499,
      "nun": 7500,
      "million": 7501,
      "##nahme": 7502,
      "##ond": 7503,
      "put": 7504,
      "members": 7505,
      "bietet": 7506,
      "follow": 7507,
      "machen": 7508,
      "stadt": 7509,
      "future": 7510,
      "##äß": 7511,
      "prev": 7512,
      "secon": 7513,
      "##ability": 7514,
      "allen": 7515,
      "##ves": 7516,
      "imm": 7517,
      "quality": 7518,
      "law": 7519,
      "##bo": 7520,
      "ris": 7521,
      "##ready": 7522,
      "##vers": 7523,
      "already": 7524,
      "tro": 7525,
      "##ience": 7526,
      "effect": 7527,
      "cann": 7528,
      "repr": 7529,
      "liegt": 7530,
      "##ator": 7531,
      "cit": 7532,
      "##co": 7533,
      "scha": 7534,
      "##licht": 7535,
      "##alth": 7536,
      "beispiel": 7537,
      "##so": 7538,
      "democ": 7539,
      "products": 7540,
      "course": 7541,
      "dafür": 7542,
      "individ": 7543,
      "col": 7544,
      "financial": 7545,
      "schon": 7546,
      "begr": 7547,
      "found": 7548,
      "believe": 7549,
      "darauf": 7550,
      "könn": 7551,
      "ret": 7552,
      "##ahmen": 7553,
      "rooms": 7554,
      "bin": 7555,
      "##stellung": 7556,
      "initi": 7557,
      "modern": 7558,
      "öffent": 7559,
      "##elegen": 7560,
      "##len": 7561,
      "too": 7562,
      "11": 7563,
      "seiner": 7564,
      "##politik": 7565,
      "question": 7566,
      "##akt": 7567,
      "stre": 7568,
      "maj": 7569,
      "text": 7570,
      "##ica": 7571,
      "power": 7572,
      "enter": 7573,
      "cas": 7574,
      "beit": 7575,
      "##gem": 7576,
      "##ffe": 7577,
      "each": 7578,
      "certain": 7579,
      "##ante": 7580,
      "wirk": 7581,
      "möglichkeit": 7582,
      "##annt": 7583,
      "##led": 7584,
      "second": 7585,
      "ann": 7586,
      "schn": 7587,
      "##ismus": 7588,
      "book": 7589,
      "budget": 7590,
      "neg": 7591,
      "ital": 7592,
      "mal": 7593,
      "##ost": 7594,
      "elect": 7595,
      "##plement": 7596,
      "community": 7597,
      "2009": 7598,
      "case": 7599,
      "tun": 7600,
      "regard": 7601,
      "##res": 7602,
      "##omen": 7603,
      "gre": 7604,
      "rahmen": 7605,
      "lage": 7606,
      "##nisse": 7607,
      "ach": 7608,
      "zentr": 7609,
      "##lagen": 7610,
      "##itz": 7611,
      "##ahre": 7612,
      "colle": 7613,
      "##lau": 7614,
      "##grund": 7615,
      "maßnahmen": 7616,
      "##ren": 7617,
      "cannot": 7618,
      "bild": 7619,
      "informationen": 7620,
      "geht": 7621,
      "impro": 7622,
      "##aben": 7623,
      "plan": 7624,
      "]]": 7625,
      "implement": 7626,
      "##ially": 7627,
      "##ible": 7628,
      "daher": 7629,
      "meet": 7630,
      "posit": 7631,
      "##ationen": 7632,
      "##aterial": 7633,
      "citiz": 7634,
      "##ultur": 7635,
      "autom": 7636,
      "##tend": 7637,
      "natür": 7638,
      "offers": 7639,
      "waren": 7640,
      "##ished": 7641,
      "##okrat": 7642,
      "zurück": 7643,
      "##leist": 7644,
      "child": 7645,
      "eas": 7646,
      "##aften": 7647,
      "##inen": 7648,
      "id": 7649,
      "##iving": 7650,
      "##ately": 7651,
      "##ps": 7652,
      "general": 7653,
      "umf": 7654,
      "zimmer": 7655,
      "cost": 7656,
      "##por": 7657,
      "kosten": 7658,
      "security": 7659,
      "##inal": 7660,
      "applic": 7661,
      "install": 7662,
      "##klär": 7663,
      "##ichten": 7664,
      "activ": 7665,
      "[[": 7666,
      "##olution": 7667,
      "ear": 7668,
      "major": 7669,
      "commissioner": 7670,
      "##opt": 7671,
      "##ence": 7672,
      "##ains": 7673,
      "dabe": 7674,
      "##erk": 7675,
      "dabei": 7676,
      "terr": 7677,
      "##antwort": 7678,
      "umw": 7679,
      "größ": 7680,
      "hal": 7681,
      "herrn": 7682,
      "expl": 7683,
      "hoch": 7684,
      "disk": 7685,
      "gesam": 7686,
      "transport": 7687,
      "conv": 7688,
      "16": 7689,
      "lassen": 7690,
      "tradition": 7691,
      "##over": 7692,
      "##ified": 7693,
      "common": 7694,
      "wind": 7695,
      "rom": 7696,
      "cooper": 7697,
      "based": 7698,
      "##isl": 7699,
      "reas": 7700,
      "##ders": 7701,
      "bor": 7702,
      "mult": 7703,
      "##öl": 7704,
      "kin": 7705,
      "##ually": 7706,
      "government": 7707,
      "cult": 7708,
      "##imes": 7709,
      "train": 7710,
      "##ral": 7711,
      "nie": 7712,
      "##ron": 7713,
      "while": 7714,
      "energy": 7715,
      "result": 7716,
      "##ily": 7717,
      "minut": 7718,
      "##stimm": 7719,
      "notwend": 7720,
      "author": 7721,
      "würde": 7722,
      "abs": 7723,
      "wal": 7724,
      "##ichte": 7725,
      "said": 7726,
      "pop": 7727,
      "jahre": 7728,
      "bra": 7729,
      "##ende": 7730,
      "##ichter": 7731,
      "allem": 7732,
      "hil": 7733,
      "zweit": 7734,
      "including": 7735,
      "##punkt": 7736,
      "interest": 7737,
      "sal": 7738,
      "achie": 7739,
      "##bur": 7740,
      "##lungs": 7741,
      "##isierung": 7742,
      "##iew": 7743,
      "##ef": 7744,
      "sor": 7745,
      "example": 7746,
      "means": 7747,
      "debate": 7748,
      "issue": 7749,
      "proposal": 7750,
      "website": 7751,
      "next": 7752,
      "##lossen": 7753,
      "##ock": 7754,
      "##stit": 7755,
      "personal": 7756,
      "##kunft": 7757,
      "compet": 7758,
      "pay": 7759,
      "health": 7760,
      "wollen": 7761,
      "why": 7762,
      "##ahn": 7763,
      "employ": 7764,
      "##ms": 7765,
      "three": 7766,
      "sect": 7767,
      "##heiten": 7768,
      "darüber": 7769,
      "ans": 7770,
      "kommissar": 7771,
      "##ways": 7772,
      "citizens": 7773,
      "##ondere": 7774,
      "##ogra": 7775,
      "apart": 7776,
      "insbes": 7777,
      "reform": 7778,
      "company": 7779,
      "geschä": 7780,
      "25": 7781,
      "beim": 7782,
      "politik": 7783,
      "insbesondere": 7784,
      "unseren": 7785,
      "instr": 7786,
      "prior": 7787,
      "programme": 7788,
      "histor": 7789,
      "empf": 7790,
      "necess": 7791,
      "##ird": 7792,
      "centre": 7793,
      "##ized": 7794,
      "##inden": 7795,
      "##gress": 7796,
      "deshalb": 7797,
      "grow": 7798,
      "##fr": 7799,
      "build": 7800,
      "bestimm": 7801,
      "arch": 7802,
      "institution": 7803,
      "innov": 7804,
      "univers": 7805,
      "verbess": 7806,
      "##angen": 7807,
      "systems": 7808,
      "##uth": 7809,
      "stay": 7810,
      "##mb": 7811,
      "##führt": 7812,
      "adopt": 7813,
      "verst": 7814,
      "17": 7815,
      "##halts": 7816,
      "asp": 7817,
      "14": 7818,
      "##tt": 7819,
      "matter": 7820,
      "##weit": 7821,
      "version": 7822,
      "allow": 7823,
      "respect": 7824,
      "key": 7825,
      "##ilities": 7826,
      "sum": 7827,
      "##other": 7828,
      "addition": 7829,
      "glau": 7830,
      "enth": 7831,
      "pa": 7832,
      "##bere": 7833,
      "##ktionen": 7834,
      "gol": 7835,
      "##eld": 7836,
      "##stellen": 7837,
      "##lungen": 7838,
      "stehen": 7839,
      "demokrat": 7840,
      "home": 7841,
      "##ucht": 7842,
      "##ress": 7843,
      "##fts": 7844,
      "##amm": 7845,
      "sing": 7846,
      "management": 7847,
      "##bed": 7848,
      "##ins": 7849,
      "site": 7850,
      "##oren": 7851,
      "parlaments": 7852,
      "fragen": 7853,
      "etwas": 7854,
      "##ters": 7855,
      "verg": 7856,
      "let": 7857,
      "succ": 7858,
      "control": 7859,
      "life": 7860,
      "problems": 7861,
      "large": 7862,
      "zusammenarbeit": 7863,
      "online": 7864,
      "date": 7865,
      "web": 7866,
      "einzel": 7867,
      "san": 7868,
      "tag": 7869,
      "located": 7870,
      "hotels": 7871,
      "##länd": 7872,
      "sagen": 7873,
      "basis": 7874,
      "lös": 7875,
      "##erence": 7876,
      "##zahl": 7877,
      "##ragen": 7878,
      "##eder": 7879,
      "chr": 7880,
      "tal": 7881,
      "länder": 7882,
      "##ipp": 7883,
      "legisl": 7884,
      "dav": 7885,
      "##ander": 7886,
      "measures": 7887,
      "##ott": 7888,
      "areas": 7889,
      "##ential": 7890,
      "material": 7891,
      "give": 7892,
      "##genommen": 7893,
      "rece": 7894,
      "lab": 7895,
      "further": 7896,
      "erfolg": 7897,
      "vorschlag": 7898,
      "##roll": 7899,
      "sens": 7900,
      "given": 7901,
      "establ": 7902,
      "few": 7903,
      "##ption": 7904,
      "##gangen": 7905,
      "anal": 7906,
      "non": 7907,
      "100": 7908,
      "discuss": 7909,
      "welc": 7910,
      "mag": 7911,
      "##man": 7912,
      "##amer": 7913,
      "list": 7914,
      "##ditions": 7915,
      "entscheid": 7916,
      "##ache": 7917,
      "##mittel": 7918,
      "##ente": 7919,
      "come": 7920,
      "success": 7921,
      "agr": 7922,
      "##racht": 7923,
      "50": 7924,
      "##opp": 7925,
      "##earch": 7926,
      "kar": 7927,
      "##zw": 7928,
      "fahr": 7929,
      "somet": 7930,
      "post": 7931,
      "protection": 7932,
      "##etzen": 7933,
      "##linie": 7934,
      "kultur": 7935,
      "ask": 7936,
      "markt": 7937,
      "einmal": 7938,
      "##ged": 7939,
      "provide": 7940,
      "##eign": 7941,
      "mail": 7942,
      "ca": 7943,
      "defin": 7944,
      "2010": 7945,
      "mad": 7946,
      "ak": 7947,
      "orig": 7948,
      "china": 7949,
      "##rache": 7950,
      "mob": 7951,
      "team": 7952,
      "taken": 7953,
      "lim": 7954,
      "object": 7955,
      "##iter": 7956,
      "erhalten": 7957,
      "restaurant": 7958,
      "##ließlich": 7959,
      "##lei": 7960,
      "erh": 7961,
      "research": 7962,
      "drei": 7963,
      "##orte": 7964,
      "13": 7965,
      "##agt": 7966,
      "##falls": 7967,
      "##ums": 7968,
      "zie": 7969,
      "bew": 7970,
      "km": 7971,
      "change": 7972,
      "stellen": 7973,
      "##ading": 7974,
      "##ordnung": 7975,
      "enj": 7976,
      "##orth": 7977,
      "action": 7978,
      "trade": 7979,
      "princ": 7980,
      "break": 7981,
      "##ration": 7982,
      "legal": 7983,
      "ander": 7984,
      "did": 7985,
      "##red": 7986,
      "natürlich": 7987,
      "cooperation": 7988,
      "increas": 7989,
      "vot": 7990,
      "##ortun": 7991,
      "##iate": 7992,
      "frien": 7993,
      "##cken": 7994,
      "##rechen": 7995,
      "ersten": 7996,
      "tats": 7997,
      "verantwort": 7998,
      "##esen": 7999,
      "änderungs": 8000,
      "geben": 8001,
      "opportun": 8002,
      "enjoy": 8003,
      "##erst": 8004,
      "account": 8005,
      "pract": 8006,
      "sat": 8007,
      "park": 8008,
      "ihrem": 8009,
      "accord": 8010,
      "imp": 8011,
      "##öt": 8012,
      "writ": 8013,
      "rele": 8014,
      "##ether": 8015,
      "beh": 8016,
      "##indet": 8017,
      "ensure": 8018,
      "##ätz": 8019,
      "angeb": 8020,
      "old": 8021,
      "##ief": 8022,
      "##itäten": 8023,
      "arr": 8024,
      "dra": 8025,
      "pack": 8026,
      "untersch": 8027,
      "rad": 8028,
      "##setzung": 8029,
      "welche": 8030,
      "##kon": 8031,
      "cro": 8032,
      "2008": 8033,
      "united": 8034,
      "##ierungs": 8035,
      "##bau": 8036,
      "partner": 8037,
      "##möglich": 8038,
      "full": 8039,
      "consum": 8040,
      "##ward": 8041,
      "visit": 8042,
      "conn": 8043,
      "beach": 8044,
      "##igten": 8045,
      "statt": 8046,
      "##utzen": 8047,
      "log": 8048,
      "another": 8049,
      "##lä": 8050,
      "bess": 8051,
      "unterstützung": 8052,
      "shall": 8053,
      "##ules": 8054,
      "vill": 8055,
      "tur": 8056,
      "dienst": 8057,
      "##mit": 8058,
      "hope": 8059,
      "##ohl": 8060,
      "##assung": 8061,
      "she": 8062,
      "namen": 8063,
      "för": 8064,
      "##uchen": 8065,
      "abge": 8066,
      "tem": 8067,
      "heraus": 8068,
      "cho": 8069,
      "host": 8070,
      "bitte": 8071,
      "lebens": 8072,
      "##ane": 8073,
      "necessary": 8074,
      "umwelt": 8075,
      "##äd": 8076,
      "##legen": 8077,
      "erklär": 8078,
      "##ected": 8079,
      "jeder": 8080,
      "##asch": 8081,
      "##ning": 8082,
      "dial": 8083,
      "##igkeiten": 8084,
      "##äge": 8085,
      "##vement": 8086,
      "comb": 8087,
      "ländern": 8088,
      "folgen": 8089,
      "inner": 8090,
      "please": 8091,
      "unt": 8092,
      "reach": 8093,
      "invol": 8094,
      "using": 8095,
      "##allen": 8096,
      "##iten": 8097,
      "##äft": 8098,
      "##kten": 8099,
      "##rö": 8100,
      "esp": 8101,
      "##tschafts": 8102,
      "sehen": 8103,
      "##ellschaft": 8104,
      "##ises": 8105,
      "span": 8106,
      "bem": 8107,
      "whether": 8108,
      "änderungsant": 8109,
      "top": 8110,
      "show": 8111,
      "kunden": 8112,
      "##zentr": 8113,
      "standard": 8114,
      "verwend": 8115,
      "vote": 8116,
      "besteht": 8117,
      "##iety": 8118,
      "accept": 8119,
      "##eter": 8120,
      "represent": 8121,
      "always": 8122,
      "bil": 8123,
      "##lt": 8124,
      "tele": 8125,
      "rates": 8126,
      "##ively": 8127,
      "##gemein": 8128,
      "detail": 8129,
      "entspre": 8130,
      "vi": 8131,
      "##altung": 8132,
      "##ieh": 8133,
      "##bewer": 8134,
      "happ": 8135,
      "weg": 8136,
      "bring": 8137,
      "water": 8138,
      "private": 8139,
      "directive": 8140,
      "extre": 8141,
      "##rän": 8142,
      "product": 8143,
      "24": 8144,
      "super": 8145,
      "terms": 8146,
      "##asse": 8147,
      "vertrag": 8148,
      "third": 8149,
      "proz": 8150,
      "better": 8151,
      "##ake": 8152,
      "##abil": 8153,
      "tax": 8154,
      "direkt": 8155,
      "seinen": 8156,
      "##fre": 8157,
      "klar": 8158,
      "zun": 8159,
      "minister": 8160,
      "##schein": 8161,
      "##cher": 8162,
      "wäre": 8163,
      "##ko": 8164,
      "##asser": 8165,
      "needs": 8166,
      "weitere": 8167,
      "run": 8168,
      "meiner": 8169,
      "##glichen": 8170,
      "fiel": 8171,
      "steht": 8172,
      "##erungen": 8173,
      "##stimmung": 8174,
      "wett": 8175,
      "energie": 8176,
      "##uge": 8177,
      "##ches": 8178,
      "##führung": 8179,
      "gehör": 8180,
      "terror": 8181,
      "großen": 8182,
      "deutsch": 8183,
      "##lus": 8184,
      "##sibility": 8185,
      "vielen": 8186,
      "##ury": 8187,
      "gent": 8188,
      "##prü": 8189,
      "##ool": 8190,
      "working": 8191,
      "##fte": 8192,
      "frei": 8193,
      "chang": 8194,
      "##ling": 8195,
      "dort": 8196,
      "vide": 8197,
      "toget": 8198,
      "press": 8199,
      "near": 8200,
      "less": 8201,
      "alles": 8202,
      "wish": 8203,
      "around": 8204,
      "together": 8205,
      "stär": 8206,
      "kind": 8207,
      "seite": 8208,
      "regierung": 8209,
      "##häng": 8210,
      "große": 8211,
      "prot": 8212,
      "lea": 8213,
      "profession": 8214,
      "ren": 8215,
      "##ekte": 8216,
      "dom": 8217,
      "production": 8218,
      "##ogen": 8219,
      "short": 8220,
      "##ätze": 8221,
      "entfern": 8222,
      "children": 8223,
      "##text": 8224,
      "letzten": 8225,
      "##ivil": 8226,
      "wahr": 8227,
      "##ection": 8228,
      "##ichterst": 8229,
      "##wand": 8230,
      "##zus": 8231,
      "##ising": 8232,
      "jun": 8233,
      "kollegen": 8234,
      "##sto": 8235,
      "##fft": 8236,
      "usa": 8237,
      "page": 8238,
      "ja": 8239,
      "liber": 8240,
      "stim": 8241,
      "women": 8242,
      "##kre": 8243,
      "##yn": 8244,
      "crit": 8245,
      "name": 8246,
      "comput": 8247,
      "mind": 8248,
      "local": 8249,
      "verk": 8250,
      "exist": 8251,
      "nutz": 8252,
      "test": 8253,
      "##burg": 8254,
      "2007": 8255,
      "fast": 8256,
      "don": 8257,
      "transpar": 8258,
      "##upt": 8259,
      "##enten": 8260,
      "##zeichnet": 8261,
      "milit": 8262,
      "##bereich": 8263,
      "perform": 8264,
      "muß": 8265,
      "current": 8266,
      "turn": 8267,
      "central": 8268,
      "food": 8269,
      "##ique": 8270,
      "ident": 8271,
      "worden": 8272,
      "rapp": 8273,
      "produkt": 8274,
      "##sequ": 8275,
      "##elf": 8276,
      "##iation": 8277,
      "##ads": 8278,
      "##ingungen": 8279,
      "schnell": 8280,
      "##mon": 8281,
      "phot": 8282,
      "kinder": 8283,
      "german": 8284,
      "##rechte": 8285,
      "##blick": 8286,
      "class": 8287,
      "##dr": 8288,
      "sü": 8289,
      "##ey": 8290,
      "making": 8291,
      "deren": 8292,
      "##erc": 8293,
      "##wards": 8294,
      "macht": 8295,
      "##iod": 8296,
      "funktion": 8297,
      "##ikan": 8298,
      "##undheit": 8299,
      "fraktion": 8300,
      "gewähr": 8301,
      "lis": 8302,
      "##äll": 8303,
      "besonders": 8304,
      "specific": 8305,
      "##schaften": 8306,
      "proced": 8307,
      "project": 8308,
      "care": 8309,
      "win": 8310,
      "kü": 8311,
      "anwend": 8312,
      "##la": 8313,
      "conditions": 8314,
      "##hmen": 8315,
      "doc": 8316,
      "industry": 8317,
      "staff": 8318,
      "ergeb": 8319,
      "particularly": 8320,
      "##kes": 8321,
      "ende": 8322,
      "##ölk": 8323,
      "verfügung": 8324,
      "mrs": 8325,
      "clos": 8326,
      "internationalen": 8327,
      "regul": 8328,
      "schutz": 8329,
      "##ify": 8330,
      "natur": 8331,
      "##iges": 8332,
      "check": 8333,
      "him": 8334,
      "tar": 8335,
      "##under": 8336,
      "beaut": 8337,
      "regel": 8338,
      "haupt": 8339,
      "##ove": 8340,
      "wettbewer": 8341,
      "##hof": 8342,
      "become": 8343,
      "wirtschafts": 8344,
      "##derung": 8345,
      "anges": 8346,
      "##druck": 8347,
      "bedeutung": 8348,
      "dou": 8349,
      "##gehen": 8350,
      "once": 8351,
      "##unter": 8352,
      "##vert": 8353,
      "##zept": 8354,
      "tot": 8355,
      "sowohl": 8356,
      "line": 8357,
      "compan": 8358,
      "##ße": 8359,
      "prop": 8360,
      "##duc": 8361,
      "dialog": 8362,
      "experience": 8363,
      "##ained": 8364,
      "##uments": 8365,
      "sever": 8366,
      "##́n": 8367,
      "2000": 8368,
      "feat": 8369,
      "partn": 8370,
      "genau": 8371,
      "davon": 8372,
      "hervor": 8373,
      "wa": 8374,
      "rapporte": 8375,
      "gä": 8376,
      "difficult": 8377,
      "aktiv": 8378,
      "feh": 8379,
      "event": 8380,
      "##by": 8381,
      "staaten": 8382,
      "##leg": 8383,
      "afr": 8384,
      "mom": 8385,
      "struct": 8386,
      "single": 8387,
      "south": 8388,
      "##ünst": 8389,
      "##bild": 8390,
      "espec": 8391,
      "town": 8392,
      "-,": 8393,
      "##markt": 8394,
      "address": 8395,
      "cal": 8396,
      "##pe": 8397,
      "benutz": 8398,
      "contrib": 8399,
      "berichterst": 8400,
      "speak": 8401,
      "guar": 8402,
      "mass": 8403,
      "beschäft": 8404,
      "##gele": 8405,
      "frame": 8406,
      "rules": 8407,
      "##rift": 8408,
      "location": 8409,
      "wahl": 8410,
      "##igent": 8411,
      "industr": 8412,
      "##ordnet": 8413,
      "il": 8414,
      "haushalts": 8415,
      "##neh": 8416,
      "##ehn": 8417,
      "issues": 8418,
      "hard": 8419,
      "whole": 8420,
      "express": 8421,
      "ec": 8422,
      "##xim": 8423,
      "gegenüber": 8424,
      "weise": 8425,
      "among": 8426,
      "rück": 8427,
      "##rif": 8428,
      "langu": 8429,
      "subject": 8430,
      "various": 8431,
      "flex": 8432,
      "occ": 8433,
      "##gew": 8434,
      "bieten": 8435,
      "##spr": 8436,
      "erreichen": 8437,
      "neu": 8438,
      "übern": 8439,
      "reason": 8440,
      "##oten": 8441,
      "especially": 8442,
      "##ctions": 8443,
      "sector": 8444,
      "erforder": 8445,
      "##ances": 8446,
      "automat": 8447,
      "close": 8448,
      "##unde": 8449,
      "brauch": 8450,
      "näch": 8451,
      "companies": 8452,
      "thema": 8453,
      "##pflicht": 8454,
      "wes": 8455,
      "kommen": 8456,
      "deal": 8457,
      "##oss": 8458,
      "dep": 8459,
      "lad": 8460,
      "benef": 8461,
      "resolution": 8462,
      "##ames": 8463,
      "##reg": 8464,
      "beginn": 8465,
      "aid": 8466,
      "##iar": 8467,
      "frauen": 8468,
      "gründ": 8469,
      "guarante": 8470,
      "month": 8471,
      "kam": 8472,
      "role": 8473,
      "##schafts": 8474,
      "seiten": 8475,
      "##lar": 8476,
      "##ody": 8477,
      "##wirtschaft": 8478,
      "east": 8479,
      "nah": 8480,
      "##ika": 8481,
      "innerhalb": 8482,
      "probleme": 8483,
      "link": 8484,
      "zwar": 8485,
      "democrat": 8486,
      "welcome": 8487,
      "contra": 8488,
      "following": 8489,
      "camp": 8490,
      "aim": 8491,
      "##bez": 8492,
      "##ennt": 8493,
      "##cle": 8494,
      "##ikel": 8495,
      "wach": 8496,
      "könnte": 8497,
      "eigenen": 8498,
      "tool": 8499,
      "##ser": 8500,
      "##ension": 8501,
      "comfort": 8502,
      "politischen": 8503,
      "##ategor": 8504,
      "##ength": 8505,
      "family": 8506,
      "optim": 8507,
      "##ites": 8508,
      "##gs": 8509,
      "##fast": 8510,
      "##ritte": 8511,
      "\",": 8512,
      "really": 8513,
      "kre": 8514,
      "geschäfts": 8515,
      "##gestellt": 8516,
      "##yl": 8517,
      "##ding": 8518,
      "##ellent": 8519,
      "befindet": 8520,
      "##selves": 8521,
      "allgemein": 8522,
      "lux": 8523,
      "instrument": 8524,
      "##isches": 8525,
      "##ino": 8526,
      "##eil": 8527,
      "kurz": 8528,
      "##vour": 8529,
      "several": 8530,
      "##isions": 8531,
      "##wirk": 8532,
      "##ash": 8533,
      "forsch": 8534,
      "demand": 8535,
      "brit": 8536,
      "create": 8537,
      "##to": 8538,
      "\".": 8539,
      "wohl": 8540,
      "grupp": 8541,
      "wirklich": 8542,
      "dev": 8543,
      "frank": 8544,
      "erweit": 8545,
      "period": 8546,
      "ausschuss": 8547,
      "hatte": 8548,
      "vertre": 8549,
      "##dings": 8550,
      "admin": 8551,
      "called": 8552,
      "##hang": 8553,
      "##fon": 8554,
      "office": 8555,
      "##thing": 8556,
      "##gabe": 8557,
      "##imate": 8558,
      "##inge": 8559,
      "unterstützen": 8560,
      "##auer": 8561,
      "dig": 8562,
      "##fäh": 8563,
      "engl": 8564,
      "zukunft": 8565,
      "done": 8566,
      "perf": 8567,
      "##ven": 8568,
      "solid": 8569,
      "decision": 8570,
      "treaty": 8571,
      "gesetz": 8572,
      "peace": 8573,
      "##app": 8574,
      "leist": 8575,
      "inde": 8576,
      "blo": 8577,
      "##ived": 8578,
      "ess": 8579,
      "##room": 8580,
      "never": 8581,
      "##ably": 8582,
      "##riften": 8583,
      "sea": 8584,
      "yet": 8585,
      "##ined": 8586,
      "##ünft": 8587,
      "negot": 8588,
      "##cted": 8589,
      "resour": 8590,
      "richtlinie": 8591,
      "##ization": 8592,
      "verschiedenen": 8593,
      "gesundheit": 8594,
      "möchten": 8595,
      "favour": 8596,
      "2006": 8597,
      "verbrauch": 8598,
      "##raum": 8599,
      "progress": 8600,
      "berichterstatter": 8601,
      "communic": 8602,
      "lat": 8603,
      "west": 8604,
      "entfernt": 8605,
      "pur": 8606,
      "##go": 8607,
      "excellent": 8608,
      "##ifiz": 8609,
      "four": 8610,
      "##way": 8611,
      "21": 8612,
      "gentle": 8613,
      "##mos": 8614,
      "nov": 8615,
      "preis": 8616,
      "isra": 8617,
      "organis": 8618,
      "##ograph": 8619,
      "relations": 8620,
      "##chan": 8621,
      "germany": 8622,
      "dür": 8623,
      "sport": 8624,
      "approach": 8625,
      "personen": 8626,
      "sett": 8627,
      "something": 8628,
      "##füll": 8629,
      "##ival": 8630,
      "regional": 8631,
      "##ckt": 8632,
      "dest": 8633,
      "##zust": 8634,
      "krit": 8635,
      "tür": 8636,
      "##icient": 8637,
      "##ety": 8638,
      "technology": 8639,
      "organisation": 8640,
      "behand": 8641,
      "rolle": 8642,
      "##ai": 8643,
      "##ift": 8644,
      "hinter": 8645,
      "standards": 8646,
      "individual": 8647,
      "intro": 8648,
      "##reif": 8649,
      "##iple": 8650,
      "extrem": 8651,
      "##feren": 8652,
      "##ides": 8653,
      "arg": 8654,
      "bill": 8655,
      "erste": 8656,
      "früh": 8657,
      "einge": 8658,
      "partners": 8659,
      "##oun": 8660,
      "##werk": 8661,
      "##ican": 8662,
      "mess": 8663,
      "##ima": 8664,
      "neben": 8665,
      "berlin": 8666,
      "woch": 8667,
      "##ours": 8668,
      "rapporteur": 8669,
      "##weisen": 8670,
      "due": 8671,
      "198": 8672,
      "gelegen": 8673,
      "##ishing": 8674,
      "big": 8675,
      "##imin": 8676,
      "##liegen": 8677,
      "##ints": 8678,
      "minutes": 8679,
      "nä": 8680,
      "tv": 8681,
      "cris": 8682,
      "price": 8683,
      "party": 8684,
      "initiative": 8685,
      "itself": 8686,
      "litt": 8687,
      "##ults": 8688,
      "muse": 8689,
      "führen": 8690,
      "continue": 8691,
      "often": 8692,
      "aussp": 8693,
      "##indung": 8694,
      "ladies": 8695,
      "north": 8696,
      "##icher": 8697,
      "##lands": 8698,
      "arm": 8699,
      "until": 8700,
      "safety": 8701,
      "##chs": 8702,
      "particip": 8703,
      "going": 8704,
      "breakfast": 8705,
      "mount": 8706,
      "allerdings": 8707,
      "fundament": 8708,
      "uhr": 8709,
      "##prom": 8710,
      "attra": 8711,
      "schwier": 8712,
      "##gaben": 8713,
      "comple": 8714,
      "mid": 8715,
      "##ring": 8716,
      "money": 8717,
      "persön": 8718,
      "##aufen": 8719,
      "christ": 8720,
      "absol": 8721,
      "ern": 8722,
      "außerdem": 8723,
      "ideal": 8724,
      "review": 8725,
      "etc": 8726,
      "according": 8727,
      "educ": 8728,
      "unterschied": 8729,
      "moment": 8730,
      "fair": 8731,
      "away": 8732,
      "little": 8733,
      "##ordin": 8734,
      "pap": 8735,
      "hinaus": 8736,
      "feel": 8737,
      "fer": 8738,
      "content": 8739,
      "understand": 8740,
      "absch": 8741,
      "##stitution": 8742,
      "schön": 8743,
      "least": 8744,
      "gentlemen": 8745,
      "##räge": 8746,
      "crisis": 8747,
      "refer": 8748,
      "##äum": 8749,
      "downlo": 8750,
      "framework": 8751,
      "##arch": 8752,
      "##schriften": 8753,
      "serious": 8754,
      "##sk": 8755,
      "growth": 8756,
      "offen": 8757,
      "nutzen": 8758,
      "entwicklungs": 8759,
      "israel": 8760,
      "##ipl": 8761,
      "past": 8762,
      "days": 8763,
      "administ": 8764,
      "opin": 8765,
      "jan": 8766,
      "amendments": 8767,
      "gemeinschaft": 8768,
      "pan": 8769,
      "cop": 8770,
      "led": 8771,
      "artic": 8772,
      "##ification": 8773,
      "erg": 8774,
      "having": 8775,
      "zug": 8776,
      "##ober": 8777,
      "range": 8778,
      "function": 8779,
      "complet": 8780,
      "artikel": 8781,
      "##less": 8782,
      "vir": 8783,
      "##iations": 8784,
      "komp": 8785,
      "##ians": 8786,
      "verf": 8787,
      "##führen": 8788,
      "##uring": 8789,
      "##stra": 8790,
      "pleas": 8791,
      "23": 8792,
      "fort": 8793,
      "konn": 8794,
      "##zeitig": 8795,
      "station": 8796,
      "light": 8797,
      "##ativen": 8798,
      "forward": 8799,
      "pot": 8800,
      "bezug": 8801,
      "##tz": 8802,
      "##arten": 8803,
      "agricult": 8804,
      "keep": 8805,
      "friend": 8806,
      "things": 8807,
      "gerade": 8808,
      "altern": 8809,
      "enc": 8810,
      "##atives": 8811,
      "##ements": 8812,
      "ged": 8813,
      "towards": 8814,
      "##beh": 8815,
      "amb": 8816,
      "alth": 8817,
      "##iken": 8818,
      "##ichen": 8819,
      "recog": 8820,
      "##komm": 8821,
      "rather": 8822,
      "institutions": 8823,
      "plac": 8824,
      "reserv": 8825,
      "40": 8826,
      "kor": 8827,
      "left": 8828,
      "mention": 8829,
      "hät": 8830,
      "##ux": 8831,
      "user": 8832,
      "customers": 8833,
      "mean": 8834,
      "##ierungen": 8835,
      "##ksam": 8836,
      "''": 8837,
      "although": 8838,
      "fisch": 8839,
      "jul": 8840,
      "##sh": 8841,
      "stor": 8842,
      "##iere": 8843,
      "meinung": 8844,
      "##zimmer": 8845,
      "fern": 8846,
      "bi": 8847,
      "##atte": 8848,
      "##reit": 8849,
      "##rop": 8850,
      "wesent": 8851,
      "times": 8852,
      "##na": 8853,
      "##program": 8854,
      "verhand": 8855,
      "strong": 8856,
      "komple": 8857,
      "publ": 8858,
      "abgeordnet": 8859,
      "kommt": 8860,
      "##met": 8861,
      "##thers": 8862,
      "bau": 8863,
      "indem": 8864,
      "bestehen": 8865,
      "easy": 8866,
      "##hens": 8867,
      "try": 8868,
      "live": 8869,
      "zusammenhang": 8870,
      "contact": 8871,
      "##wär": 8872,
      "quite": 8873,
      "creat": 8874,
      "uk": 8875,
      "nehmen": 8876,
      "##enzen": 8877,
      "##iful": 8878,
      "jeden": 8879,
      "weltweit": 8880,
      "integration": 8881,
      "computer": 8882,
      "##stück": 8883,
      "##atch": 8884,
      "known": 8885,
      "beiden": 8886,
      "##weis": 8887,
      "flo": 8888,
      "##rieben": 8889,
      "wert": 8890,
      "strategy": 8891,
      "unserem": 8892,
      "##itäts": 8893,
      "##ars": 8894,
      "repub": 8895,
      "via": 8896,
      "##istic": 8897,
      "prepar": 8898,
      "##platz": 8899,
      "etwa": 8900,
      "foc": 8901,
      "22": 8902,
      "lösung": 8903,
      "distrib": 8904,
      "##ule": 8905,
      "bit": 8906,
      "eigent": 8907,
      "##bei": 8908,
      "center": 8909,
      "gesellschaft": 8910,
      "einsch": 8911,
      "##voll": 8912,
      "presiden": 8913,
      "madam": 8914,
      "schluss": 8915,
      "value": 8916,
      "music": 8917,
      "hilfe": 8918,
      "entsprechen": 8919,
      "##asst": 8920,
      "##schutz": 8921,
      "voraus": 8922,
      "entschließ": 8923,
      "ka": 8924,
      "2005": 8925,
      "ba": 8926,
      "holid": 8927,
      "along": 8928,
      "##ana": 8929,
      "increase": 8930,
      "##bereit": 8931,
      "suff": 8932,
      "##hil": 8933,
      "bekannt": 8934,
      "ed": 8935,
      "zusätz": 8936,
      "subs": 8937,
      "gemeinsamen": 8938,
      "film": 8939,
      "activities": 8940,
      "resources": 8941,
      "aufgrund": 8942,
      "wid": 8943,
      "kap": 8944,
      "##itor": 8945,
      "sept": 8946,
      "##mäß": 8947,
      "shar": 8948,
      "##iner": 8949,
      "agree": 8950,
      "##haus": 8951,
      "darf": 8952,
      "begrü": 8953,
      "week": 8954,
      "freed": 8955,
      "bad": 8956,
      "##ison": 8957,
      "##idence": 8958,
      "daran": 8959,
      "opportunity": 8960,
      "nu": 8961,
      "##iesen": 8962,
      "produkte": 8963,
      "äuß": 8964,
      "extra": 8965,
      "jap": 8966,
      "card": 8967,
      "positive": 8968,
      "verpflicht": 8969,
      "bzw": 8970,
      "gäste": 8971,
      "##ktor": 8972,
      "seem": 8973,
      "pool": 8974,
      "foreign": 8975,
      "building": 8976,
      "weniger": 8977,
      "above": 8978,
      "stellt": 8979,
      "assoc": 8980,
      "regulation": 8981,
      "provided": 8982,
      "fal": 8983,
      "option": 8984,
      "sound": 8985,
      "##leicht": 8986,
      "##baren": 8987,
      "##ugen": 8988,
      "fully": 8989,
      "##produ": 8990,
      "bringen": 8991,
      "##rad": 8992,
      "dienstleist": 8993,
      "##fs": 8994,
      "desc": 8995,
      "aktu": 8996,
      "perm": 8997,
      "arbeiten": 8998,
      "bath": 8999,
      "introdu": 9000,
      "training": 9001,
      "beautiful": 9002,
      "sour": 9003,
      "yo": 9004,
      "vertra": 9005,
      "##ächst": 9006,
      "austr": 9007,
      "request": 9008,
      "infl": 9009,
      "hinsicht": 9010,
      "viol": 9011,
      "##liches": 9012,
      "field": 9013,
      "sogar": 9014,
      "##roffen": 9015,
      "mer": 9016,
      "verkehr": 9017,
      "##row": 9018,
      "les": 9019,
      "##bet": 9020,
      "presidency": 9021,
      "##okument": 9022,
      "kons": 9023,
      "send": 9024,
      "atmos": 9025,
      "##bon": 9026,
      "##icken": 9027,
      "might": 9028,
      "##ließen": 9029,
      "cir": 9030,
      "windows": 9031,
      "##achen": 9032,
      "##dert": 9033,
      "moder": 9034,
      "präsidentin": 9035,
      "taking": 9036,
      "##annten": 9037,
      "##system": 9038,
      "##weil": 9039,
      "ol": 9040,
      "struktur": 9041,
      "##reiben": 9042,
      "society": 9043,
      "freedom": 9044,
      "bur": 9045,
      "##teilung": 9046,
      "economy": 9047,
      "gute": 9048,
      "finally": 9049,
      "##ply": 9050,
      "hor": 9051,
      "##half": 9052,
      "gilt": 9053,
      "court": 9054,
      "solution": 9055,
      "signific": 9056,
      "ebenfalls": 9057,
      "return": 9058,
      "client": 9059,
      "ju": 9060,
      "pun": 9061,
      "meth": 9062,
      "september": 9063,
      "projekt": 9064,
      "club": 9065,
      "recomm": 9066,
      "behalf": 9067,
      "##ency": 9068,
      "##rolle": 9069,
      "include": 9070,
      "##forderungen": 9071,
      "##aps": 9072,
      "erfahr": 9073,
      "2004": 9074,
      "süd": 9075,
      "inf": 9076,
      "geld": 9077,
      "buch": 9078,
      "##reiche": 9079,
      "punkt": 9080,
      "näm": 9081,
      "server": 9082,
      "nämlich": 9083,
      "recommend": 9084,
      "##eless": 9085,
      "offic": 9086,
      "nichts": 9087,
      "solidar": 9088,
      "gesagt": 9089,
      "application": 9090,
      "anf": 9091,
      "##use": 9092,
      "interess": 9093,
      "miss": 9094,
      "überw": 9095,
      "constru": 9096,
      "ort": 9097,
      "unab": 9098,
      "hä": 9099,
      "prec": 9100,
      "darin": 9101,
      "derzeit": 9102,
      "sil": 9103,
      "others": 9104,
      "lear": 9105,
      "##ona": 9106,
      "##wohl": 9107,
      "##rifft": 9108,
      "##plan": 9109,
      "young": 9110,
      "##ählen": 9111,
      "betre": 9112,
      "##zug": 9113,
      "unver": 9114,
      "##irm": 9115,
      "compl": 9116,
      "japan": 9117,
      "##igungs": 9118,
      "focus": 9119,
      "millionen": 9120,
      "##ennen": 9121,
      "##frage": 9122,
      "##stadt": 9123,
      "##ception": 9124,
      "europas": 9125,
      "aufge": 9126,
      "proposals": 9127,
      "##zip": 9128,
      "##onger": 9129,
      "##ücksicht": 9130,
      "##atur": 9131,
      "fail": 9132,
      "##ctive": 9133,
      "##ären": 9134,
      "stabil": 9135,
      "dre": 9136,
      "video": 9137,
      "fot": 9138,
      "##aint": 9139,
      "##í": 9140,
      "gern": 9141,
      "gehen": 9142,
      "links": 9143,
      "rechte": 9144,
      "total": 9145,
      "schwer": 9146,
      "cover": 9147,
      "appear": 9148,
      "##ächlich": 9149,
      "fundamental": 9150,
      "zugang": 9151,
      "ihm": 9152,
      "##eller": 9153,
      "que": 9154,
      "harmon": 9155,
      "meeting": 9156,
      "politische": 9157,
      "jahres": 9158,
      "vielleicht": 9159,
      "##airs": 9160,
      "außen": 9161,
      "##20": 9162,
      "code": 9163,
      "points": 9164,
      "##völk": 9165,
      "##bru": 9166,
      "costs": 9167,
      "pak": 9168,
      "vier": 9169,
      "natural": 9170,
      "alt": 9171,
      "vergangen": 9172,
      "ihn": 9173,
      "heart": 9174,
      "strength": 9175,
      "##anken": 9176,
      "##ops": 9177,
      "assist": 9178,
      "simply": 9179,
      "deliver": 9180,
      "charac": 9181,
      "##ght": 9182,
      "news": 9183,
      "##org": 9184,
      "besser": 9185,
      "atmosph": 9186,
      "berücksicht": 9187,
      "##ba": 9188,
      "##here": 9189,
      "nord": 9190,
      "deutschland": 9191,
      "kun": 9192,
      "guest": 9193,
      "eg": 9194,
      "meisten": 9195,
      "2003": 9196,
      "stärk": 9197,
      "##anst": 9198,
      "dessen": 9199,
      "##fully": 9200,
      "weiterhin": 9201,
      "network": 9202,
      "clean": 9203,
      "wasser": 9204,
      "##vention": 9205,
      "thus": 9206,
      "mechan": 9207,
      "##racy": 9208,
      "##self": 9209,
      "verbunden": 9210,
      "hy": 9211,
      "upd": 9212,
      "facilities": 9213,
      "oppos": 9214,
      "perfect": 9215,
      "adopted": 9216,
      "betrifft": 9217,
      "risk": 9218,
      "amendment": 9219,
      "pf": 9220,
      "veränd": 9221,
      "schrift": 9222,
      "guests": 9223,
      "makes": 9224,
      "projects": 9225,
      "janu": 9226,
      "##wahl": 9227,
      "seinem": 9228,
      "step": 9229,
      "ebene": 9230,
      "##prochen": 9231,
      "opinion": 9232,
      "effective": 9233,
      "environmental": 9234,
      "gemacht": 9235,
      "questions": 9236,
      "kommun": 9237,
      "night": 9238,
      "rei": 9239,
      "unterstützt": 9240,
      "green": 9241,
      "fortsch": 9242,
      "italien": 9243,
      "later": 9244,
      "ii": 9245,
      "##side": 9246,
      "##recht": 9247,
      "##atten": 9248,
      "relax": 9249,
      "##rict": 9250,
      "tru": 9251,
      "internal": 9252,
      "click": 9253,
      "anim": 9254,
      "results": 9255,
      "method": 9256,
      "legislation": 9257,
      "civil": 9258,
      "##änger": 9259,
      "capital": 9260,
      "eth": 9261,
      "##cel": 9262,
      "school": 9263,
      "beteil": 9264,
      "groups": 9265,
      "trotz": 9266,
      "##nehmen": 9267,
      "attention": 9268,
      "gere": 9269,
      "garant": 9270,
      "fis": 9271,
      "##á": 9272,
      "##ativ": 9273,
      "##ij": 9274,
      "alm": 9275,
      "##atic": 9276,
      "speziel": 9277,
      "responsibility": 9278,
      "besuch": 9279,
      "##ton": 9280,
      "##ferenz": 9281,
      "aussprache": 9282,
      "employment": 9283,
      "##itions": 9284,
      "flug": 9285,
      "##aste": 9286,
      "qualität": 9287,
      "##stant": 9288,
      "provides": 9289,
      "##word": 9290,
      "nationalen": 9291,
      "continu": 9292,
      "glaube": 9293,
      "mic": 9294,
      "jahrh": 9295,
      "gleichzeitig": 9296,
      "events": 9297,
      "##iers": 9298,
      "##gelegt": 9299,
      "policies": 9300,
      "mär": 9301,
      "##reicht": 9302,
      "weiß": 9303,
      "nam": 9304,
      "technical": 9305,
      "tas": 9306,
      "solche": 9307,
      "enterpr": 9308,
      "##isiert": 9309,
      "##chter": 9310,
      "meer": 9311,
      "media": 9312,
      "##rachten": 9313,
      "##affen": 9314,
      "greater": 9315,
      "clearly": 9316,
      "schaffen": 9317,
      "ira": 9318,
      "digital": 9319,
      "dokument": 9320,
      "##gn": 9321,
      "wohn": 9322,
      "##sweise": 9323,
      "öffentlichen": 9324,
      "##eleg": 9325,
      "cast": 9326,
      "history": 9327,
      "indeed": 9328,
      "erfüll": 9329,
      "mut": 9330,
      "manuf": 9331,
      "complete": 9332,
      "vo": 9333,
      "cultural": 9334,
      "appropr": 9335,
      "concerned": 9336,
      "commit": 9337,
      "ebenso": 9338,
      "indep": 9339,
      "##50": 9340,
      "tit": 9341,
      "side": 9342,
      "##ünf": 9343,
      "restaurants": 9344,
      "prevent": 9345,
      "road": 9346,
      "musik": 9347,
      "einigen": 9348,
      "ve": 9349,
      "2001": 9350,
      "solutions": 9351,
      "dürfen": 9352,
      "##ret": 9353,
      "ord": 9354,
      "sollen": 9355,
      "stell": 9356,
      "century": 9357,
      "##dien": 9358,
      "erhö": 9359,
      "read": 9360,
      "quick": 9361,
      "einges": 9362,
      "original": 9363,
      "spra": 9364,
      "##sc": 9365,
      "relig": 9366,
      "##ators": 9367,
      "##gebung": 9368,
      "##ämpf": 9369,
      "##äu": 9370,
      "##bour": 9371,
      "language": 9372,
      "manufact": 9373,
      "erne": 9374,
      "##ada": 9375,
      "##leben": 9376,
      "element": 9377,
      "unabhäng": 9378,
      "ober": 9379,
      "increasing": 9380,
      "erk": 9381,
      "importance": 9382,
      "leit": 9383,
      "nature": 9384,
      "##aining": 9385,
      "tät": 9386,
      "context": 9387,
      "##ark": 9388,
      "note": 9389,
      "bü": 9390,
      "brauchen": 9391,
      "situated": 9392,
      "kunst": 9393,
      "##iehen": 9394,
      "##ledge": 9395,
      "##nehmer": 9396,
      "verbraucher": 9397,
      "download": 9398,
      "front": 9399,
      "oft": 9400,
      "schul": 9401,
      "demon": 9402,
      "record": 9403,
      "bezieh": 9404,
      "though": 9405,
      "##ha": 9406,
      "maxim": 9407,
      "safe": 9408,
      "##ceed": 9409,
      "keinen": 9410,
      "abstimmung": 9411,
      "handelt": 9412,
      "apr": 9413,
      "##bel": 9414,
      "challen": 9415,
      "##eits": 9416,
      "##ette": 9417,
      "airport": 9418,
      "besten": 9419,
      "wide": 9420,
      "##ym": 9421,
      "friendly": 9422,
      "minim": 9423,
      "##schluss": 9424,
      "elekt": 9425,
      "currently": 9426,
      "force": 9427,
      "##ban": 9428,
      "wün": 9429,
      "##wür": 9430,
      "kolleg": 9431,
      "bewe": 9432,
      "##zustellen": 9433,
      "##wärt": 9434,
      "bevor": 9435,
      "gas": 9436,
      "procedure": 9437,
      "conference": 9438,
      "liberal": 9439,
      "recent": 9440,
      "words": 9441,
      "lot": 9442,
      "##ured": 9443,
      "betrie": 9444,
      "##bare": 9445,
      "cy": 9446,
      "sei": 9447,
      "##verkehr": 9448,
      "##istan": 9449,
      "promot": 9450,
      "##ehm": 9451,
      "education": 9452,
      "ww": 9453,
      "obwohl": 9454,
      "low": 9455,
      "##ric": 9456,
      "principle": 9457,
      "funds": 9458,
      "##läss": 9459,
      "views": 9460,
      "rund": 9461,
      "##yle": 9462,
      "mitarbeit": 9463,
      "significant": 9464,
      "essential": 9465,
      "staat": 9466,
      "travel": 9467,
      "höch": 9468,
      "##esten": 9469,
      "sust": 9470,
      "finanziel": 9471,
      "prü": 9472,
      "stock": 9473,
      "wenig": 9474,
      "sug": 9475,
      "required": 9476,
      "##hält": 9477,
      "dan": 9478,
      "zunächst": 9479,
      "strategie": 9480,
      "##äter": 9481,
      "verfahren": 9482,
      "##acy": 9483,
      "##gegen": 9484,
      "kat": 9485,
      "prakt": 9486,
      "farm": 9487,
      "professional": 9488,
      "##stellt": 9489,
      "##lig": 9490,
      "##onen": 9491,
      "sun": 9492,
      "sam": 9493,
      "##iele": 9494,
      "197": 9495,
      "bedeutet": 9496,
      "benöt": 9497,
      "druck": 9498,
      "##frastru": 9499,
      "##ca": 9500,
      "fünf": 9501,
      "##atul": 9502,
      "2002": 9503,
      "monitor": 9504,
      "würden": 9505,
      "parte": 9506,
      "board": 9507,
      "authorities": 9508,
      "tw": 9509,
      "deutlich": 9510,
      "##hib": 9511,
      "##fall": 9512,
      "consult": 9513,
      "##of": 9514,
      "bevölk": 9515,
      "exch": 9516,
      "wichtige": 9517,
      "gegeben": 9518,
      "november": 9519,
      "gemeinsame": 9520,
      "individu": 9521,
      "space": 9522,
      "##laub": 9523,
      "upon": 9524,
      "##ather": 9525,
      "democracy": 9526,
      "flexib": 9527,
      "##omp": 9528,
      "mann": 9529,
      "beispielsweise": 9530,
      "regions": 9531,
      "60": 9532,
      "##itive": 9533,
      "document": 9534,
      "klima": 9535,
      "##achten": 9536,
      "netz": 9537,
      "##oming": 9538,
      "los": 9539,
      "pet": 9540,
      "industrie": 9541,
      "##anten": 9542,
      "##zer": 9543,
      "##reifen": 9544,
      "pages": 9545,
      "pict": 9546,
      "luft": 9547,
      "competition": 9548,
      "nieder": 9549,
      "##anze": 9550,
      "file": 9551,
      "everything": 9552,
      "##oph": 9553,
      "##haft": 9554,
      "rein": 9555,
      "maint": 9556,
      "##üglich": 9557,
      "portug": 9558,
      "##verb": 9559,
      "##mals": 9560,
      "darum": 9561,
      "##berg": 9562,
      "##ims": 9563,
      "achieve": 9564,
      "democratic": 9565,
      "directly": 9566,
      "wegen": 9567,
      "sn": 9568,
      "carr": 9569,
      "hon": 9570,
      "responsible": 9571,
      "platz": 9572,
      "parties": 9573,
      "##bung": 9574,
      "spa": 9575,
      "prozess": 9576,
      "vorgesch": 9577,
      "##äsent": 9578,
      "april": 9579,
      "illeg": 9580,
      "##zlich": 9581,
      "micro": 9582,
      "##ided": 9583,
      "richtung": 9584,
      "##anced": 9585,
      "character": 9586,
      "nächsten": 9587,
      "##ände": 9588,
      "enough": 9589,
      "article": 9590,
      "requirements": 9591,
      "menschenrechte": 9592,
      "nähe": 9593,
      "demokratie": 9594,
      "findet": 9595,
      "months": 9596,
      "establish": 9597,
      "##gesetzt": 9598,
      "longer": 9599,
      "##ume": 9600,
      "27": 9601,
      "investment": 9602,
      "wachst": 9603,
      "##jen": 9604,
      "##ips": 9605,
      "aud": 9606,
      "ten": 9607,
      "ansp": 9608,
      "normal": 9609,
      "krie": 9610,
      "item": 9611,
      "wettbewerbs": 9612,
      "##ka": 9613,
      "customer": 9614,
      "proposed": 9615,
      "dyn": 9616,
      "##drück": 9617,
      "paris": 9618,
      "golf": 9619,
      "empfeh": 9620,
      "insp": 9621,
      "##immen": 9622,
      "agen": 9623,
      "garden": 9624,
      "##einander": 9625,
      "implementation": 9626,
      "rot": 9627,
      "ihres": 9628,
      "##maß": 9629,
      "seen": 9630,
      "cut": 9631,
      "fight": 9632,
      "agend": 9633,
      "sen": 9634,
      "##cing": 9635,
      "head": 9636,
      "gast": 9637,
      "bul": 9638,
      "target": 9639,
      "umsetzung": 9640,
      "jede": 9641,
      "recogn": 9642,
      "##ingt": 9643,
      "##ape": 9644,
      "unters": 9645,
      "interests": 9646,
      "hinzu": 9647,
      "apply": 9648,
      "final": 9649,
      "ansicht": 9650,
      "##ining": 9651,
      "##amt": 9652,
      "franz": 9653,
      "##ither": 9654,
      "##ffung": 9655,
      "lib": 9656,
      "engine": 9657,
      "werde": 9658,
      "needed": 9659,
      "herren": 9660,
      "grand": 9661,
      "kleinen": 9662,
      "##ones": 9663,
      "extern": 9664,
      "developed": 9665,
      "separ": 9666,
      "jedes": 9667,
      "##des": 9668,
      "##ench": 9669,
      "guarantee": 9670,
      "##ano": 9671,
      "##frist": 9672,
      "circ": 9673,
      "internationale": 9674,
      "##mbh": 9675,
      "booking": 9676,
      "gebiet": 9677,
      "regist": 9678,
      "cross": 9679,
      "500": 9680,
      "nice": 9681,
      "entscheiden": 9682,
      "bedingungen": 9683,
      "image": 9684,
      "##uten": 9685,
      "schritt": 9686,
      "transl": 9687,
      "rout": 9688,
      "##ending": 9689,
      "schließlich": 9690,
      "type": 9691,
      "##ables": 9692,
      "gmbh": 9693,
      "##lik": 9694,
      "anwendung": 9695,
      "##gliche": 9696,
      "climate": 9697,
      "##öffent": 9698,
      "ziele": 9699,
      "changes": 9700,
      "extremely": 9701,
      "tages": 9702,
      "phil": 9703,
      "##ross": 9704,
      "game": 9705,
      "sure": 9706,
      "consequ": 9707,
      "related": 9708,
      "##undert": 9709,
      "involved": 9710,
      "##istischen": 9711,
      "rate": 9712,
      "##wick": 9713,
      "schwe": 9714,
      "wissenschaft": 9715,
      "weiteren": 9716,
      "themselves": 9717,
      "einsatz": 9718,
      "agenda": 9719,
      "verantwortung": 9720,
      "status": 9721,
      "##ality": 9722,
      "##ichtet": 9723,
      "##itzen": 9724,
      "erziel": 9725,
      "notwendig": 9726,
      "soon": 9727,
      "dim": 9728,
      "##cke": 9729,
      "either": 9730,
      "share": 9731,
      "ausgest": 9732,
      "happen": 9733,
      "comfortable": 9734,
      "affairs": 9735,
      "##heim": 9736,
      "living": 9737,
      "##äche": 9738,
      "efforts": 9739,
      "true": 9740,
      "performance": 9741,
      "www": 9742,
      "##wirkungen": 9743,
      "prem": 9744,
      "sprechen": 9745,
      "infrastru": 9746,
      "russia": 9747,
      "lange": 9748,
      "##üssel": 9749,
      "##erous": 9750,
      "aug": 9751,
      "##arian": 9752,
      "jeweil": 9753,
      "voted": 9754,
      "##verständ": 9755,
      "liegen": 9756,
      "##richtung": 9757,
      "hoffe": 9758,
      "frieden": 9759,
      "mont": 9760,
      "##setzen": 9761,
      "##haltung": 9762,
      "looking": 9763,
      "fü": 9764,
      "additional": 9765,
      "##gleich": 9766,
      "##cks": 9767,
      "##best": 9768,
      "previous": 9769,
      "markets": 9770,
      "sicherheits": 9771,
      "holiday": 9772,
      "raum": 9773,
      "displ": 9774,
      "caus": 9775,
      "kir": 9776,
      "kop": 9777,
      "iran": 9778,
      "blei": 9779,
      "halten": 9780,
      "oblig": 9781,
      "sozialen": 9782,
      "aufmer": 9783,
      "##ought": 9784,
      "surround": 9785,
      "##iting": 9786,
      "##unch": 9787,
      "##ery": 9788,
      "amerikan": 9789,
      "##bank": 9790,
      "verfüg": 9791,
      "prices": 9792,
      "##ript": 9793,
      "ago": 9794,
      "almost": 9795,
      "vorschläge": 9796,
      "interesse": 9797,
      "analys": 9798,
      "##ritten": 9799,
      "demonstr": 9800,
      "klein": 9801,
      "ermöglich": 9802,
      "gehört": 9803,
      "akzept": 9804,
      "bisher": 9805,
      "france": 9806,
      "grundlage": 9807,
      "##zz": 9808,
      "bon": 9809,
      "reihe": 9810,
      "intens": 9811,
      "überein": 9812,
      "wort": 9813,
      "ble": 9814,
      "verschiedene": 9815,
      "##dam": 9816,
      "verwendet": 9817,
      "vollständ": 9818,
      "features": 9819,
      "engag": 9820,
      "tom": 9821,
      "lack": 9822,
      "##ommod": 9823,
      "thanks": 9824,
      "frü": 9825,
      "kraft": 9826,
      "##kr": 9827,
      "enthalten": 9828,
      "geschichte": 9829,
      "culture": 9830,
      "familien": 9831,
      "accommod": 9832,
      "##linien": 9833,
      "anw": 9834,
      "##ired": 9835,
      "apartments": 9836,
      "##eite": 9837,
      "sustain": 9838,
      "##atory": 9839,
      "##leit": 9840,
      "corre": 9841,
      "propert": 9842,
      "##aren": 9843,
      "vors": 9844,
      "five": 9845,
      "gewalt": 9846,
      "communication": 9847,
      "ground": 9848,
      "##igur": 9849,
      "angelegen": 9850,
      "##hes": 9851,
      "french": 9852,
      "schein": 9853,
      "zentral": 9854,
      "einzelnen": 9855,
      "negotiations": 9856,
      "##itionen": 9857,
      "veröffent": 9858,
      "##...": 9859,
      "developing": 9860,
      "lok": 9861,
      "rechn": 9862,
      "knowledge": 9863,
      "cases": 9864,
      "möglichkeiten": 9865,
      "sem": 9866,
      "transfer": 9867,
      "konkre": 9868,
      "walk": 9869,
      "equip": 9870,
      "bleiben": 9871,
      "##ieht": 9872,
      "erreicht": 9873,
      "##ägt": 9874,
      "##aussch": 9875,
      "profit": 9876,
      "##oint": 9877,
      "gemeinsam": 9878,
      "freund": 9879,
      "draw": 9880,
      "##hnen": 9881,
      "1999": 9882,
      "heiß": 9883,
      "indic": 9884,
      "vict": 9885,
      "american": 9886,
      "jour": 9887,
      "convention": 9888,
      "joint": 9889,
      "created": 9890,
      "comes": 9891,
      "unique": 9892,
      "blick": 9893,
      "included": 9894,
      "80": 9895,
      "mand": 9896,
      "leider": 9897,
      "##ios": 9898,
      "search": 9899,
      "institutionen": 9900,
      "prim": 9901,
      "könnten": 9902,
      "##ama": 9903,
      "##ental": 9904,
      "##andid": 9905,
      "später": 9906,
      "ill": 9907,
      "##tended": 9908,
      "kern": 9909,
      "##key": 9910,
      "##würd": 9911,
      "neues": 9912,
      "divers": 9913,
      "immed": 9914,
      "debatte": 9915,
      "##ering": 9916,
      "speed": 9917,
      "ham": 9918,
      "protect": 9919,
      "falls": 9920,
      "lö": 9921,
      "island": 9922,
      "196": 9923,
      "absolut": 9924,
      "##ätzen": 9925,
      "actually": 9926,
      "genie": 9927,
      "ep": 9928,
      "##ffnet": 9929,
      "##mitted": 9930,
      "##urt": 9931,
      "sand": 9932,
      "suggest": 9933,
      "damen": 9934,
      "nachhalt": 9935,
      "cat": 9936,
      "##hem": 9937,
      "aufmerksam": 9938,
      "erwä": 9939,
      "mensch": 9940,
      "gab": 9941,
      "brand": 9942,
      "##ipped": 9943,
      "##omes": 9944,
      "designed": 9945,
      "chem": 9946,
      "users": 9947,
      "##vant": 9948,
      "dut": 9949,
      "entscheidung": 9950,
      "famous": 9951,
      "frühstück": 9952,
      "##erseits": 9953,
      "gal": 9954,
      "vereinbar": 9955,
      "anerk": 9956,
      "##ught": 9957,
      "details": 9958,
      "steuer": 9959,
      "improve": 9960,
      "behör": 9961,
      "territ": 9962,
      "museum": 9963,
      "handel": 9964,
      "kontroll": 9965,
      "held": 9966,
      "##yr": 9967,
      "minuten": 9968,
      "##auft": 9969,
      "expect": 9970,
      "exclus": 9971,
      "##zeigt": 9972,
      "early": 9973,
      "dienstleistungen": 9974,
      "motor": 9975,
      "##reib": 9976,
      "##attet": 9977,
      "##arbeitung": 9978,
      "subsid": 9979,
      "workers": 9980,
      "vorgeschlagen": 9981,
      "##griff": 9982,
      "ausdruck": 9983,
      "ut": 9984,
      "##endent": 9985,
      "hinblick": 9986,
      "landes": 9987,
      "kos": 9988,
      "##deut": 9989,
      "obj": 9990,
      "model": 9991,
      "mitglieder": 9992,
      "ap": 9993,
      "dad": 9994,
      "##gern": 9995,
      "emph": 9996,
      "##grupp": 9997,
      "##teile": 9998,
      "cru": 9999,
      "dro": 10000,
      "handels": 10001,
      "idea": 10002,
      "lond": 10003,
      "binnen": 10004,
      "rich": 10005,
      "lead": 10006,
      "rea": 10007,
      "throughout": 10008,
      "ermöglicht": 10009,
      "verfügt": 10010,
      "outside": 10011,
      "english": 10012,
      "determ": 10013,
      "##arte": 10014,
      "##hnt": 10015,
      "apartment": 10016,
      "fäll": 10017,
      "winter": 10018,
      "diskuss": 10019,
      "##ieg": 10020,
      "##ting": 10021,
      "prä": 10022,
      "effiz": 10023,
      "works": 10024,
      "rail": 10025,
      "##iffen": 10026,
      "street": 10027,
      "##ense": 10028,
      "zeigt": 10029,
      "##haps": 10030,
      "##elling": 10031,
      "abkommen": 10032,
      "encour": 10033,
      "lag": 10034,
      "##isf": 10035,
      "erhe": 10036,
      "##arbeiten": 10037,
      "ara": 10038,
      "verfol": 10039,
      "stop": 10040,
      "certainly": 10041,
      "##ead": 10042,
      "##bre": 10043,
      "vö": 10044,
      "patient": 10045,
      "überprü": 10046,
      "bahn": 10047,
      "receive": 10048,
      "across": 10049,
      "industrial": 10050,
      "tatsächlich": 10051,
      "mig": 10052,
      "regionen": 10053,
      "ergebnis": 10054,
      "##igte": 10055,
      "auswirkungen": 10056,
      "##ley": 10057,
      "dynam": 10058,
      "fach": 10059,
      "erforderlich": 10060,
      "##obil": 10061,
      "appropriate": 10062,
      "jud": 10063,
      "##ionen": 10064,
      "perhaps": 10065,
      "##do": 10066,
      "änderungsantrag": 10067,
      "antwort": 10068,
      "refle": 10069,
      "staats": 10070,
      "chance": 10071,
      "origin": 10072,
      "##cl": 10073,
      "hatten": 10074,
      "ban": 10075,
      "las": 10076,
      "##bahn": 10077,
      "credit": 10078,
      "kontakt": 10079,
      "veranst": 10080,
      "führt": 10081,
      "##arf": 10082,
      "built": 10083,
      "august": 10084,
      "entde": 10085,
      "anzu": 10086,
      "traditional": 10087,
      "##gu": 10088,
      "sicht": 10089,
      "##abled": 10090,
      "##aden": 10091,
      "##teilen": 10092,
      "band": 10093,
      "##jenigen": 10094,
      "pc": 10095,
      "basic": 10096,
      "sex": 10097,
      "##arm": 10098,
      "##aupt": 10099,
      "gesamten": 10100,
      "##gesehen": 10101,
      "##uff": 10102,
      "##fel": 10103,
      "abgeordneten": 10104,
      "tatsache": 10105,
      "wirtschaftlichen": 10106,
      "##unge": 10107,
      "nothing": 10108,
      "mem": 10109,
      "##́s": 10110,
      "verhandlungen": 10111,
      "squ": 10112,
      "hohen": 10113,
      "thing": 10114,
      "angesichts": 10115,
      "sorgen": 10116,
      "##bildung": 10117,
      "exec": 10118,
      "##iance": 10119,
      "##steh": 10120,
      "##isieren": 10121,
      "parts": 10122,
      "##ählt": 10123,
      "london": 10124,
      "double": 10125,
      "series": 10126,
      "privat": 10127,
      "exchange": 10128,
      "##gra": 10129,
      "van": 10130,
      "schle": 10131,
      "##fragen": 10132,
      "liste": 10133,
      "setzen": 10134,
      "##standen": 10135,
      "26": 10136,
      "spielen": 10137,
      "coll": 10138,
      "##ilar": 10139,
      "dadurch": 10140,
      "##rechts": 10141,
      "answer": 10142,
      "warum": 10143,
      "face": 10144,
      "##dle": 10145,
      "hours": 10146,
      "half": 10147,
      "gegenwärt": 10148,
      "majority": 10149,
      "innovation": 10150,
      "condition": 10151,
      "verm": 10152,
      "entwickelt": 10153,
      "repl": 10154,
      "rule": 10155,
      "tex": 10156,
      "sag": 10157,
      "zentrum": 10158,
      "##auen": 10159,
      "danken": 10160,
      "vern": 10161,
      "gemeinschafts": 10162,
      "kolleginnen": 10163,
      "tim": 10164,
      "##oid": 10165,
      "cla": 10166,
      "doing": 10167,
      "constitution": 10168,
      "emphas": 10169,
      "treffen": 10170,
      "gruppe": 10171,
      "##proz": 10172,
      "verd": 10173,
      "fu": 10174,
      "##vere": 10175,
      "werk": 10176,
      "##ester": 10177,
      "desp": 10178,
      "zudem": 10179,
      "morgen": 10180,
      "complex": 10181,
      "tick": 10182,
      "##plätze": 10183,
      "##fert": 10184,
      "##mp": 10185,
      "terra": 10186,
      "zuständ": 10187,
      "div": 10188,
      "kleine": 10189,
      "##schlag": 10190,
      "angenommen": 10191,
      "##ots": 10192,
      "body": 10193,
      "erö": 10194,
      "broad": 10195,
      "concerning": 10196,
      "mü": 10197,
      "discover": 10198,
      "military": 10199,
      "feder": 10200,
      "28": 10201,
      "strengthen": 10202,
      "spir": 10203,
      "300": 10204,
      "amount": 10205,
      "erwart": 10206,
      "anb": 10207,
      "jedem": 10208,
      "hätte": 10209,
      "black": 10210,
      "##alu": 10211,
      "##gl": 10212,
      "übr": 10213,
      "lay": 10214,
      "denke": 10215,
      "takes": 10216,
      "##va": 10217,
      "analy": 10218,
      "tor": 10219,
      "##afen": 10220,
      "western": 10221,
      "##ämpfung": 10222,
      "##ländern": 10223,
      "##barkeit": 10224,
      "##asc": 10225,
      "##erei": 10226,
      "fit": 10227,
      "##cies": 10228,
      "movement": 10229,
      "proper": 10230,
      "resol": 10231,
      "enlar": 10232,
      "##usst": 10233,
      "colleag": 10234,
      "##möglichen": 10235,
      "connection": 10236,
      "##entur": 10237,
      "leading": 10238,
      "fuß": 10239,
      "six": 10240,
      "änderungsanträge": 10241,
      "##fung": 10242,
      "extens": 10243,
      "##ging": 10244,
      "##ässt": 10245,
      "landwirtschaft": 10246,
      "bereichen": 10247,
      "programmes": 10248,
      "strand": 10249,
      "zweif": 10250,
      "job": 10251,
      "##organ": 10252,
      "existing": 10253,
      "style": 10254,
      "jobs": 10255,
      "01": 10256,
      "mobile": 10257,
      "official": 10258,
      "email": 10259,
      "emer": 10260,
      "vereinigten": 10261,
      "##ächt": 10262,
      "##ille": 10263,
      "instead": 10264,
      "##ork": 10265,
      "auss": 10266,
[...]
